<pad>	0
<unk>	0
<s>	0
</s>	0
[EN]	0
[HI]	0
in	-0
en	-1
an	-2
on	-3
ti	-4
al	-5
de	-6
ing	-7
▁m	-8
ar	-9
or	-10
▁t	-11
tion	-12
es	-13
re	-14
▁f	-15
▁n	-16
▁p	-17
ode	-18
er	-19
le	-20
tu	-21
▁T	-22
enc	-23
orm	-24
▁to	-25
▁mode	-26
ed	-27
ep	-28
iz	-29
ls	-30
oc	-31
of	-32
ow	-33
st	-34
tt	-35
▁a	-36
ans	-37
ers	-38
▁ar	-39
▁fu	-40
▁of	-41
▁tr	-42
ding	-43
form	-44
tten	-45
ture	-46
ation	-47
▁models	-48
ab	-49
ag	-50
ch	-51
el	-52
em	-53
et	-54
gu	-55
he	-56
is	-57
it	-58
ks	-59
ts	-60
ul	-61
us	-62
▁c	-63
▁l	-64
▁s	-65
and	-66
ess	-67
etw	-68
ken	-69
rev	-70
roc	-71
▁de	-72
▁in	-73
angu	-74
oder	-75
orks	-76
ulti	-77
▁The	-78
▁enc	-79
▁netw	-80
▁proc	-81
anguag	-82
essing	-83
▁atten	-84
▁multi	-85
▁trans	-86
formers	-87
▁future	-88
▁languag	-89
▁networks	-90
▁processing	-91
Ca	-92
De	-93
Fe	-94
La	-95
am	-96
as	-97
av	-98
ci	-99
dd	-100
ec	-101
eq	-102
fi	-103
ig	-104
il	-105
lu	-106
ms	-107
nd	-108
om	-109
os	-110
rn	-111
un	-112
▁A	-113
▁S	-114
▁h	-115
Lay	-116
abl	-117
ain	-118
all	-119
ant	-120
ard	-121
arn	-122
ask	-123
atu	-124
ave	-125
bed	-126
cep	-127
der	-128
ear	-129
ech	-130
elf	-131
ell	-132
ems	-133
ent	-134
equ	-135
ity	-136
lel	-137
lev	-138
lin	-139
olu	-140
orw	-141
osi	-142
ple	-143
ral	-144
rom	-145
ual	-146
yst	-147
▁Ca	-148
▁De	-149
▁Fe	-150
▁To	-151
▁Tr	-152
▁em	-153
▁en	-154
▁is	-155
▁le	-156
▁on	-157
▁re	-158
▁st	-159
▁un	-160
abil	-161
aliz	-162
anis	-163
aral	-164
chit	-165
cial	-166
ence	-167
ents	-168
ized	-169
izes	-170
kens	-171
ling	-172
ndam	-173
ocus	-174
tell	-175
tifi	-176
usal	-177
▁Lay	-178
▁add	-179
▁all	-180
▁and	-181
▁are	-182
▁can	-183
▁con	-184
▁dec	-185
▁non	-186
▁now	-187
▁pow	-188
▁rev	-189
ables	-190
cepts	-191
derst	-192
ences	-193
ental	-194
oding	-195
▁Deep	-196
▁Feed	-197
▁Self	-198
▁deep	-199
▁forw	-200
▁from	-201
▁have	-202
▁mask	-203
▁mech	-204
▁natu	-205
▁norm	-206
▁posi	-207
▁prev	-208
▁sequ	-209
▁syst	-210
aining	-211
anisms	-212
arning	-213
chitec	-214
earity	-215
igence	-216
lation	-217
levant	-218
tional	-219
▁Atten	-220
▁Layer	-221
▁Token	-222
▁Trans	-223
▁allow	-224
▁embed	-225
▁focus	-226
▁paral	-227
lingual	-228
olution	-229
▁Causal	-230
▁artifi	-231
▁fundam	-232
▁inform	-233
▁intell	-234
▁modern	-235
▁powers	-236
▁stabil	-237
▁tokens	-238
derstand	-239
▁decoder	-240
▁enables	-241
▁encoder	-242
▁forward	-243
▁masking	-244
▁natural	-245
▁systems	-246
alization	-247
linearity	-248
▁architec	-249
▁concepts	-250
▁encoding	-251
▁language	-252
▁learning	-253
▁multiple	-254
▁parallel	-255
▁prevents	-256
▁relevant	-257
▁training	-258
▁Attention	-259
▁attending	-260
▁attention	-261
▁embedding	-262
▁languages	-263
▁sequences	-264
olutionized	-265
▁artificial	-266
▁mechanisms	-267
▁positional	-268
▁stabilizes	-269
▁understand	-270
▁fundamental	-271
▁information	-272
▁translation	-273
▁Transformers	-274
▁architecture	-275
▁intelligence	-276
▁multilingual	-277
▁transformers	-278
▁normalization	-279
▁revolutionized	-280
At	-281
Se	-282
Th	-283
To	-284
Tr	-285
ad	-286
ai	-287
at	-288
au	-289
ay	-290
be	-291
bi	-292
bl	-293
ca	-294
ce	-295
co	-296
ct	-297
cu	-298
da	-299
di	-300
ea	-301
ee	-302
ev	-303
fo	-304
fr	-305
fu	-306
ge	-307
ha	-308
hi	-309
ia	-310
ic	-311
if	-312
io	-313
ip	-314
ke	-315
ki	-316
la	-317
lf	-318
li	-319
ll	-320
lo	-321
lt	-322
ma	-323
mb	-324
me	-325
mo	-326
mu	-327
na	-328
nc	-329
ne	-330
nf	-331
ng	-332
ni	-333
no	-334
ns	-335
nt	-336
od	-337
ok	-338
ol	-339
pa	-340
pl	-341
po	-342
pr	-343
pt	-344
qu	-345
ra	-346
rc	-347
rd	-348
ri	-349
rk	-350
rm	-351
ro	-352
rs	-353
rt	-354
rw	-355
sa	-356
se	-357
sf	-358
si	-359
sk	-360
sl	-361
sm	-362
ss	-363
sy	-364
ta	-365
te	-366
to	-367
tr	-368
tw	-369
ty	-370
ua	-371
ue	-372
ur	-373
ut	-374
va	-375
ve	-376
vo	-377
wa	-378
we	-379
wo	-380
ye	-381
ys	-382
za	-383
ze	-384
▁C	-385
▁D	-386
▁F	-387
▁L	-388
▁d	-389
▁e	-390
▁i	-391
▁o	-392
▁r	-393
▁u	-394
Att	-395
Sel	-396
abi	-397
age	-398
ali	-399
ang	-400
ani	-401
arc	-402
are	-403
ari	-404
ati	-405
att	-406
aus	-407
can	-408
ces	-409
chi	-410
con	-411
ctu	-412
dam	-413
dec	-414
dee	-415
del	-416
din	-417
edd	-418
eed	-419
eep	-420
emb	-421
ena	-422
end	-423
ens	-424
ept	-425
for	-426
gen	-427
ges	-428
han	-429
hav	-430
ial	-431
ici	-432
ine	-433
inf	-434
ini	-435
int	-436
ion	-437
ism	-438
ite	-439
iti	-440
iza	-441
kin	-442
lan	-443
les	-444
lig	-445
liz	-446
low	-447
lti	-448
mal	-449
men	-450
mer	-451
nde	-452
nin	-453
non	-454
nor	-455
ocu	-456
ona	-457
onc	-458
oni	-459
▁	-460
e	-461
n	-462
a	-463
o	-464
t	-465
r	-466
i	-467
s	-468
l	-469
d	-470
m	-471
u	-472
c	-473
f	-474
g	-475
.	-476
p	-477
w	-478
h	-479
k	-480
T	-481
v	-482
b	-483
y	-484
z	-485
-	-486
A	-487
C	-488
D	-489
F	-490
L	-491
S	-492
q	-493
