{
  "version": "1.0",
  "truncation": null,
  "padding": null,
  "added_tokens": [
    {
      "id": 0,
      "content": "[PAD]",
      "single_word": false,
      "lstrip": false,
      "rstrip": false,
      "normalized": false,
      "special": true
    },
    {
      "id": 1,
      "content": "[UNK]",
      "single_word": false,
      "lstrip": false,
      "rstrip": false,
      "normalized": false,
      "special": true
    },
    {
      "id": 2,
      "content": "[CLS]",
      "single_word": false,
      "lstrip": false,
      "rstrip": false,
      "normalized": false,
      "special": true
    },
    {
      "id": 3,
      "content": "[SEP]",
      "single_word": false,
      "lstrip": false,
      "rstrip": false,
      "normalized": false,
      "special": true
    },
    {
      "id": 4,
      "content": "[MASK]",
      "single_word": false,
      "lstrip": false,
      "rstrip": false,
      "normalized": false,
      "special": true
    }
  ],
  "normalizer": null,
  "pre_tokenizer": {
    "type": "Whitespace"
  },
  "post_processor": null,
  "decoder": null,
  "model": {
    "type": "BPE",
    "dropout": null,
    "unk_token": null,
    "continuing_subword_prefix": null,
    "end_of_word_suffix": null,
    "fuse_unk": false,
    "byte_fallback": false,
    "ignore_merges": false,
    "vocab": {
      "[PAD]": 0,
      "[UNK]": 1,
      "[CLS]": 2,
      "[SEP]": 3,
      "[MASK]": 4,
      "!": 5,
      "\"": 6,
      "#": 7,
      "$": 8,
      "%": 9,
      "&": 10,
      "'": 11,
      "(": 12,
      ")": 13,
      "*": 14,
      "+": 15,
      ",": 16,
      "-": 17,
      ".": 18,
      "/": 19,
      "0": 20,
      "1": 21,
      "2": 22,
      "3": 23,
      "4": 24,
      "5": 25,
      "6": 26,
      "7": 27,
      "8": 28,
      "9": 29,
      ":": 30,
      ";": 31,
      "<": 32,
      "=": 33,
      ">": 34,
      "?": 35,
      "@": 36,
      "A": 37,
      "B": 38,
      "C": 39,
      "D": 40,
      "E": 41,
      "F": 42,
      "G": 43,
      "H": 44,
      "I": 45,
      "J": 46,
      "K": 47,
      "L": 48,
      "M": 49,
      "N": 50,
      "O": 51,
      "P": 52,
      "Q": 53,
      "R": 54,
      "S": 55,
      "T": 56,
      "U": 57,
      "V": 58,
      "W": 59,
      "X": 60,
      "Y": 61,
      "Z": 62,
      "[": 63,
      "]": 64,
      "^": 65,
      "_": 66,
      "`": 67,
      "a": 68,
      "b": 69,
      "c": 70,
      "d": 71,
      "e": 72,
      "f": 73,
      "g": 74,
      "h": 75,
      "i": 76,
      "j": 77,
      "k": 78,
      "l": 79,
      "m": 80,
      "n": 81,
      "o": 82,
      "p": 83,
      "q": 84,
      "r": 85,
      "s": 86,
      "t": 87,
      "u": 88,
      "v": 89,
      "w": 90,
      "x": 91,
      "y": 92,
      "z": 93,
      "}": 94,
      "~": 95,
      "£": 96,
      "§": 97,
      "°": 98,
      "²": 99,
      "³": 100,
      "´": 101,
      "µ": 102,
      "º": 103,
      "½": 104,
      "¿": 105,
      "Á": 106,
      "Ä": 107,
      "Å": 108,
      "Æ": 109,
      "É": 110,
      "Î": 111,
      "Ñ": 112,
      "Ó": 113,
      "Ö": 114,
      "×": 115,
      "Ú": 116,
      "Ü": 117,
      "ß": 118,
      "à": 119,
      "á": 120,
      "â": 121,
      "ã": 122,
      "ä": 123,
      "å": 124,
      "æ": 125,
      "ç": 126,
      "è": 127,
      "é": 128,
      "ê": 129,
      "ë": 130,
      "í": 131,
      "î": 132,
      "ï": 133,
      "ñ": 134,
      "ó": 135,
      "ô": 136,
      "ö": 137,
      "ø": 138,
      "ù": 139,
      "ú": 140,
      "ü": 141,
      "ā": 142,
      "ă": 143,
      "ą": 144,
      "ć": 145,
      "č": 146,
      "đ": 147,
      "ē": 148,
      "ĕ": 149,
      "ę": 150,
      "ğ": 151,
      "ī": 152,
      "Ľ": 153,
      "Ł": 154,
      "ł": 155,
      "ń": 156,
      "Ō": 157,
      "ō": 158,
      "œ": 159,
      "ř": 160,
      "ś": 161,
      "Ş": 162,
      "ş": 163,
      "Š": 164,
      "š": 165,
      "ţ": 166,
      "ū": 167,
      "ź": 168,
      "Ż": 169,
      "ż": 170,
      "ǎ": 171,
      "ș": 172,
      "ț": 173,
      "ȯ": 174,
      "ɑ": 175,
      "ɒ": 176,
      "ɔ": 177,
      "ə": 178,
      "ɛ": 179,
      "ɡ": 180,
      "ɪ": 181,
      "ɾ": 182,
      "ʁ": 183,
      "ʃ": 184,
      "ʊ": 185,
      "ʒ": 186,
      "ʔ": 187,
      "ʲ": 188,
      "ʿ": 189,
      "ˈ": 190,
      "ˌ": 191,
      "ː": 192,
      "̃": 193,
      "Κ": 194,
      "ά": 195,
      "έ": 196,
      "ή": 197,
      "ί": 198,
      "α": 199,
      "β": 200,
      "γ": 201,
      "δ": 202,
      "ε": 203,
      "θ": 204,
      "ι": 205,
      "κ": 206,
      "λ": 207,
      "μ": 208,
      "ν": 209,
      "ξ": 210,
      "ο": 211,
      "π": 212,
      "ρ": 213,
      "ς": 214,
      "σ": 215,
      "τ": 216,
      "υ": 217,
      "χ": 218,
      "ψ": 219,
      "ό": 220,
      "ώ": 221,
      "В": 222,
      "Г": 223,
      "К": 224,
      "П": 225,
      "С": 226,
      "а": 227,
      "в": 228,
      "д": 229,
      "е": 230,
      "з": 231,
      "и": 232,
      "й": 233,
      "к": 234,
      "л": 235,
      "н": 236,
      "о": 237,
      "п": 238,
      "р": 239,
      "с": 240,
      "т": 241,
      "ш": 242,
      "ъ": 243,
      "ы": 244,
      "є": 245,
      "ג": 246,
      "ה": 247,
      "ו": 248,
      "מ": 249,
      "נ": 250,
      "ס": 251,
      "פ": 252,
      "צ": 253,
      "ש": 254,
      "أ": 255,
      "إ": 256,
      "ا": 257,
      "ب": 258,
      "ة": 259,
      "ت": 260,
      "ث": 261,
      "ج": 262,
      "ح": 263,
      "د": 264,
      "ذ": 265,
      "ر": 266,
      "س": 267,
      "ص": 268,
      "ع": 269,
      "ف": 270,
      "ق": 271,
      "ك": 272,
      "ل": 273,
      "م": 274,
      "ن": 275,
      "ي": 276,
      "ܐ": 277,
      "ܕ": 278,
      "ܝ": 279,
      "ܢ": 280,
      "ܬ": 281,
      "ก": 282,
      "ค": 283,
      "ง": 284,
      "ช": 285,
      "ซ": 286,
      "ญ": 287,
      "ฐ": 288,
      "ณ": 289,
      "ด": 290,
      "ต": 291,
      "บ": 292,
      "ป": 293,
      "พ": 294,
      "ภ": 295,
      "ม": 296,
      "ย": 297,
      "ร": 298,
      "ล": 299,
      "ว": 300,
      "ศ": 301,
      "ษ": 302,
      "ส": 303,
      "ห": 304,
      "อ": 305,
      "ั": 306,
      "า": 307,
      "ิ": 308,
      "ี": 309,
      "ึ": 310,
      "เ": 311,
      "แ": 312,
      "ไ": 313,
      "็": 314,
      "่": 315,
      "้": 316,
      "๊": 317,
      "์": 318,
      "ᵻ": 319,
      "ḍ": 320,
      "ḏ": 321,
      "Ḥ": 322,
      "ḥ": 323,
      "ṣ": 324,
      "ṯ": 325,
      "ạ": 326,
      "ἀ": 327,
      "ἰ": 328,
      "ὁ": 329,
      "ὑ": 330,
      "​": 331,
      "‐": 332,
      "‑": 333,
      "–": 334,
      "—": 335,
      "‘": 336,
      "’": 337,
      "“": 338,
      "”": 339,
      "„": 340,
      "†": 341,
      "‡": 342,
      "…": 343,
      "′": 344,
      "″": 345,
      "⁄": 346,
      "₤": 347,
      "€": 348,
      "₹": 349,
      "→": 350,
      "−": 351,
      "♭": 352,
      "♯": 353,
      "〜": 354,
      "い": 355,
      "う": 356,
      "お": 357,
      "か": 358,
      "が": 359,
      "き": 360,
      "く": 361,
      "ぐ": 362,
      "こ": 363,
      "さ": 364,
      "し": 365,
      "す": 366,
      "ず": 367,
      "た": 368,
      "だ": 369,
      "ち": 370,
      "っ": 371,
      "つ": 372,
      "と": 373,
      "な": 374,
      "に": 375,
      "の": 376,
      "ば": 377,
      "ひ": 378,
      "ま": 379,
      "み": 380,
      "め": 381,
      "も": 382,
      "ゃ": 383,
      "ゆ": 384,
      "ら": 385,
      "り": 386,
      "る": 387,
      "を": 388,
      "ん": 389,
      "ァ": 390,
      "ア": 391,
      "ィ": 392,
      "イ": 393,
      "ゥ": 394,
      "ェ": 395,
      "エ": 396,
      "ォ": 397,
      "オ": 398,
      "カ": 399,
      "ガ": 400,
      "キ": 401,
      "ク": 402,
      "ゲ": 403,
      "コ": 404,
      "サ": 405,
      "シ": 406,
      "ジ": 407,
      "ス": 408,
      "ズ": 409,
      "セ": 410,
      "タ": 411,
      "ダ": 412,
      "チ": 413,
      "ッ": 414,
      "ツ": 415,
      "テ": 416,
      "デ": 417,
      "ト": 418,
      "ド": 419,
      "ナ": 420,
      "ニ": 421,
      "ネ": 422,
      "ハ": 423,
      "バ": 424,
      "パ": 425,
      "フ": 426,
      "ブ": 427,
      "プ": 428,
      "ヘ": 429,
      "ベ": 430,
      "マ": 431,
      "ミ": 432,
      "ュ": 433,
      "ョ": 434,
      "ラ": 435,
      "リ": 436,
      "ル": 437,
      "レ": 438,
      "ロ": 439,
      "ン": 440,
      "ヴ": 441,
      "・": 442,
      "ー": 443,
      "一": 444,
      "七": 445,
      "世": 446,
      "中": 447,
      "乙": 448,
      "九": 449,
      "二": 450,
      "云": 451,
      "人": 452,
      "今": 453,
      "作": 454,
      "侗": 455,
      "傳": 456,
      "光": 457,
      "其": 458,
      "具": 459,
      "円": 460,
      "劇": 461,
      "劉": 462,
      "华": 463,
      "厂": 464,
      "可": 465,
      "台": 466,
      "同": 467,
      "名": 468,
      "君": 469,
      "周": 470,
      "命": 471,
      "咲": 472,
      "四": 473,
      "國": 474,
      "園": 475,
      "圣": 476,
      "坂": 477,
      "堤": 478,
      "場": 479,
      "夕": 480,
      "大": 481,
      "夫": 482,
      "女": 483,
      "妙": 484,
      "姚": 485,
      "孟": 486,
      "宋": 487,
      "宗": 488,
      "宝": 489,
      "宫": 490,
      "寺": 491,
      "山": 492,
      "岳": 493,
      "广": 494,
      "建": 495,
      "式": 496,
      "張": 497,
      "彩": 498,
      "後": 499,
      "御": 500,
      "愛": 501,
      "懷": 502,
      "战": 503,
      "戦": 504,
      "拳": 505,
      "挑": 506,
      "放": 507,
      "政": 508,
      "日": 509,
      "旭": 510,
      "明": 511,
      "春": 512,
      "晋": 513,
      "景": 514,
      "未": 515,
      "本": 516,
      "李": 517,
      "来": 518,
      "梶": 519,
      "椎": 520,
      "正": 521,
      "殿": 522,
      "母": 523,
      "沙": 524,
      "清": 525,
      "湯": 526,
      "澤": 527,
      "灯": 528,
      "灵": 529,
      "物": 530,
      "玄": 531,
      "王": 532,
      "玩": 533,
      "珂": 534,
      "理": 535,
      "琦": 536,
      "琪": 537,
      "番": 538,
      "瘡": 539,
      "祠": 540,
      "秋": 541,
      "空": 542,
      "絵": 543,
      "織": 544,
      "翠": 545,
      "者": 546,
      "耕": 547,
      "肖": 548,
      "膀": 549,
      "臂": 550,
      "興": 551,
      "良": 552,
      "花": 553,
      "芳": 554,
      "英": 555,
      "蘇": 556,
      "观": 557,
      "解": 558,
      "誓": 559,
      "誡": 560,
      "誰": 561,
      "许": 562,
      "谭": 563,
      "豪": 564,
      "費": 565,
      "贵": 566,
      "赤": 567,
      "運": 568,
      "部": 569,
      "里": 570,
      "金": 571,
      "銃": 572,
      "钱": 573,
      "铁": 574,
      "防": 575,
      "陈": 576,
      "集": 577,
      "霖": 578,
      "韓": 579,
      "願": 580,
      "顯": 581,
      "马": 582,
      "高": 583,
      "대": 584,
      "독": 585,
      "립": 586,
      "병": 587,
      "보": 588,
      "부": 589,
      "연": 590,
      "제": 591,
      "３": 592,
      "�": 593,
      "th": 594,
      "in": 595,
      "the": 596,
      "an": 597,
      "er": 598,
      "on": 599,
      "ed": 600,
      "re": 601,
      "at": 602,
      "or": 603,
      "en": 604,
      "st": 605,
      "al": 606,
      "ar": 607,
      "of": 608,
      "and": 609,
      "as": 610,
      "es": 611,
      "ing": 612,
      "is": 613,
      "it": 614,
      "to": 615,
      "ou": 616,
      "ic": 617,
      "ion": 618,
      "he": 619,
      "le": 620,
      "ro": 621,
      "il": 622,
      "ch": 623,
      "ent": 624,
      "ad": 625,
      "se": 626,
      "am": 627,
      "be": 628,
      "om": 629,
      "ac": 630,
      "ly": 631,
      "for": 632,
      "was": 633,
      "de": 634,
      "ur": 635,
      "ve": 636,
      "ol": 637,
      "The": 638,
      "ir": 639,
      "-@": 640,
      "@-@": 641,
      "ow": 642,
      "im": 643,
      "ig": 644,
      "wh": 645,
      "ter": 646,
      "wi": 647,
      "ver": 648,
      "ce": 649,
      "ay": 650,
      "un": 651,
      "ation": 652,
      "with": 653,
      "con": 654,
      "ct": 655,
      "that": 656,
      "ag": 657,
      "te": 658,
      "by": 659,
      "id": 660,
      "el": 661,
      "us": 662,
      "ul": 663,
      "ot": 664,
      "ri": 665,
      "ap": 666,
      "op": 667,
      "um": 668,
      "pl": 669,
      "19": 670,
      "ain": 671,
      "et": 672,
      "ere": 673,
      "rom": 674,
      "res": 675,
      "all": 676,
      "com": 677,
      "ist": 678,
      "ut": 679,
      "oun": 680,
      "ab": 681,
      "ers": 682,
      "00": 683,
      "su": 684,
      "mo": 685,
      "his": 686,
      "ther": 687,
      "pro": 688,
      "sh": 689,
      "pe": 690,
      "are": 691,
      "from": 692,
      "cl": 693,
      "ate": 694,
      "In": 695,
      "ies": 696,
      "ne": 697,
      "os": 698,
      "ill": 699,
      "em": 700,
      "oc": 701,
      "tr": 702,
      "art": 703,
      "igh": 704,
      "est": 705,
      "ex": 706,
      "ard": 707,
      "ong": 708,
      "were": 709,
      "iv": 710,
      "ast": 711,
      "ld": 712,
      "ak": 713,
      "ish": 714,
      "ich": 715,
      "od": 716,
      "if": 717,
      "gh": 718,
      "ant": 719,
      "ber": 720,
      "ort": 721,
      "ive": 722,
      "per": 723,
      "man": 724,
      "qu": 725,
      "ated": 726,
      "ess": 727,
      "ment": 728,
      "ity": 729,
      "ame": 730,
      "end": 731,
      "ord": 732,
      "als": 733,
      "out": 734,
      "had": 735,
      "ud": 736,
      "ra": 737,
      "ough": 738,
      "ear": 739,
      "one": 740,
      "over": 741,
      "our": 742,
      "ack": 743,
      "tw": 744,
      "ie": 745,
      "which": 746,
      "rit": 747,
      "ian": 748,
      "ound": 749,
      "av": 750,
      "ip": 751,
      "ge": 752,
      "ass": 753,
      "ine": 754,
      "str": 755,
      "not": 756,
      "ave": 757,
      "her": 758,
      "ia": 759,
      "ary": 760,
      "but": 761,
      "ial": 762,
      "Ch": 763,
      "act": 764,
      "gr": 765,
      "ight": 766,
      "own": 767,
      "its": 768,
      "St": 769,
      "up": 770,
      "200": 771,
      "ical": 772,
      "fe": 773,
      "20": 774,
      "du": 775,
      "port": 776,
      "bl": 777,
      "fir": 778,
      "ous": 779,
      "af": 780,
      "der": 781,
      "ll": 782,
      "ore": 783,
      "ach": 784,
      "po": 785,
      "age": 786,
      "bo": 787,
      "land": 788,
      "ide": 789,
      "pr": 790,
      "wor": 791,
      "ould": 792,
      "play": 793,
      "has": 794,
      "their": 795,
      "pt": 796,
      "ition": 797,
      "first": 798,
      "ser": 799,
      "int": 800,
      "other": 801,
      "ure": 802,
      "also": 803,
      "ire": 804,
      "comp": 805,
      "rec": 806,
      "ep": 807,
      "sc": 808,
      "form": 809,
      "low": 810,
      "tim": 811,
      "ign": 812,
      "ran": 813,
      "18": 814,
      "lo": 815,
      "au": 816,
      "ok": 817,
      "ction": 818,
      "who": 819,
      "li": 820,
      "off": 821,
      "aw": 822,
      "ence": 823,
      "ev": 824,
      "ree": 825,
      "two": 826,
      "have": 827,
      "ke": 828,
      "att": 829,
      "He": 830,
      "ater": 831,
      "cont": 832,
      "ue": 833,
      "been": 834,
      "uring": 835,
      "part": 836,
      "sp": 837,
      "ite": 838,
      "ory": 839,
      "ult": 840,
      ".@": 841,
      "@.@": 842,
      "og": 843,
      "ome": 844,
      "this": 845,
      "des": 846,
      "ile": 847,
      "pos": 848,
      "ark": 849,
      "ally": 850,
      "It": 851,
      "201": 852,
      "me": 853,
      "ind": 854,
      "after": 855,
      "cent": 856,
      "Th": 857,
      "ade": 858,
      "cre": 859,
      "comm": 860,
      "An": 861,
      "ved": 862,
      "pres": 863,
      "dis": 864,
      "ust": 865,
      "air": 866,
      "ell": 867,
      "able": 868,
      "iz": 869,
      ",@": 870,
      "@,@": 871,
      "ren": 872,
      "incl": 873,
      "year": 874,
      "ib": 875,
      "pre": 876,
      "ship": 877,
      "old": 878,
      "Un": 879,
      "ations": 880,
      "we": 881,
      "ric": 882,
      "she": 883,
      "ang": 884,
      "main": 885,
      "ces": 886,
      "ans": 887,
      "work": 888,
      "ice": 889,
      "ever": 890,
      "they": 891,
      "ace": 892,
      "co": 893,
      "fer": 894,
      "ance": 895,
      "ty": 896,
      "time": 897,
      "ions": 898,
      "way": 899,
      "arch": 900,
      "spe": 901,
      "ced": 902,
      "ru": 903,
      "ied": 904,
      "no": 905,
      "rough": 906,
      "ason": 907,
      "inter": 908,
      "ph": 909,
      "ited": 910,
      "most": 911,
      "ath": 912,
      "vel": 913,
      "ens": 914,
      "ious": 915,
      "mon": 916,
      "ted": 917,
      "would": 918,
      "into": 919,
      "more": 920,
      "fl": 921,
      "mer": 922,
      "red": 923,
      "ased": 924,
      "ake": 925,
      "cess": 926,
      "ft": 927,
      "tem": 928,
      "Ar": 929,
      "new": 930,
      "ild": 931,
      "includ": 932,
      "bu": 933,
      "ann": 934,
      "though": 935,
      "cted": 936,
      "bec": 937,
      "urn": 938,
      "used": 939,
      "ates": 940,
      "ts": 941,
      "ings": 942,
      "ail": 943,
      "fin": 944,
      "ubl": 945,
      "song": 946,
      "cond": 947,
      "ase": 948,
      "any": 949,
      "son": 950,
      "under": 951,
      "ick": 952,
      "ob": 953,
      "ix": 954,
      "vers": 955,
      "ew": 956,
      "him": 957,
      "fore": 958,
      "ock": 959,
      "les": 960,
      "during": 961,
      "oy": 962,
      "ood": 963,
      "reg": 964,
      "ry": 965,
      "ents": 966,
      "stru": 967,
      "ors": 968,
      "Re": 969,
      "row": 970,
      "them": 971,
      "amp": 972,
      "ular": 973,
      "only": 974,
      "bum": 975,
      "ose": 976,
      "min": 977,
      "ron": 978,
      "gan": 979,
      "Al": 980,
      "col": 981,
      "game": 982,
      "rel": 983,
      "ten": 984,
      "can": 985,
      "ward": 986,
      "char": 987,
      "ollow": 988,
      "ern": 989,
      "199": 990,
      "ision": 991,
      "season": 992,
      "ins": 993,
      "record": 994,
      "ret": 995,
      "then": 996,
      "Wh": 997,
      "een": 998,
      "writ": 999,
      "lar": 1000,
      "three": 1001,
      "ton": 1002,
      "when": 1003,
      "num": 1004,
      "cons": 1005,
      "sing": 1006,
      "gen": 1007,
      "Com": 1008,
      "about": 1009,
      "io": 1010,
      "album": 1011,
      "kn": 1012,
      "my": 1013,
      "ered": 1014,
      "while": 1015,
      "day": 1016,
      "ful": 1017,
      "ational": 1018,
      "En": 1019,
      "ilm": 1020,
      "some": 1021,
      "produ": 1022,
      "through": 1023,
      "On": 1024,
      "outh": 1025,
      "coun": 1026,
      "ames": 1027,
      "rele": 1028,
      "10": 1029,
      "As": 1030,
      "Af": 1031,
      "Brit": 1032,
      "ating": 1033,
      "than": 1034,
      "De": 1035,
      "iew": 1036,
      "tain": 1037,
      "Au": 1038,
      "again": 1039,
      "sy": 1040,
      "betw": 1041,
      "between": 1042,
      "sub": 1043,
      "ict": 1044,
      "made": 1045,
      "so": 1046,
      "ury": 1047,
      "four": 1048,
      "later": 1049,
      "orth": 1050,
      "ily": 1051,
      "aid": 1052,
      "ele": 1053,
      "where": 1054,
      "000": 1055,
      "gu": 1056,
      "ey": 1057,
      "med": 1058,
      "cho": 1059,
      "spec": 1060,
      "ove": 1061,
      "hel": 1062,
      "set": 1063,
      "led": 1064,
      "publ": 1065,
      "second": 1066,
      "17": 1067,
      "sel": 1068,
      "such": 1069,
      "high": 1070,
      "ished": 1071,
      "Le": 1072,
      "Jo": 1073,
      "ities": 1074,
      "line": 1075,
      "usic": 1076,
      "follow": 1077,
      "do": 1078,
      "add": 1079,
      "ub": 1080,
      "ck": 1081,
      "sup": 1082,
      "iss": 1083,
      "ics": 1084,
      "film": 1085,
      "iel": 1086,
      "go": 1087,
      "Sh": 1088,
      "cap": 1089,
      "je": 1090,
      "view": 1091,
      "number": 1092,
      "ball": 1093,
      "olog": 1094,
      "being": 1095,
      "ters": 1096,
      "appe": 1097,
      "sur": 1098,
      "ef": 1099,
      "before": 1100,
      "ual": 1101,
      "az": 1102,
      "cer": 1103,
      "Con": 1104,
      "rib": 1105,
      "urch": 1106,
      "New": 1107,
      "br": 1108,
      "loc": 1109,
      "owever": 1110,
      "This": 1111,
      "both": 1112,
      "series": 1113,
      "II": 1114,
      "well": 1115,
      "ative": 1116,
      "ised": 1117,
      "ines": 1118,
      "back": 1119,
      "ven": 1120,
      "194": 1121,
      "12": 1122,
      "mber": 1123,
      "198": 1124,
      "par": 1125,
      "use": 1126,
      "many": 1127,
      "ale": 1128,
      "orn": 1129,
      "igin": 1130,
      "Her": 1131,
      "there": 1132,
      "ause": 1133,
      "ped": 1134,
      "arri": 1135,
      "15": 1136,
      "years": 1137,
      "mi": 1138,
      "ond": 1139,
      "known": 1140,
      "oper": 1141,
      "ma": 1142,
      "call": 1143,
      "ific": 1144,
      "charac": 1145,
      "found": 1146,
      "ince": 1147,
      "ste": 1148,
      "Ger": 1149,
      "hist": 1150,
      "cur": 1151,
      "long": 1152,
      "sever": 1153,
      "point": 1154,
      "remain": 1155,
      "cept": 1156,
      "appear": 1157,
      "British": 1158,
      "ek": 1159,
      "reat": 1160,
      "eng": 1161,
      "She": 1162,
      "ments": 1163,
      "pop": 1164,
      "side": 1165,
      "United": 1166,
      "hy": 1167,
      "stud": 1168,
      "dr": 1169,
      "down": 1170,
      "itt": 1171,
      "hn": 1172,
      "meric": 1173,
      "Americ": 1174,
      "Mar": 1175,
      "suc": 1176,
      "At": 1177,
      "overn": 1178,
      "including": 1179,
      "oup": 1180,
      "like": 1181,
      "century": 1182,
      "dif": 1183,
      "origin": 1184,
      "ived": 1185,
      "mem": 1186,
      "tow": 1187,
      "desc": 1188,
      "ield": 1189,
      "feat": 1190,
      "velop": 1191,
      "became": 1192,
      "ise": 1193,
      "war": 1194,
      "serv": 1195,
      "chool": 1196,
      "16": 1197,
      "oot": 1198,
      "dec": 1199,
      "dire": 1200,
      "sm": 1201,
      "unt": 1202,
      "ures": 1203,
      "ane": 1204,
      "team": 1205,
      "ros": 1206,
      "..": 1207,
      "ston": 1208,
      "ons": 1209,
      "John": 1210,
      "contin": 1211,
      "atch": 1212,
      "13": 1213,
      "prov": 1214,
      "gl": 1215,
      "ble": 1216,
      "After": 1217,
      "ject": 1218,
      "cord": 1219,
      "pol": 1220,
      "ress": 1221,
      "Gu": 1222,
      "show": 1223,
      "lead": 1224,
      "inn": 1225,
      "success": 1226,
      "sign": 1227,
      "bel": 1228,
      "against": 1229,
      "peri": 1230,
      "comple": 1231,
      "fam": 1232,
      "music": 1233,
      "ham": 1234,
      "ink": 1235,
      "several": 1236,
      "uch": 1237,
      "ash": 1238,
      "ized": 1239,
      "War": 1240,
      "prote": 1241,
      "list": 1242,
      "open": 1243,
      "erson": 1244,
      "could": 1245,
      "ank": 1246,
      "develop": 1247,
      "present": 1248,
      "city": 1249,
      "crit": 1250,
      "mill": 1251,
      "began": 1252,
      "Se": 1253,
      "dam": 1254,
      "lif": 1255,
      "pass": 1256,
      "rist": 1257,
      "road": 1258,
      "ople": 1259,
      "met": 1260,
      "oci": 1261,
      "try": 1262,
      "vol": 1263,
      "ended": 1264,
      "Wor": 1265,
      "por": 1266,
      "May": 1267,
      "ost": 1268,
      "aking": 1269,
      "che": 1270,
      "ower": 1271,
      "30": 1272,
      "rece": 1273,
      "epis": 1274,
      "14": 1275,
      "ca": 1276,
      "ith": 1277,
      "val": 1278,
      "ident": 1279,
      "ae": 1280,
      "ode": 1281,
      "self": 1282,
      "cover": 1283,
      "mil": 1284,
      "gun": 1285,
      "eral": 1286,
      "ley": 1287,
      "west": 1288,
      "dep": 1289,
      "For": 1290,
      "did": 1291,
      "run": 1292,
      "head": 1293,
      "trans": 1294,
      "offic": 1295,
      "along": 1296,
      "ually": 1297,
      "Car": 1298,
      "dist": 1299,
      "each": 1300,
      "gest": 1301,
      "said": 1302,
      "def": 1303,
      "ided": 1304,
      "25": 1305,
      "these": 1306,
      "ists": 1307,
      "prev": 1308,
      "Cl": 1309,
      "ather": 1310,
      "var": 1311,
      "read": 1312,
      "Can": 1313,
      "itar": 1314,
      "field": 1315,
      "aged": 1316,
      "plac": 1317,
      "near": 1318,
      "six": 1319,
      "ground": 1320,
      "position": 1321,
      "Bl": 1322,
      "east": 1323,
      "ism": 1324,
      "top": 1325,
      "ially": 1326,
      "Is": 1327,
      "ese": 1328,
      "ouse": 1329,
      "large": 1330,
      "support": 1331,
      "same": 1332,
      "design": 1333,
      "cy": 1334,
      "now": 1335,
      "ivision": 1336,
      "released": 1337,
      "ov": 1338,
      "ural": 1339,
      "describ": 1340,
      "197": 1341,
      "build": 1342,
      "state": 1343,
      "rop": 1344,
      "because": 1345,
      "small": 1346,
      "govern": 1347,
      "fic": 1348,
      "oss": 1349,
      "Ac": 1350,
      "leg": 1351,
      "called": 1352,
      "cast": 1353,
      "ops": 1354,
      "ible": 1355,
      "Be": 1356,
      "aim": 1357,
      "light": 1358,
      "thern": 1359,
      "early": 1360,
      "Gr": 1361,
      "character": 1362,
      "car": 1363,
      "five": 1364,
      "nam": 1365,
      "requ": 1366,
      "arm": 1367,
      "may": 1368,
      "get": 1369,
      "orm": 1370,
      "dra": 1371,
      "people": 1372,
      "return": 1373,
      "book": 1374,
      "However": 1375,
      "ves": 1376,
      "start": 1377,
      "ird": 1378,
      "ctor": 1379,
      "Ro": 1380,
      "tri": 1381,
      "allow": 1382,
      "come": 1383,
      "following": 1384,
      "Coun": 1385,
      "gust": 1386,
      "adv": 1387,
      "fun": 1388,
      "school": 1389,
      "German": 1390,
      "cording": 1391,
      "contro": 1392,
      "195": 1393,
      "formed": 1394,
      "million": 1395,
      "oman": 1396,
      "0s": 1397,
      "rote": 1398,
      "until": 1399,
      "la": 1400,
      "less": 1401,
      "sk": 1402,
      "enn": 1403,
      "ured": 1404,
      "consid": 1405,
      "iam": 1406,
      "ivers": 1407,
      "rest": 1408,
      "atter": 1409,
      "ross": 1410,
      "Eu": 1411,
      "cr": 1412,
      "ored": 1413,
      "ional": 1414,
      "ilt": 1415,
      "Jan": 1416,
      "stem": 1417,
      "ague": 1418,
      "Bo": 1419,
      "sim": 1420,
      "American": 1421,
      "Oc": 1422,
      "fle": 1423,
      "played": 1424,
      "All": 1425,
      "mark": 1426,
      "national": 1427,
      "ired": 1428,
      "town": 1429,
      "tit": 1430,
      "ats": 1431,
      "ians": 1432,
      "press": 1433,
      "episode": 1434,
      "West": 1435,
      "stand": 1436,
      "ined": 1437,
      "They": 1438,
      "grap": 1439,
      "11": 1440,
      "Man": 1441,
      "une": 1442,
      "Te": 1443,
      "bers": 1444,
      "care": 1445,
      "jor": 1446,
      "prom": 1447,
      "around": 1448,
      "ime": 1449,
      "Christ": 1450,
      "life": 1451,
      "name": 1452,
      "dom": 1453,
      "fect": 1454,
      "continu": 1455,
      "World": 1456,
      "ony": 1457,
      "ody": 1458,
      "group": 1459,
      "public": 1460,
      "cle": 1461,
      "ork": 1462,
      "ility": 1463,
      "took": 1464,
      "week": 1465,
      "Sep": 1466,
      "ery": 1467,
      "Pl": 1468,
      "US": 1469,
      "partic": 1470,
      "cut": 1471,
      "ars": 1472,
      "ships": 1473,
      "bre": 1474,
      "miss": 1475,
      "stral": 1476,
      "attack": 1477,
      "result": 1478,
      "Canad": 1479,
      "ting": 1480,
      "ically": 1481,
      "even": 1482,
      "Ire": 1483,
      "issu": 1484,
      "tember": 1485,
      "September": 1486,
      "uary": 1487,
      "tober": 1488,
      "October": 1489,
      "games": 1490,
      "xt": 1491,
      "ages": 1492,
      "ately": 1493,
      "August": 1494,
      "Ireland": 1495,
      "inc": 1496,
      "dest": 1497,
      "Fran": 1498,
      "York": 1499,
      "giv": 1500,
      "roy": 1501,
      "single": 1502,
      "Ste": 1503,
      "will": 1504,
      "report": 1505,
      "very": 1506,
      "received": 1507,
      "Pol": 1508,
      "batt": 1509,
      "another": 1510,
      "ext": 1511,
      "built": 1512,
      "North": 1513,
      "Sc": 1514,
      "vis": 1515,
      "ask": 1516,
      "Ad": 1517,
      "King": 1518,
      "Old": 1519,
      "gre": 1520,
      "States": 1521,
      "Austral": 1522,
      "Ju": 1523,
      "ole": 1524,
      "oute": 1525,
      "ained": 1526,
      "ets": 1527,
      "area": 1528,
      "pri": 1529,
      "ences": 1530,
      "arn": 1531,
      "rench": 1532,
      "Col": 1533,
      "hum": 1534,
      "tal": 1535,
      "aving": 1536,
      "cour": 1537,
      "constru": 1538,
      "resp": 1539,
      "god": 1540,
      "ris": 1541,
      "ute": 1542,
      "story": 1543,
      "poss": 1544,
      "2010": 1545,
      "Fe": 1546,
      "just": 1547,
      "South": 1548,
      "north": 1549,
      "since": 1550,
      "193": 1551,
      "ards": 1552,
      "power": 1553,
      "class": 1554,
      "band": 1555,
      "gy": 1556,
      "place": 1557,
      "196": 1558,
      "original": 1559,
      "club": 1560,
      "Euro": 1561,
      "men": 1562,
      "sent": 1563,
      "organ": 1564,
      "Ind": 1565,
      "described": 1566,
      "January": 1567,
      "ah": 1568,
      "incre": 1569,
      "included": 1570,
      "person": 1571,
      "right": 1572,
      "reach": 1573,
      "order": 1574,
      "rown": 1575,
      "wards": 1576,
      "During": 1577,
      "world": 1578,
      "last": 1579,
      "cra": 1580,
      "ple": 1581,
      "family": 1582,
      "June": 1583,
      "fur": 1584,
      "ideo": 1585,
      "named": 1586,
      "French": 1587,
      "previous": 1588,
      "ently": 1589,
      "what": 1590,
      "riend": 1591,
      "pect": 1592,
      "Me": 1593,
      "hal": 1594,
      "ral": 1595,
      "ys": 1596,
      "although": 1597,
      "km": 1598,
      "south": 1599,
      "And": 1600,
      "Europe": 1601,
      "differ": 1602,
      "expl": 1603,
      "government": 1604,
      "review": 1605,
      "sequ": 1606,
      "moved": 1607,
      "short": 1608,
      "bar": 1609,
      "claim": 1610,
      "Jack": 1611,
      "Nove": 1612,
      "Or": 1613,
      "ium": 1614,
      "child": 1615,
      "hand": 1616,
      "ude": 1617,
      "much": 1618,
      "itary": 1619,
      "There": 1620,
      "command": 1621,
      "app": 1622,
      "history": 1623,
      "November": 1624,
      "based": 1625,
      "major": 1626,
      "Pr": 1627,
      "left": 1628,
      "ified": 1629,
      "bro": 1630,
      "late": 1631,
      "within": 1632,
      "2009": 1633,
      "addition": 1634,
      "wrote": 1635,
      "sty": 1636,
      "due": 1637,
      "camp": 1638,
      "den": 1639,
      "avy": 1640,
      "tempt": 1641,
      "craft": 1642,
      "Nor": 1643,
      "Par": 1644,
      "foot": 1645,
      "ier": 1646,
      "ls": 1647,
      "fort": 1648,
      "Ge": 1649,
      "Pe": 1650,
      "mar": 1651,
      "ordan": 1652,
      "Mon": 1653,
      "ient": 1654,
      "appro": 1655,
      "Apr": 1656,
      "April": 1657,
      "ving": 1658,
      "best": 1659,
      "ides": 1660,
      "elt": 1661,
      "using": 1662,
      "belie": 1663,
      "Br": 1664,
      "Jordan": 1665,
      "ety": 1666,
      "Dece": 1667,
      "local": 1668,
      "December": 1669,
      "Sp": 1670,
      "church": 1671,
      "No": 1672,
      "draw": 1673,
      "Tech": 1674,
      "Roman": 1675,
      "ax": 1676,
      "gin": 1677,
      "won": 1678,
      "init": 1679,
      "attempt": 1680,
      "ilar": 1681,
      "fr": 1682,
      "let": 1683,
      "ants": 1684,
      "final": 1685,
      "By": 1686,
      "round": 1687,
      "site": 1688,
      "system": 1689,
      "24": 1690,
      "ulation": 1691,
      "Comm": 1692,
      "period": 1693,
      "those": 1694,
      "bert": 1695,
      "Hero": 1696,
      "ales": 1697,
      "ital": 1698,
      "fact": 1699,
      "make": 1700,
      "26": 1701,
      "Town": 1702,
      "ness": 1703,
      "thor": 1704,
      "ature": 1705,
      "Pro": 1706,
      "Su": 1707,
      "jo": 1708,
      "turn": 1709,
      "ense": 1710,
      "iter": 1711,
      "50": 1712,
      "mp": 1713,
      "tar": 1714,
      "vision": 1715,
      "chan": 1716,
      "We": 1717,
      "track": 1718,
      "species": 1719,
      "July": 1720,
      "forman": 1721,
      "tak": 1722,
      "still": 1723,
      "ement": 1724,
      "struct": 1725,
      "fire": 1726,
      "ister": 1727,
      "que": 1728,
      "aeolog": 1729,
      "home": 1730,
      "stit": 1731,
      "recorded": 1732,
      "Pal": 1733,
      "abl": 1734,
      "event": 1735,
      "ster": 1736,
      "fac": 1737,
      "considered": 1738,
      "ms": 1739,
      "colle": 1740,
      "king": 1741,
      "ina": 1742,
      "flu": 1743,
      "Park": 1744,
      "sl": 1745,
      "ino": 1746,
      "ensive": 1747,
      "23": 1748,
      "21": 1749,
      "thing": 1750,
      "National": 1751,
      "ories": 1752,
      "sug": 1753,
      "ives": 1754,
      "career": 1755,
      "half": 1756,
      "March": 1757,
      "put": 1758,
      "ged": 1759,
      "iver": 1760,
      "real": 1761,
      "aining": 1762,
      "player": 1763,
      "iversity": 1764,
      "placed": 1765,
      "cas": 1766,
      "ribut": 1767,
      "ains": 1768,
      "prof": 1769,
      "SA": 1770,
      "often": 1771,
      "illa": 1772,
      "State": 1773,
      "lim": 1774,
      "say": 1775,
      "video": 1776,
      "heel": 1777,
      "2007": 1778,
      "2008": 1779,
      "published": 1780,
      "Oldham": 1781,
      "further": 1782,
      "Ear": 1783,
      "Gen": 1784,
      "mag": 1785,
      "among": 1786,
      "death": 1787,
      "former": 1788,
      "house": 1789,
      "sold": 1790,
      "role": 1791,
      "uss": 1792,
      "28": 1793,
      "came": 1794,
      "third": 1795,
      "performan": 1796,
      "quar": 1797,
      "When": 1798,
      "ittle": 1799,
      "...": 1800,
      "Ne": 1801,
      "how": 1802,
      "Tw": 1803,
      "With": 1804,
      "sol": 1805,
      "water": 1806,
      "und": 1807,
      "month": 1808,
      "100": 1809,
      "vi": 1810,
      "wind": 1811,
      "ford": 1812,
      "commun": 1813,
      "songs": 1814,
      "continued": 1815,
      "Ex": 1816,
      "aur": 1817,
      "match": 1818,
      "ript": 1819,
      "action": 1820,
      "Guitar": 1821,
      "According": 1822,
      "suggest": 1823,
      "His": 1824,
      "pite": 1825,
      "ament": 1826,
      "ush": 1827,
      "cult": 1828,
      "na": 1829,
      "anc": 1830,
      "2011": 1831,
      "mid": 1832,
      "vent": 1833,
      "wood": 1834,
      "star": 1835,
      "glish": 1836,
      "div": 1837,
      "import": 1838,
      "establ": 1839,
      "Will": 1840,
      "away": 1841,
      "Gal": 1842,
      "Tr": 1843,
      "oung": 1844,
      "version": 1845,
      "successful": 1846,
      "similar": 1847,
      "Air": 1848,
      "Division": 1849,
      "move": 1850,
      "aster": 1851,
      "release": 1852,
      "destroy": 1853,
      "Act": 1854,
      "ait": 1855,
      "kill": 1856,
      "polit": 1857,
      "ched": 1858,
      "English": 1859,
      "military": 1860,
      "title": 1861,
      "chang": 1862,
      "posed": 1863,
      "seven": 1864,
      "omin": 1865,
      "Church": 1866,
      "gener": 1867,
      "particular": 1868,
      "hold": 1869,
      "mix": 1870,
      "ices": 1871,
      "level": 1872,
      "written": 1873,
      "building": 1874,
      "different": 1875,
      "ling": 1876,
      "contr": 1877,
      "effect": 1878,
      "ared": 1879,
      "plan": 1880,
      "production": 1881,
      "fall": 1882,
      "free": 1883,
      "held": 1884,
      "Although": 1885,
      "Mc": 1886,
      "Wheel": 1887,
      "flo": 1888,
      "stant": 1889,
      "Char": 1890,
      "2006": 1891,
      "board": 1892,
      "stead": 1893,
      "inning": 1894,
      "sou": 1895,
      "thedr": 1896,
      "without": 1897,
      "Eng": 1898,
      "Black": 1899,
      "ff": 1900,
      "iment": 1901,
      "author": 1902,
      "night": 1903,
      "take": 1904,
      "refer": 1905,
      "ument": 1906,
      "City": 1907,
      "friend": 1908,
      "ref": 1909,
      "White": 1910,
      "members": 1911,
      "27": 1912,
      "Bra": 1913,
      "law": 1914,
      "invol": 1915,
      "strong": 1916,
      "few": 1917,
      "poem": 1918,
      "histor": 1919,
      "County": 1920,
      "Des": 1921,
      "however": 1922,
      "sit": 1923,
      "post": 1924,
      "Wheeler": 1925,
      "equ": 1926,
      "omer": 1927,
      "wide": 1928,
      "augh": 1929,
      "One": 1930,
      "Rac": 1931,
      "stated": 1932,
      "tele": 1933,
      "trad": 1934,
      "bor": 1935,
      "forces": 1936,
      "ively": 1937,
      "Love": 1938,
      "ience": 1939,
      "rap": 1940,
      "next": 1941,
      "style": 1942,
      "Ser": 1943,
      "ai": 1944,
      "bru": 1945,
      "soci": 1946,
      "ator": 1947,
      "project": 1948,
      "country": 1949,
      "League": 1950,
      "thedral": 1951,
      "Ph": 1952,
      "chart": 1953,
      "become": 1954,
      "force": 1955,
      "ending": 1956,
      "served": 1957,
      "times": 1958,
      "direct": 1959,
      "construction": 1960,
      "Cent": 1961,
      "imes": 1962,
      "produced": 1963,
      "popular": 1964,
      "40": 1965,
      "Roy": 1966,
      "ope": 1967,
      "aint": 1968,
      "ution": 1969,
      "close": 1970,
      "ondon": 1971,
      "cor": 1972,
      "di": 1973,
      "gave": 1974,
      "represent": 1975,
      "seen": 1976,
      "agre": 1977,
      "idge": 1978,
      "ull": 1979,
      "bas": 1980,
      "having": 1981,
      "ior": 1982,
      "you": 1983,
      "disc": 1984,
      "given": 1985,
      "James": 1986,
      "London": 1987,
      "body": 1988,
      "wall": 1989,
      "2013": 1990,
      "win": 1991,
      "ots": 1992,
      "anted": 1993,
      "developed": 1994,
      "22": 1995,
      "hip": 1996,
      "yn": 1997,
      "ump": 1998,
      "ably": 1999,
      "ize": 2000,
      "University": 2001,
      "critic": 2002,
      "Rachel": 2003,
      "uc": 2004,
      "teen": 2005,
      "test": 2006,
      "mother": 2007,
      "ways": 2008,
      "search": 2009,
      "performed": 2010,
      "every": 2011,
      "throughout": 2012,
      "Afric": 2013,
      "human": 2014,
      "Har": 2015,
      "To": 2016,
      "ger": 2017,
      "ither": 2018,
      "influ": 2019,
      "include": 2020,
      "Rock": 2021,
      "fron": 2022,
      "ges": 2023,
      "ik": 2024,
      "atic": 2025,
      "stri": 2026,
      "decl": 2027,
      "apan": 2028,
      "sure": 2029,
      "guns": 2030,
      "BC": 2031,
      "da": 2032,
      "ues": 2033,
      "cell": 2034,
      "look": 2035,
      "days": 2036,
      "osed": 2037,
      "ception": 2038,
      "Febru": 2039,
      "Galve": 2040,
      "February": 2041,
      "29": 2042,
      "felt": 2043,
      "alk": 2044,
      "abor": 2045,
      "typ": 2046,
      "Ir": 2047,
      "ning": 2048,
      "vo": 2049,
      "indu": 2050,
      "atops": 2051,
      "ened": 2052,
      "storm": 2053,
      "quad": 2054,
      "intro": 2055,
      "England": 2056,
      "capt": 2057,
      "Galveston": 2058,
      "Japan": 2059,
      "Port": 2060,
      "ike": 2061,
      "making": 2062,
      "island": 2063,
      "archaeolog": 2064,
      "East": 2065,
      "Hist": 2066,
      "bus": 2067,
      "find": 2068,
      "pur": 2069,
      "zy": 2070,
      "rew": 2071,
      "beh": 2072,
      "omet": 2073,
      "gram": 2074,
      "population": 2075,
      "returned": 2076,
      "Cor": 2077,
      "Ed": 2078,
      "Music": 2079,
      "total": 2080,
      "moder": 2081,
      "ivil": 2082,
      "General": 2083,
      "iers": 2084,
      "too": 2085,
      "idence": 2086,
      "should": 2087,
      "noted": 2088,
      "activ": 2089,
      "These": 2090,
      "clear": 2091,
      "Ma": 2092,
      "face": 2093,
      "father": 2094,
      "lay": 2095,
      "nor": 2096,
      "went": 2097,
      "comb": 2098,
      "iving": 2099,
      "akes": 2100,
      "earli": 2101,
      "players": 2102,
      "company": 2103,
      "reported": 2104,
      "tro": 2105,
      "word": 2106,
      "erc": 2107,
      "ering": 2108,
      "raised": 2109,
      "good": 2110,
      "hour": 2111,
      "rad": 2112,
      "tom": 2113,
      "rock": 2114,
      "range": 2115,
      "created": 2116,
      "rick": 2117,
      "ficult": 2118,
      "lines": 2119,
      "yard": 2120,
      "chn": 2121,
      "ploy": 2122,
      "never": 2123,
      "ctions": 2124,
      "gods": 2125,
      "children": 2126,
      "manag": 2127,
      "stein": 2128,
      "difficult": 2129,
      "various": 2130,
      "graph": 2131,
      "fan": 2132,
      "Inter": 2133,
      "need": 2134,
      "aven": 2135,
      "ublic": 2136,
      "writing": 2137,
      "reached": 2138,
      "Bar": 2139,
      "eight": 2140,
      "send": 2141,
      "urric": 2142,
      "itions": 2143,
      "remained": 2144,
      "Royal": 2145,
      "ising": 2146,
      "Reg": 2147,
      "signific": 2148,
      "taken": 2149,
      "Co": 2150,
      "ael": 2151,
      "fig": 2152,
      "appoint": 2153,
      "Irish": 2154,
      "introdu": 2155,
      "You": 2156,
      "bur": 2157,
      "route": 2158,
      "ene": 2159,
      "ison": 2160,
      "suf": 2161,
      "aircraft": 2162,
      "full": 2163,
      "Bill": 2164,
      "fem": 2165,
      "ances": 2166,
      "stat": 2167,
      "ioned": 2168,
      "himself": 2169,
      "60": 2170,
      "High": 2171,
      "aly": 2172,
      "key": 2173,
      "While": 2174,
      "Mich": 2175,
      "Nic": 2176,
      "great": 2177,
      "ner": 2178,
      "pair": 2179,
      "iness": 2180,
      "ones": 2181,
      "techn": 2182,
      "190": 2183,
      "arded": 2184,
      "Army": 2185,
      "announ": 2186,
      "football": 2187,
      "Geor": 2188,
      "Am": 2189,
      "Pa": 2190,
      "Ross": 2191,
      "chap": 2192,
      "entire": 2193,
      "ief": 2194,
      "aves": 2195,
      "gether": 2196,
      "fleet": 2197,
      "battle": 2198,
      "Super": 2199,
      "nal": 2200,
      "omen": 2201,
      "exp": 2202,
      "regular": 2203,
      "study": 2204,
      "mission": 2205,
      "television": 2206,
      "Care": 2207,
      "Po": 2208,
      "aver": 2209,
      "cup": 2210,
      "marri": 2211,
      "ival": 2212,
      "interest": 2213,
      "William": 2214,
      "cil": 2215,
      "mm": 2216,
      "sum": 2217,
      "tour": 2218,
      "ability": 2219,
      "issue": 2220,
      "Command": 2221,
      "Mag": 2222,
      "aud": 2223,
      "voc": 2224,
      "itted": 2225,
      "profess": 2226,
      "Mary": 2227,
      "cir": 2228,
      "cru": 2229,
      "nis": 2230,
      "sex": 2231,
      "lost": 2232,
      "2012": 2233,
      "anna": 2234,
      "help": 2235,
      "completed": 2236,
      "Australia": 2237,
      "important": 2238,
      "stone": 2239,
      "alter": 2240,
      "aff": 2241,
      "prim": 2242,
      "relation": 2243,
      "added": 2244,
      "mium": 2245,
      "covered": 2246,
      "front": 2247,
      "fail": 2248,
      "bet": 2249,
      "189": 2250,
      "rent": 2251,
      "characters": 2252,
      "depend": 2253,
      "started": 2254,
      "control": 2255,
      "performance": 2256,
      "Vir": 2257,
      "Villa": 2258,
      "dou": 2259,
      "ination": 2260,
      "trave": 2261,
      "antic": 2262,
      "ports": 2263,
      "formation": 2264,
      "Canadian": 2265,
      "Egy": 2266,
      "xim": 2267,
      "alth": 2268,
      "see": 2269,
      "acy": 2270,
      "debut": 2271,
      "associ": 2272,
      "feet": 2273,
      "others": 2274,
      "compet": 2275,
      "special": 2276,
      "Kingdom": 2277,
      "Fir": 2278,
      "young": 2279,
      "admium": 2280,
      "white": 2281,
      "conom": 2282,
      "crew": 2283,
      "novel": 2284,
      "cert": 2285,
      "uk": 2286,
      "termin": 2287,
      "lling": 2288,
      "thought": 2289,
      "appeared": 2290,
      "vari": 2291,
      "Zh": 2292,
      "fight": 2293,
      "ler": 2294,
      "pie": 2295,
      "rang": 2296,
      "Comp": 2297,
      "eyer": 2298,
      "surv": 2299,
      "development": 2300,
      "Polish": 2301,
      "moun": 2302,
      "enced": 2303,
      "room": 2304,
      "coming": 2305,
      "cathedral": 2306,
      "Cap": 2307,
      "ault": 2308,
      "least": 2309,
      "osp": 2310,
      "playing": 2311,
      "Canada": 2312,
      "beg": 2313,
      "damage": 2314,
      "change": 2315,
      "Egypt": 2316,
      "San": 2317,
      "athen": 2318,
      "died": 2319,
      "ari": 2320,
      "ishing": 2321,
      "scored": 2322,
      "Robert": 2323,
      "Braathen": 2324,
      "First": 2325,
      "Meyer": 2326,
      "cop": 2327,
      "tail": 2328,
      "ream": 2329,
      "omb": 2330,
      "isted": 2331,
      "experi": 2332,
      "2005": 2333,
      "writer": 2334,
      "Britain": 2335,
      "medi": 2336,
      "damaged": 2337,
      "ML": 2338,
      "base": 2339,
      "dri": 2340,
      "gold": 2341,
      "live": 2342,
      "sound": 2343,
      "van": 2344,
      "inv": 2345,
      "amb": 2346,
      "anger": 2347,
      "Mad": 2348,
      "Red": 2349,
      "either": 2350,
      "ama": 2351,
      "iron": 2352,
      "teach": 2353,
      "oted": 2354,
      "aren": 2355,
      "2003": 2356,
      "common": 2357,
      "ample": 2358,
      "III": 2359,
      "break": 2360,
      "ked": 2361,
      "mas": 2362,
      "ids": 2363,
      "stry": 2364,
      "grad": 2365,
      "recog": 2366,
      "does": 2367,
      "azine": 2368,
      "located": 2369,
      "features": 2370,
      "inkel": 2371,
      "quadron": 2372,
      "significant": 2373,
      "Somer": 2374,
      "TV": 2375,
      "fly": 2376,
      "fav": 2377,
      "iting": 2378,
      "together": 2379,
      "ico": 2380,
      "aper": 2381,
      "188": 2382,
      "athus": 2383,
      "Townsend": 2384,
      "Virgin": 2385,
      "Somerset": 2386,
      "Dav": 2387,
      "Finkel": 2388,
      "Rep": 2389,
      "Route": 2390,
      "date": 2391,
      "ox": 2392,
      "pat": 2393,
      "sour": 2394,
      "beer": 2395,
      "across": 2396,
      "2004": 2397,
      "ization": 2398,
      "Play": 2399,
      "modern": 2400,
      "Carey": 2401,
      "Finkelstein": 2402,
      "Ber": 2403,
      "Batt": 2404,
      "Cr": 2405,
      "My": 2406,
      "Med": 2407,
      "born": 2408,
      "ses": 2409,
      "urt": 2410,
      "opened": 2411,
      "ropical": 2412,
      "viol": 2413,
      "Meyerbeer": 2414,
      "Jew": 2415,
      "Mo": 2416,
      "little": 2417,
      "ald": 2418,
      "respect": 2419,
      "peak": 2420,
      "occur": 2421,
      "lled": 2422,
      "elect": 2423,
      "member": 2424,
      "provided": 2425,
      "possible": 2426,
      "Bel": 2427,
      "Str": 2428,
      "ties": 2429,
      "reen": 2430,
      "ality": 2431,
      "ara": 2432,
      "icated": 2433,
      "accept": 2434,
      "flight": 2435,
      "complete": 2436,
      "Nicole": 2437,
      "recogn": 2438,
      "Best": 2439,
      "Min": 2440,
      "don": 2441,
      "dol": 2442,
      "fif": 2443,
      "ring": 2444,
      "once": 2445,
      "esb": 2446,
      "conne": 2447,
      "space": 2448,
      "fourth": 2449,
      "followed": 2450,
      "miles": 2451,
      "weeks": 2452,
      "Braathens": 2453,
      "Law": 2454,
      "grow": 2455,
      "vill": 2456,
      "inch": 2457,
      "sea": 2458,
      "estim": 2459,
      "tradition": 2460,
      "Rich": 2461,
      "ding": 2462,
      "loss": 2463,
      "uses": 2464,
      "useum": 2465,
      "caused": 2466,
      "European": 2467,
      "claimed": 2468,
      "broad": 2469,
      "cause": 2470,
      "lin": 2471,
      "ata": 2472,
      "itch": 2473,
      "adem": 2474,
      "concl": 2475,
      "ago": 2476,
      "tee": 2477,
      "uments": 2478,
      "cret": 2479,
      "angu": 2480,
      "relig": 2481,
      "syn": 2482,
      "highway": 2483,
      "established": 2484,
      "How": 2485,
      "Per": 2486,
      "host": 2487,
      "net": 2488,
      "instead": 2489,
      "chol": 2490,
      "ott": 2491,
      "rought": 2492,
      "goal": 2493,
      "inese": 2494,
      "America": 2495,
      "leading": 2496,
      "Song": 2497,
      "inal": 2498,
      "mode": 2499,
      "pec": 2500,
      "Chinese": 2501,
      "igned": 2502,
      "announced": 2503,
      "Hill": 2504,
      "Hait": 2505,
      "Tint": 2506,
      "far": 2507,
      "ih": 2508,
      "pan": 2509,
      "pen": 2510,
      "sele": 2511,
      "forced": 2512,
      "prob": 2513,
      "ivid": 2514,
      "187": 2515,
      "evidence": 2516,
      "ology": 2517,
      "service": 2518,
      "35": 2519,
      "Nesb": 2520,
      "Sy": 2521,
      "saw": 2522,
      "ali": 2523,
      "asing": 2524,
      "ung": 2525,
      "ney": 2526,
      "rael": 2527,
      "black": 2528,
      "central": 2529,
      "subsequ": 2530,
      "guitar": 2531,
      "director": 2532,
      "Israel": 2533,
      "graphy": 2534,
      "urricane": 2535,
      "Tintin": 2536,
      "Follow": 2537,
      "Oda": 2538,
      "Sw": 2539,
      "iet": 2540,
      "phas": 2541,
      "vict": 2542,
      "ze": 2543,
      "ille": 2544,
      "vest": 2545,
      "avail": 2546,
      "Ang": 2547,
      "finished": 2548,
      "points": 2549,
      "Atl": 2550,
      "originally": 2551,
      "Zhou": 2552,
      "El": 2553,
      "Fey": 2554,
      "Sarn": 2555,
      "era": 2556,
      "above": 2557,
      "tra": 2558,
      "ought": 2559,
      "spac": 2560,
      "tempor": 2561,
      "remains": 2562,
      "listed": 2563,
      "Christmas": 2564,
      "Two": 2565,
      "Nesbitt": 2566,
      "Odaen": 2567,
      "Cup": 2568,
      "gra": 2569,
      "oto": 2570,
      "ps": 2571,
      "pers": 2572,
      "itive": 2573,
      "wife": 2574,
      "ishop": 2575,
      "upon": 2576,
      "script": 2577,
      "works": 2578,
      "sett": 2579,
      "Odaenathus": 2580,
      "case": 2581,
      "econom": 2582,
      "ique": 2583,
      "nar": 2584,
      "pon": 2585,
      "sem": 2586,
      "process": 2587,
      "Thom": 2588,
      "worked": 2589,
      "respons": 2590,
      "Following": 2591,
      "Sarnia": 2592,
      "36": 2593,
      "Day": 2594,
      "Gl": 2595,
      "Ke": 2596,
      "labor": 2597,
      "tre": 2598,
      "uck": 2599,
      "hest": 2600,
      "imp": 2601,
      "areas": 2602,
      "example": 2603,
      "forms": 2604,
      "ready": 2605,
      "allowed": 2606,
      "Hol": 2607,
      "ded": 2608,
      "hon": 2609,
      "har": 2610,
      "ials": 2611,
      "sw": 2612,
      "sen": 2613,
      "critics": 2614,
      "laun": 2615,
      "approach": 2616,
      "structure": 2617,
      "behind": 2618,
      "Im": 2619,
      "Pri": 2620,
      "mus": 2621,
      "stage": 2622,
      "program": 2623,
      "spir": 2624,
      "coast": 2625,
      "general": 2626,
      "designed": 2627,
      "quarter": 2628,
      "earlier": 2629,
      "Hen": 2630,
      "Mor": 2631,
      "Other": 2632,
      "brought": 2633,
      "cadmium": 2634,
      "langu": 2635,
      "ny": 2636,
      "acc": 2637,
      "els": 2638,
      "plann": 2639,
      "proble": 2640,
      "earth": 2641,
      "individ": 2642,
      "Arch": 2643,
      "decided": 2644,
      "eventually": 2645,
      "months": 2646,
      "George": 2647,
      "Mark": 2648,
      "River": 2649,
      "Some": 2650,
      "School": 2651,
      "aign": 2652,
      "ks": 2653,
      "mater": 2654,
      "rid": 2655,
      "ites": 2656,
      "dem": 2657,
      "employ": 2658,
      "anti": 2659,
      "lands": 2660,
      "liament": 2661,
      "opening": 2662,
      "standing": 2663,
      "Northern": 2664,
      "MS": 2665,
      "Rev": 2666,
      "ga": 2667,
      "lot": 2668,
      "lack": 2669,
      "ned": 2670,
      "nat": 2671,
      "outside": 2672,
      "2015": 2673,
      "certain": 2674,
      "killed": 2675,
      "political": 2676,
      "45": 2677,
      "Ab": 2678,
      "Lord": 2679,
      "Navy": 2680,
      "cing": 2681,
      "ica": 2682,
      "urb": 2683,
      "19th": 2684,
      "Innis": 2685,
      "actions": 2686,
      "meet": 2687,
      "type": 2688,
      "featured": 2689,
      "previously": 2690,
      "Michael": 2691,
      "Paul": 2692,
      "circ": 2693,
      "non": 2694,
      "edy": 2695,
      "ceed": 2696,
      "tell": 2697,
      "quest": 2698,
      "pract": 2699,
      "ibility": 2700,
      "France": 2701,
      "David": 2702,
      "Republic": 2703,
      "Yue": 2704,
      "carri": 2705,
      "gress": 2706,
      "los": 2707,
      "taking": 2708,
      "ape": 2709,
      "ples": 2710,
      "compl": 2711,
      "working": 2712,
      "31": 2713,
      "Os": 2714,
      "Wil": 2715,
      "past": 2716,
      "ug": 2717,
      "atory": 2718,
      "separ": 2719,
      "whom": 2720,
      "otion": 2721,
      "ranch": 2722,
      "eastern": 2723,
      "involved": 2724,
      "AA": 2725,
      "Cath": 2726,
      "bal": 2727,
      "bound": 2728,
      "soc": 2729,
      "heavy": 2730,
      "ention": 2731,
      "olic": 2732,
      "occup": 2733,
      "events": 2734,
      "know": 2735,
      "500": 2736,
      "ming": 2737,
      "itz": 2738,
      "bell": 2739,
      "deal": 2740,
      "deli": 2741,
      "training": 2742,
      "2014": 2743,
      "meas": 2744,
      "cost": 2745,
      "athan": 2746,
      "proteins": 2747,
      "Indian": 2748,
      "Peter": 2749,
      "believed": 2750,
      "particularly": 2751,
      "female": 2752,
      "available": 2753,
      "FE": 2754,
      "Foot": 2755,
      "Sun": 2756,
      "Ver": 2757,
      "hom": 2758,
      "vice": 2759,
      "theast": 2760,
      "reve": 2761,
      "exc": 2762,
      "antim": 2763,
      "186": 2764,
      "love": 2765,
      "mean": 2766,
      "remaining": 2767,
      "additional": 2768,
      "History": 2769,
      "suffer": 2770,
      "House": 2771,
      "civil": 2772,
      "mis": 2773,
      "must": 2774,
      "oo": 2775,
      "forward": 2776,
      "comment": 2777,
      "box": 2778,
      "lower": 2779,
      "despite": 2780,
      "largest": 2781,
      "Associ": 2782,
      "goals": 2783,
      "increased": 2784,
      "joined": 2785,
      "Company": 2786,
      "Govern": 2787,
      "dle": 2788,
      "nine": 2789,
      "rum": 2790,
      "tor": 2791,
      "inst": 2792,
      "anz": 2793,
      "educ": 2794,
      "research": 2795,
      "learn": 2796,
      "operations": 2797,
      "appearance": 2798,
      "Carol": 2799,
      "southern": 2800,
      "appointed": 2801,
      "37": 2802,
      "Cra": 2803,
      "Fle": 2804,
      "hous": 2805,
      "ken": 2806,
      "condu": 2807,
      "parts": 2808,
      "commiss": 2809,
      "elements": 2810,
      "contract": 2811,
      "dollar": 2812,
      "Land": 2813,
      "UK": 2814,
      "cross": 2815,
      "rul": 2816,
      "oring": 2817,
      "cts": 2818,
      "ends": 2819,
      "pred": 2820,
      "commerc": 2821,
      "interview": 2822,
      "ampion": 2823,
      "campaign": 2824,
      "SAFE": 2825,
      "flood": 2826,
      "From": 2827,
      "Mex": 2828,
      "Not": 2829,
      "Res": 2830,
      "bow": 2831,
      "foc": 2832,
      "hig": 2833,
      "almost": 2834,
      "league": 2835,
      "term": 2836,
      "ria": 2837,
      "exist": 2838,
      "oney": 2839,
      "achie": 2840,
      "Arab": 2841,
      "Australian": 2842,
      "India": 2843,
      "brother": 2844,
      "saying": 2845,
      "relationship": 2846,
      "Virginia": 2847,
      "highest": 2848,
      "Awards": 2849,
      "Bro": 2850,
      "tropical": 2851,
      "wanted": 2852,
      "ators": 2853,
      "argu": 2854,
      "immedi": 2855,
      "ount": 2856,
      "Star": 2857,
      "prepar": 2858,
      "recording": 2859,
      "current": 2860,
      "transfer": 2861,
      "manager": 2862,
      "Bey": 2863,
      "Que": 2864,
      "hol": 2865,
      "mass": 2866,
      "zz": 2867,
      "invest": 2868,
      "station": 2869,
      "stop": 2870,
      "towards": 2871,
      "text": 2872,
      "aps": 2873,
      "appl": 2874,
      "nest": 2875,
      "aval": 2876,
      "block": 2877,
      "international": 2878,
      "shows": 2879,
      "90": 2880,
      "Lad": 2881,
      "fru": 2882,
      "mir": 2883,
      "reet": 2884,
      "ilities": 2885,
      "impro": 2886,
      "units": 2887,
      "signed": 2888,
      "Grand": 2889,
      "Mont": 2890,
      "business": 2891,
      "aby": 2892,
      "fict": 2893,
      "got": 2894,
      "ius": 2895,
      "ration": 2896,
      "schol": 2897,
      "replaced": 2898,
      "ential": 2899,
      "ills": 2900,
      "Union": 2901,
      "object": 2902,
      "counter": 2903,
      "Christian": 2904,
      "ributed": 2905,
      "Despite": 2906,
      "Card": 2907,
      "Em": 2908,
      "God": 2909,
      "Jane": 2910,
      "Part": 2911,
      "ping": 2912,
      "icted": 2913,
      "ades": 2914,
      "redu": 2915,
      "western": 2916,
      "Early": 2917,
      "magazine": 2918,
      "Hib": 2919,
      "bed": 2920,
      "ecut": 2921,
      "praised": 2922,
      "think": 2923,
      "eratops": 2924,
      "reason": 2925,
      "ittee": 2926,
      "ulated": 2927,
      "compan": 2928,
      "engine": 2929,
      "protein": 2930,
      "anks": 2931,
      "positions": 2932,
      "castle": 2933,
      "limited": 2934,
      "troops": 2935,
      "76": 2936,
      "BA": 2937,
      "Bow": 2938,
      "Che": 2939,
      "Ill": 2940,
      "Miam": 2941,
      "somet": 2942,
      "edar": 2943,
      "istic": 2944,
      "express": 2945,
      "Art": 2946,
      "surround": 2947,
      "prior": 2948,
      "initially": 2949,
      "introduced": 2950,
      "Billboard": 2951,
      "natural": 2952,
      "Miami": 2953,
      "Most": 2954,
      "Of": 2955,
      "ha": 2956,
      "hab": 2957,
      "pain": 2958,
      "rain": 2959,
      "tion": 2960,
      "uation": 2961,
      "atin": 2962,
      "ication": 2963,
      "super": 2964,
      "perform": 2965,
      "maintain": 2966,
      "minist": 2967,
      "count": 2968,
      "bridge": 2969,
      "smaller": 2970,
      "required": 2971,
      "Phil": 2972,
      "estimated": 2973,
      "Henry": 2974,
      "Ale": 2975,
      "But": 2976,
      "Cong": 2977,
      "Dep": 2978,
      "FA": 2979,
      "Game": 2980,
      "bi": 2981,
      "hor": 2982,
      "women": 2983,
      "aled": 2984,
      "section": 2985,
      "lys": 2986,
      "vey": 2987,
      "conv": 2988,
      "osaur": 2989,
      "ference": 2990,
      "region": 2991,
      "ronic": 2992,
      "official": 2993,
      "buildings": 2994,
      "Jewish": 2995,
      "probably": 2996,
      "temporary": 2997,
      "language": 2998,
      "Football": 2999,
      "Don": 3000,
      "GA": 3001,
      "Jer": 3002,
      "Tour": 3003,
      "gg": 3004,
      "hit": 3005,
      "ires": 3006,
      "pot": 3007,
      "threat": 3008,
      "anim": 3009,
      "enty": 3010,
      "olf": 3011,
      "conc": 3012,
      "comes": 3013,
      "closed": 3014,
      "ify": 3015,
      "passed": 3016,
      "nearly": 3017,
      "Jackson": 3018,
      "suggested": 3019,
      "Association": 3020,
      "80": 3021,
      "Great": 3022,
      "Li": 3023,
      "Saint": 3024,
      "bon": 3025,
      "give": 3026,
      "hib": 3027,
      "uals": 3028,
      "wick": 3029,
      "yards": 3030,
      "ander": 3031,
      "detail": 3032,
      "keep": 3033,
      "destroyed": 3034,
      "generally": 3035,
      "Brown": 3036,
      "Camp": 3037,
      "nomin": 3038,
      "ores": 3039,
      "watch": 3040,
      "aring": 3041,
      "ils": 3042,
      "ctive": 3043,
      "pected": 3044,
      "arts": 3045,
      "exam": 3046,
      "Stud": 3047,
      "print": 3048,
      "going": 3049,
      "Second": 3050,
      "Western": 3051,
      "International": 3052,
      "double": 3053,
      "Battle": 3054,
      "Met": 3055,
      "Many": 3056,
      "Nathan": 3057,
      "Oly": 3058,
      "fed": 3059,
      "mult": 3060,
      "prec": 3061,
      "sat": 3062,
      "dev": 3063,
      "defin": 3064,
      "services": 3065,
      "metres": 3066,
      "advant": 3067,
      "borough": 3068,
      "agreed": 3069,
      "religious": 3070,
      "Thomas": 3071,
      "antimony": 3072,
      "Olymp": 3073,
      "Pre": 3074,
      "Tru": 3075,
      "sal": 3076,
      "spo": 3077,
      "ti": 3078,
      "whe": 3079,
      "ana": 3080,
      "acqu": 3081,
      "access": 3082,
      "deities": 3083,
      "ulf": 3084,
      "assist": 3085,
      "2002": 3086,
      "score": 3087,
      "whose": 3088,
      "related": 3089,
      "ification": 3090,
      "particip": 3091,
      "court": 3092,
      "commercial": 3093,
      "Jup": 3094,
      "Later": 3095,
      "Lock": 3096,
      "Mer": 3097,
      "Pres": 3098,
      "Rih": 3099,
      "Sov": 3100,
      "hurricane": 3101,
      "thes": 3102,
      "orial": 3103,
      "already": 3104,
      "arily": 3105,
      "demon": 3106,
      "rather": 3107,
      "compos": 3108,
      "dependent": 3109,
      "fifth": 3110,
      "Illino": 3111,
      "Rihanna": 3112,
      "Fin": 3113,
      "Tre": 3114,
      "gal": 3115,
      "gar": 3116,
      "iding": 3117,
      "assigned": 3118,
      "185": 3119,
      "includes": 3120,
      "Island": 3121,
      "social": 3122,
      "Go": 3123,
      "Haven": 3124,
      "Lu": 3125,
      "Qu": 3126,
      "SR": 3127,
      "cm": 3128,
      "jour": 3129,
      "states": 3130,
      "isions": 3131,
      "proper": 3132,
      "uded": 3133,
      "itect": 3134,
      "operation": 3135,
      "transport": 3136,
      "reviews": 3137,
      "turned": 3138,
      "average": 3139,
      "Night": 3140,
      "Ter": 3141,
      "cé": 3142,
      "leng": 3143,
      "mph": 3144,
      "pil": 3145,
      "ply": 3146,
      "pun": 3147,
      "treat": 3148,
      "dead": 3149,
      "ellow": 3150,
      "ems": 3151,
      "phys": 3152,
      "ological": 3153,
      "studio": 3154,
      "Road": 3155,
      "asked": 3156,
      "respond": 3157,
      "village": 3158,
      "Catholic": 3159,
      "Fleet": 3160,
      "Jupiter": 3161,
      "Kr": 3162,
      "Sing": 3163,
      "Squadron": 3164,
      "Tex": 3165,
      "daugh": 3166,
      "gir": 3167,
      "norm": 3168,
      "pay": 3169,
      "sail": 3170,
      "inj": 3171,
      "iny": 3172,
      "according": 3173,
      "usion": 3174,
      "usually": 3175,
      "ordered": 3176,
      "20th": 3177,
      "load": 3178,
      "soon": 3179,
      "feature": 3180,
      "police": 3181,
      "largely": 3182,
      "visit": 3183,
      "culture": 3184,
      "hours": 3185,
      "professional": 3186,
      "piece": 3187,
      "Fl": 3188,
      "bs": 3189,
      "ben": 3190,
      "doc": 3191,
      "happ": 3192,
      "sil": 3193,
      "itself": 3194,
      "cele": 3195,
      "rian": 3196,
      "utes": 3197,
      "uture": 3198,
      "illery": 3199,
      "quick": 3200,
      "awarded": 3201,
      "Under": 3202,
      "fully": 3203,
      "Constant": 3204,
      "supported": 3205,
      "schools": 3206,
      "marked": 3207,
      "discuss": 3208,
      "cruis": 3209,
      "Ap": 3210,
      "Pat": 3211,
      "bri": 3212,
      "hard": 3213,
      "iation": 3214,
      "rate": 3215,
      "ato": 3216,
      "army": 3217,
      "ume": 3218,
      "That": 3219,
      "coach": 3220,
      "1995": 3221,
      "subject": 3222,
      "capital": 3223,
      "arrived": 3224,
      "likely": 3225,
      "officers": 3226,
      "community": 3227,
      "mixed": 3228,
      "Crazy": 3229,
      "So": 3230,
      "cal": 3231,
      "drop": 3232,
      "mor": 3233,
      "might": 3234,
      "mach": 3235,
      "ote": 3236,
      "ican": 3237,
      "atest": 3238,
      "illo": 3239,
      "trade": 3240,
      "poor": 3241,
      "rict": 3242,
      "consist": 3243,
      "Club": 3244,
      "increasing": 3245,
      "changed": 3246,
      "equip": 3247,
      "Japanese": 3248,
      "Regiment": 3249,
      "length": 3250,
      "Film": 3251,
      "HMS": 3252,
      "Ty": 3253,
      "corn": 3254,
      "hop": 3255,
      "native": 3256,
      "size": 3257,
      "thod": 3258,
      "oncé": 3259,
      "secur": 3260,
      "territ": 3261,
      "apt": 3262,
      "shot": 3263,
      "ateg": 3264,
      "quake": 3265,
      "ranked": 3266,
      "directed": 3267,
      "stitute": 3268,
      "changes": 3269,
      "material": 3270,
      "Beyoncé": 3271,
      "sometimes": 3272,
      "Texas": 3273,
      "33": 3274,
      "Russ": 3275,
      "aut": 3276,
      "iro": 3277,
      "mic": 3278,
      "staff": 3279,
      "notes": 3280,
      "active": 3281,
      "2001": 3282,
      "worth": 3283,
      "rance": 3284,
      "provide": 3285,
      "inner": 3286,
      "prevent": 3287,
      "Council": 3288,
      "winds": 3289,
      "better": 3290,
      "subsequently": 3291,
      "Mexico": 3292,
      "concern": 3293,
      "Hu": 3294,
      "Long": 3295,
      "Little": 3296,
      "Ulys": 3297,
      "Wood": 3298,
      "Year": 3299,
      "bir": 3300,
      "bill": 3301,
      "cake": 3302,
      "nel": 3303,
      "rhy": 3304,
      "thus": 3305,
      "heav": 3306,
      "ado": 3307,
      "artment": 3308,
      "execut": 3309,
      "Chic": 3310,
      "create": 3311,
      "aily": 3312,
      "media": 3313,
      "location": 3314,
      "Clark": 3315,
      "cycl": 3316,
      "groups": 3317,
      "window": 3318,
      "Africa": 3319,
      "Illinois": 3320,
      "Ulysses": 3321,
      "32": 3322,
      "44": 3323,
      "70": 3324,
      "Bul": 3325,
      "Gold": 3326,
      "Kore": 3327,
      "lb": 3328,
      "living": 3329,
      "nu": 3330,
      "pick": 3331,
      "vic": 3332,
      "vate": 3333,
      "winning": 3334,
      "stren": 3335,
      "espec": 3336,
      "adop": 3337,
      "emer": 3338,
      "odes": 3339,
      "ously": 3340,
      "serious": 3341,
      "contains": 3342,
      "spent": 3343,
      "specific": 3344,
      "mith": 3345,
      "Academ": 3346,
      "tries": 3347,
      "Charles": 3348,
      "beginning": 3349,
      "whether": 3350,
      "Chicago": 3351,
      "especially": 3352,
      "49": 3353,
      "AML": 3354,
      "Boy": 3355,
      "Dr": 3356,
      "Friend": 3357,
      "Gw": 3358,
      "Hall": 3359,
      "Oper": 3360,
      "SP": 3361,
      "Vict": 3362,
      "bad": 3363,
      "ds": 3364,
      "dy": 3365,
      "division": 3366,
      "hair": 3367,
      "money": 3368,
      "slow": 3369,
      "tic": 3370,
      "inated": 3371,
      "arg": 3372,
      "ington": 3373,
      "lyric": 3374,
      "iva": 3375,
      "percent": 3376,
      "acted": 3377,
      "fighting": 3378,
      "Atlantic": 3379,
      "excav": 3380,
      "39": 3381,
      "Mid": 3382,
      "Since": 3383,
      "makes": 3384,
      "nation": 3385,
      "purch": 3386,
      "rup": 3387,
      "woman": 3388,
      "eding": 3389,
      "stay": 3390,
      "forts": 3391,
      "resid": 3392,
      "odies": 3393,
      "overall": 3394,
      "assault": 3395,
      "Chap": 3396,
      "feel": 3397,
      "poet": 3398,
      "architect": 3399,
      "helped": 3400,
      "continue": 3401,
      "request": 3402,
      "Frank": 3403,
      "personal": 3404,
      "Palest": 3405,
      "Service": 3406,
      "Hibari": 3407,
      "advantage": 3408,
      "1st": 3409,
      "Er": 3410,
      "NC": 3411,
      "Qedar": 3412,
      "bid": 3413,
      "future": 3414,
      "here": 3415,
      "ns": 3416,
      "ray": 3417,
      "beat": 3418,
      "deep": 3419,
      "image": 3420,
      "concert": 3421,
      "scene": 3422,
      "reek": 3423,
      "centre": 3424,
      "1996": 3425,
      "jected": 3426,
      "issues": 3427,
      "constructed": 3428,
      "northern": 3429,
      "ximately": 3430,
      "streng": 3431,
      "Victor": 3432,
      "6th": 3433,
      "Dan": 3434,
      "Fort": 3435,
      "NH": 3436,
      "NBA": 3437,
      "Tom": 3438,
      "wound": 3439,
      "thick": 3440,
      "aries": 3441,
      "oft": 3442,
      "told": 3443,
      "depart": 3444,
      "ership": 3445,
      "pose": 3446,
      "idea": 3447,
      "positive": 3448,
      "writers": 3449,
      "Enter": 3450,
      "Shiva": 3451,
      "Mario": 3452,
      "standard": 3453,
      "stitut": 3454,
      "competition": 3455,
      "favor": 3456,
      "spacing": 3457,
      "problems": 3458,
      "Sim": 3459,
      "Times": 3460,
      "Ze": 3461,
      "coup": 3462,
      "latter": 3463,
      "mitted": 3464,
      "via": 3465,
      "ville": 3466,
      "wing": 3467,
      "theme": 3468,
      "always": 3469,
      "istics": 3470,
      "shown": 3471,
      "exper": 3472,
      "2000": 3473,
      "plays": 3474,
      "minor": 3475,
      "students": 3476,
      "itting": 3477,
      "teams": 3478,
      "friends": 3479,
      "occurred": 3480,
      "carried": 3481,
      "Mil": 3482,
      "Over": 3483,
      "Penn": 3484,
      "cred": 3485,
      "fell": 3486,
      "ios": 3487,
      "pow": 3488,
      "paren": 3489,
      "onse": 3490,
      "oration": 3491,
      "enj": 3492,
      "alys": 3493,
      "ands": 3494,
      "isation": 3495,
      "touch": 3496,
      "roll": 3497,
      "alled": 3498,
      "clo": 3499,
      "neut": 3500,
      "emb": 3501,
      "rail": 3502,
      "Street": 3503,
      "blue": 3504,
      "prison": 3505,
      "weak": 3506,
      "photo": 3507,
      "mostly": 3508,
      "struck": 3509,
      "Record": 3510,
      "tower": 3511,
      "decision": 3512,
      "Parliament": 3513,
      "target": 3514,
      "types": 3515,
      "fantry": 3516,
      "figure": 3517,
      "primary": 3518,
      "Cardinal": 3519,
      "Alex": 3520,
      "38": 3521,
      "Tri": 3522,
      "Tenn": 3523,
      "pound": 3524,
      "paper": 3525,
      "below": 3526,
      "conf": 3527,
      "abs": 3528,
      "proposed": 3529,
      "necess": 3530,
      "expected": 3531,
      "weap": 3532,
      "speak": 3533,
      "relief": 3534,
      "1994": 3535,
      "larger": 3536,
      "response": 3537,
      "Andrew": 3538,
      "initial": 3539,
      "directly": 3540,
      "ampionship": 3541,
      "Truj": 3542,
      "Constantine": 3543,
      "birth": 3544,
      "Light": 3545,
      "Like": 3546,
      "liter": 3547,
      "uel": 3548,
      "rect": 3549,
      "enough": 3550,
      "becoming": 3551,
      "determin": 3552,
      "irt": 3553,
      "plans": 3554,
      "poly": 3555,
      "intended": 3556,
      "scen": 3557,
      "rane": 3558,
      "meant": 3559,
      "indic": 3560,
      "critical": 3561,
      "allowing": 3562,
      "Colle": 3563,
      "ricket": 3564,
      "marriage": 3565,
      "failed": 3566,
      "Captain": 3567,
      "copies": 3568,
      "celebr": 3569,
      "Trujillo": 3570,
      "Bay": 3571,
      "Cast": 3572,
      "Cour": 3573,
      "Lo": 3574,
      "bit": 3575,
      "frequ": 3576,
      "names": 3577,
      "viron": 3578,
      "onto": 3579,
      "sey": 3580,
      "aging": 3581,
      "ulpt": 3582,
      "moving": 3583,
      "progress": 3584,
      "occas": 3585,
      "ours": 3586,
      "finally": 3587,
      "films": 3588,
      "pedo": 3589,
      "sixth": 3590,
      "arms": 3591,
      "increase": 3592,
      "Prince": 3593,
      "activities": 3594,
      "Highway": 3595,
      "summer": 3596,
      "vocals": 3597,
      "mountain": 3598,
      "Haiti": 3599,
      "victory": 3600,
      "300": 3601,
      "Award": 3602,
      "Crit": 3603,
      "Dire": 3604,
      "Jes": 3605,
      "Prote": 3606,
      "Rio": 3607,
      "Sb": 3608,
      "Sur": 3609,
      "bomb": 3610,
      "hosp": 3611,
      "mot": 3612,
      "sport": 3613,
      "slight": 3614,
      "ergy": 3615,
      "itation": 3616,
      "ession": 3617,
      "spired": 3618,
      "1998": 3619,
      "ceratops": 3620,
      "1986": 3621,
      "books": 3622,
      "ski": 3623,
      "approximately": 3624,
      "Activision": 3625,
      "Angel": 3626,
      "musical": 3627,
      "education": 3628,
      "immediately": 3629,
      "investig": 3630,
      "94": 3631,
      "Aston": 3632,
      "Ca": 3633,
      "Out": 3634,
      "Sever": 3635,
      "batter": 3636,
      "bishop": 3637,
      "cu": 3638,
      "dated": 3639,
      "rout": 3640,
      "ws": 3641,
      "altar": 3642,
      "asy": 3643,
      "health": 3644,
      "enter": 3645,
      "unable": 3646,
      "cting": 3647,
      "Station": 3648,
      "whole": 3649,
      "observ": 3650,
      "minutes": 3651,
      "tons": 3652,
      "Blue": 3653,
      "incor": 3654,
      "greatest": 3655,
      "frag": 3656,
      "captured": 3657,
      "experience": 3658,
      "traditional": 3659,
      "launched": 3660,
      "torpedo": 3661,
      "lyrics": 3662,
      "Cre": 3663,
      "RA": 3664,
      "Turn": 3665,
      "brown": 3666,
      "dark": 3667,
      "male": 3668,
      "oid": 3669,
      "sister": 3670,
      "stra": 3671,
      "ases": 3672,
      "entrance": 3673,
      "iston": 3674,
      "aret": 3675,
      "artillery": 3676,
      "pring": 3677,
      "sculpt": 3678,
      "log": 3679,
      "offered": 3680,
      "discovered": 3681,
      "speed": 3682,
      "venue": 3683,
      "orning": 3684,
      "opera": 3685,
      "complex": 3686,
      "market": 3687,
      "Span": 3688,
      "freeway": 3689,
      "industry": 3690,
      "Richard": 3691,
      "broadcast": 3692,
      "Are": 3693,
      "Bur": 3694,
      "Sou": 3695,
      "Yank": 3696,
      "food": 3697,
      "gn": 3698,
      "gé": 3699,
      "link": 3700,
      "yl": 3701,
      "instr": 3702,
      "alty": 3703,
      "ises": 3704,
      "amed": 3705,
      "bey": 3706,
      "umb": 3707,
      "Its": 3708,
      "center": 3709,
      "struction": 3710,
      "Sea": 3711,
      "ovic": 3712,
      "Anderson": 3713,
      "join": 3714,
      "voice": 3715,
      "vocal": 3716,
      "Egyptian": 3717,
      "meaning": 3718,
      "Department": 3719,
      "Soviet": 3720,
      "brief": 3721,
      "Yankovic": 3722,
      "Jim": 3723,
      "Jif": 3724,
      "Museum": 3725,
      "Pop": 3726,
      "big": 3727,
      "bot": 3728,
      "lock": 3729,
      "mur": 3730,
      "mig": 3731,
      "squ": 3732,
      "information": 3733,
      "rev": 3734,
      "repair": 3735,
      "andon": 3736,
      "secut": 3737,
      "deb": 3738,
      "ultim": 3739,
      "1930": 3740,
      "comedy": 3741,
      "tray": 3742,
      "bles": 3743,
      "recover": 3744,
      "ogue": 3745,
      "phen": 3746,
      "minute": 3747,
      "relative": 3748,
      "albums": 3749,
      "producer": 3750,
      "selves": 3751,
      "famil": 3752,
      "metal": 3753,
      "distin": 3754,
      "controvers": 3755,
      "Week": 3756,
      "married": 3757,
      "Belg": 3758,
      "responsible": 3759,
      "Queen": 3760,
      "Del": 3761,
      "Kil": 3762,
      "Sal": 3763,
      "Sap": 3764,
      "cul": 3765,
      "kick": 3766,
      "mes": 3767,
      "mun": 3768,
      "nature": 3769,
      "pul": 3770,
      "uter": 3771,
      "anced": 3772,
      "enem": 3773,
      "chall": 3774,
      "plot": 3775,
      "ett": 3776,
      "artists": 3777,
      "actor": 3778,
      "fected": 3779,
      "screen": 3780,
      "scoring": 3781,
      "sym": 3782,
      "election": 3783,
      "bring": 3784,
      "1940": 3785,
      "longer": 3786,
      "defence": 3787,
      "Group": 3788,
      "giving": 3789,
      "course": 3790,
      "rison": 3791,
      "radio": 3792,
      "source": 3793,
      "Keats": 3794,
      "conducted": 3795,
      "habit": 3796,
      "Olympic": 3797,
      "Clarkson": 3798,
      "Jifna": 3799,
      "Cold": 3800,
      "Mac": 3801,
      "Tor": 3802,
      "Tran": 3803,
      "aer": 3804,
      "cere": 3805,
      "fre": 3806,
      "fill": 3807,
      "sched": 3808,
      "rein": 3809,
      "removed": 3810,
      "andid": 3811,
      "leaving": 3812,
      "amount": 3813,
      "dete": 3814,
      "terms": 3815,
      "shire": 3816,
      "twenty": 3817,
      "grand": 3818,
      "Ital": 3819,
      "2016": 3820,
      "discover": 3821,
      "highly": 3822,
      "Germany": 3823,
      "Because": 3824,
      "ribution": 3825,
      "performances": 3826,
      "cultural": 3827,
      "associated": 3828,
      "planned": 3829,
      "Lady": 3830,
      "Spanish": 3831,
      "Bal": 3832,
      "Blo": 3833,
      "CA": 3834,
      "Hot": 3835,
      "Live": 3836,
      "Miss": 3837,
      "gam": 3838,
      "jud": 3839,
      "lic": 3840,
      "rac": 3841,
      "inent": 3842,
      "inspired": 3843,
      "rear": 3844,
      "ency": 3845,
      "leuk": 3846,
      "chor": 3847,
      "entered": 3848,
      "unk": 3849,
      "except": 3850,
      "iple": 3851,
      "granted": 3852,
      "owned": 3853,
      "intens": 3854,
      "method": 3855,
      "Another": 3856,
      "themselves": 3857,
      "surface": 3858,
      "majority": 3859,
      "aught": 3860,
      "Central": 3861,
      "suffered": 3862,
      "Government": 3863,
      "Academy": 3864,
      "Friends": 3865,
      "vironment": 3866,
      "Bre": 3867,
      "Mal": 3868,
      "Soci": 3869,
      "bol": 3870,
      "nia": 3871,
      "park": 3872,
      "rare": 3873,
      "sides": 3874,
      "yle": 3875,
      "yet": 3876,
      "theat": 3877,
      "anes": 3878,
      "erous": 3879,
      "refle": 3880,
      "escap": 3881,
      "ountain": 3882,
      "shoot": 3883,
      "compared": 3884,
      "awa": 3885,
      "financ": 3886,
      "1997": 3887,
      "door": 3888,
      "azz": 3889,
      "drum": 3890,
      "presented": 3891,
      "Admir": 3892,
      "private": 3893,
      "attempted": 3894,
      "casual": 3895,
      "undred": 3896,
      "araj": 3897,
      "fruit": 3898,
      "Bowl": 3899,
      "48": 3900,
      "Cle": 3901,
      "Cole": 3902,
      "Naz": 3903,
      "Tele": 3904,
      "done": 3905,
      "hic": 3906,
      "kind": 3907,
      "lvan": 3908,
      "mat": 3909,
      "mel": 3910,
      "master": 3911,
      "sales": 3912,
      "wear": 3913,
      "things": 3914,
      "edit": 3915,
      "attr": 3916,
      "step": 3917,
      "armed": 3918,
      "confl": 3919,
      "shark": 3920,
      "neg": 3921,
      "acting": 3922,
      "Stan": 3923,
      "award": 3924,
      "premi": 3925,
      "Hergé": 3926,
      "severe": 3927,
      "studies": 3928,
      "chem": 3929,
      "runs": 3930,
      "greater": 3931,
      "Airport": 3932,
      "levels": 3933,
      "contrast": 3934,
      "peaked": 3935,
      "President": 3936,
      "daughter": 3937,
      "alysis": 3938,
      "Several": 3939,
      "Kilmer": 3940,
      "Saprang": 3941,
      "47": 3942,
      "Fam": 3943,
      "Fore": 3944,
      "Ho": 3945,
      "Just": 3946,
      "La": 3947,
      "NA": 3948,
      "Sch": 3949,
      "Val": 3950,
      "bour": 3951,
      "dock": 3952,
      "fans": 3953,
      "job": 3954,
      "rical": 3955,
      "tax": 3956,
      "ero": 3957,
      "reme": 3958,
      "anded": 3959,
      "ingale": 3960,
      "administ": 3961,
      "sell": 3962,
      "cean": 3963,
      "conver": 3964,
      "aine": 3965,
      "suit": 3966,
      "Indu": 3967,
      "traf": 3968,
      "composed": 3969,
      "evo": 3970,
      "attention": 3971,
      "pret": 3972,
      "mond": 3973,
      "newsp": 3974,
      "sons": 3975,
      "inside": 3976,
      "records": 3977,
      "singer": 3978,
      "sylvan": 3979,
      "effort": 3980,
      "efforts": 3981,
      "depict": 3982,
      "vessel": 3983,
      "Both": 3984,
      "battles": 3985,
      "commander": 3986,
      "attempts": 3987,
      "takes": 3988,
      "Lawton": 3989,
      "Archaeolog": 3990,
      "commissioned": 3991,
      "osaurus": 3992,
      "girl": 3993,
      "incorpor": 3994,
      "murder": 3995,
      "traffic": 3996,
      "Bet": 3997,
      "Los": 3998,
      "Tim": 3999,
      "bird": 4000,
      "morning": 4001,
      "paid": 4002,
      "edge": 4003,
      "usband": 4004,
      "abandon": 4005,
      "Institute": 4006,
      "acts": 4007,
      "upper": 4008,
      "aust": 4009,
      "office": 4010,
      "atty": 4011,
      "president": 4012,
      "pressure": 4013,
      "render": 4014,
      "phy": 4015,
      "countries": 4016,
      "pression": 4017,
      "attacks": 4018,
      "sentence": 4019,
      "initi": 4020,
      "soldiers": 4021,
      "effects": 4022,
      "sites": 4023,
      "walls": 4024,
      "needed": 4025,
      "variety": 4026,
      "respectively": 4027,
      "settle": 4028,
      "earthquake": 4029,
      "Wilde": 4030,
      "houses": 4031,
      "Janeiro": 4032,
      "College": 4033,
      "Ele": 4034,
      "Latin": 4035,
      "Mill": 4036,
      "Mem": 4037,
      "bury": 4038,
      "want": 4039,
      "erog": 4040,
      "aland": 4041,
      "oud": 4042,
      "secret": 4043,
      "olution": 4044,
      "agon": 4045,
      "ula": 4046,
      "artist": 4047,
      "mentioned": 4048,
      "ender": 4049,
      "fired": 4050,
      "pool": 4051,
      "boats": 4052,
      "offer": 4053,
      "party": 4054,
      "Through": 4055,
      "workers": 4056,
      "underground": 4057,
      "coll": 4058,
      "Def": 4059,
      "Marl": 4060,
      "polic": 4061,
      "chester": 4062,
      "sky": 4063,
      "tracks": 4064,
      "matches": 4065,
      "referred": 4066,
      "refused": 4067,
      "Center": 4068,
      "influence": 4069,
      "flights": 4070,
      "Brook": 4071,
      "reduced": 4072,
      "quickly": 4073,
      "equipment": 4074,
      "heavily": 4075,
      "leukem": 4076,
      "Society": 4077,
      "42": 4078,
      "56": 4079,
      "Back": 4080,
      "Bob": 4081,
      "Cross": 4082,
      "Eat": 4083,
      "FI": 4084,
      "Key": 4085,
      "OK": 4086,
      "Off": 4087,
      "Post": 4088,
      "Saraj": 4089,
      "Tem": 4090,
      "Young": 4091,
      "cat": 4092,
      "fast": 4093,
      "gain": 4094,
      "hundred": 4095,
      "ror": 4096,
      "sac": 4097,
      "sus": 4098,
      "aspect": 4099,
      "elli": 4100,
      "emphas": 4101,
      "1993": 4102,
      "Common": 4103,
      "tainment": 4104,
      "Leon": 4105,
      "1941": 4106,
      "appearances": 4107,
      "Force": 4108,
      "officer": 4109,
      "Science": 4110,
      "divided": 4111,
      "concluded": 4112,
      "commented": 4113,
      "slightly": 4114,
      "Italian": 4115,
      "Sarajevo": 4116,
      "34": 4117,
      "75": 4118,
      "Adam": 4119,
      "Bu": 4120,
      "Civil": 4121,
      "Dest": 4122,
      "Domin": 4123,
      "Games": 4124,
      "Green": 4125,
      "Hor": 4126,
      "Hum": 4127,
      "Jose": 4128,
      "Sir": 4129,
      "museum": 4130,
      "pet": 4131,
      "reception": 4132,
      "ening": 4133,
      "stars": 4134,
      "ications": 4135,
      "lying": 4136,
      "olk": 4137,
      "igade": 4138,
      "unity": 4139,
      "concent": 4140,
      "river": 4141,
      "plum": 4142,
      "ighth": 4143,
      "estic": 4144,
      "extra": 4145,
      "managed": 4146,
      "raid": 4147,
      "China": 4148,
      "scient": 4149,
      "science": 4150,
      "colon": 4151,
      "county": 4152,
      "higher": 4153,
      "Conference": 4154,
      "identified": 4155,
      "consider": 4156,
      "Scott": 4157,
      "broken": 4158,
      "Palmy": 4159,
      "establish": 4160,
      "basis": 4161,
      "figures": 4162,
      "sexual": 4163,
      "flying": 4164,
      "Minister": 4165,
      "revealed": 4166,
      "document": 4167,
      "wounded": 4168,
      "parents": 4169,
      "scenes": 4170,
      "Dist": 4171,
      "Gord": 4172,
      "dut": 4173,
      "drew": 4174,
      "ging": 4175,
      "han": 4176,
      "rd": 4177,
      "rated": 4178,
      "uated": 4179,
      "vens": 4180,
      "winter": 4181,
      "stories": 4182,
      "toward": 4183,
      "iled": 4184,
      "contemporary": 4185,
      "uled": 4186,
      "peace": 4187,
      "ockey": 4188,
      "means": 4189,
      "note": 4190,
      "temper": 4191,
      "color": 4192,
      "numbers": 4193,
      "suppl": 4194,
      "captain": 4195,
      "passing": 4196,
      "episodes": 4197,
      "running": 4198,
      "officially": 4199,
      "starting": 4200,
      "resulted": 4201,
      "issued": 4202,
      "extended": 4203,
      "hands": 4204,
      "quarters": 4205,
      "rapid": 4206,
      "archaeological": 4207,
      "selected": 4208,
      "transferred": 4209,
      "ceremon": 4210,
      "Marlborough": 4211,
      "400": 4212,
      "5th": 4213,
      "Ali": 4214,
      "Gre": 4215,
      "Mountain": 4216,
      "Water": 4217,
      "aire": 4218,
      "ban": 4219,
      "farm": 4220,
      "nd": 4221,
      "pup": 4222,
      "stre": 4223,
      "chair": 4224,
      "sec": 4225,
      "defeat": 4226,
      "opin": 4227,
      "umed": 4228,
      "anta": 4229,
      "perman": 4230,
      "quality": 4231,
      "ieval": 4232,
      "hero": 4233,
      "Chris": 4234,
      "content": 4235,
      "Aniston": 4236,
      "preser": 4237,
      "monarch": 4238,
      "orses": 4239,
      "collabor": 4240,
      "Gerard": 4241,
      "portray": 4242,
      "alongside": 4243,
      "legal": 4244,
      "carry": 4245,
      "draft": 4246,
      "storyline": 4247,
      "Paris": 4248,
      "drawn": 4249,
      "structures": 4250,
      "says": 4251,
      "society": 4252,
      "represented": 4253,
      "ynast": 4254,
      "cells": 4255,
      "Histor": 4256,
      "Corps": 4257,
      "words": 4258,
      "chapter": 4259,
      "Swed": 4260,
      "graf": 4261,
      "argued": 4262,
      "expressed": 4263,
      "Zealand": 4264,
      "Pennsylvan": 4265,
      "enjoy": 4266,
      "erogative": 4267,
      "Aust": 4268,
      "OT": 4269,
      "Pet": 4270,
      "UN": 4271,
      "WA": 4272,
      "Wales": 4273,
      "bb": 4274,
      "cers": 4275,
      "dro": 4276,
      "ec": 4277,
      "kil": 4278,
      "pag": 4279,
      "ert": 4280,
      "roof": 4281,
      "grass": 4282,
      "blood": 4283,
      "180": 4284,
      "creation": 4285,
      "annual": 4286,
      "write": 4287,
      "hys": 4288,
      "officials": 4289,
      "titles": 4290,
      "missed": 4291,
      "asket": 4292,
      "Mega": 4293,
      "Earth": 4294,
      "layer": 4295,
      "status": 4296,
      "accepted": 4297,
      "dedicated": 4298,
      "Oslo": 4299,
      "improve": 4300,
      "companies": 4301,
      "demonstr": 4302,
      "normal": 4303,
      "residents": 4304,
      "Court": 4305,
      "casualties": 4306,
      "53": 4307,
      "Bond": 4308,
      "Furt": 4309,
      "Ha": 4310,
      "Hell": 4311,
      "Mart": 4312,
      "Pers": 4313,
      "Row": 4314,
      "Ve": 4315,
      "Video": 4316,
      "bud": 4317,
      "burn": 4318,
      "dition": 4319,
      "dress": 4320,
      "data": 4321,
      "fres": 4322,
      "naval": 4323,
      "patter": 4324,
      "atus": 4325,
      "defe": 4326,
      "verse": 4327,
      "aped": 4328,
      "opport": 4329,
      "shore": 4330,
      "true": 4331,
      "excl": 4332,
      "affected": 4333,
      "boy": 4334,
      "offs": 4335,
      "offensive": 4336,
      "ibly": 4337,
      "conditions": 4338,
      "1991": 4339,
      "1999": 4340,
      "producers": 4341,
      "Shol": 4342,
      "1942": 4343,
      "advance": 4344,
      "function": 4345,
      "Franc": 4346,
      "Stevens": 4347,
      "1939": 4348,
      "powerful": 4349,
      "middle": 4350,
      "activity": 4351,
      "Major": 4352,
      "chapel": 4353,
      "travel": 4354,
      "sources": 4355,
      "Markgraf": 4356,
      "practice": 4357,
      "achieved": 4358,
      "journal": 4359,
      "lbw": 4360,
      "strength": 4361,
      "Gordon": 4362,
      "Furtado": 4363,
      "Do": 4364,
      "Gir": 4365,
      "Mat": 4366,
      "Vill": 4367,
      "bass": 4368,
      "hl": 4369,
      "husband": 4370,
      "mit": 4371,
      "mast": 4372,
      "smo": 4373,
      "ufact": 4374,
      "za": 4375,
      "thr": 4376,
      "inscript": 4377,
      "environment": 4378,
      "alion": 4379,
      "chance": 4380,
      "seek": 4381,
      "selling": 4382,
      "vehic": 4383,
      "confir": 4384,
      "oppon": 4385,
      "attend": 4386,
      "shell": 4387,
      "rule": 4388,
      "Real": 4389,
      "1990": 4390,
      "1992": 4391,
      "guard": 4392,
      "background": 4393,
      "calling": 4394,
      "featuring": 4395,
      "defense": 4396,
      "places": 4397,
      "attacked": 4398,
      "solo": 4399,
      "situation": 4400,
      "influenced": 4401,
      "economic": 4402,
      "narrow": 4403,
      "individuals": 4404,
      "scholar": 4405,
      "surrounding": 4406,
      "convoy": 4407,
      "Krak": 4408,
      "NHL": 4409,
      "Turner": 4410,
      "Sholay": 4411,
      "600": 4412,
      "87": 4413,
      "95": 4414,
      "Den": 4415,
      "Dis": 4416,
      "Dev": 4417,
      "Four": 4418,
      "Nich": 4419,
      "Pen": 4420,
      "Sum": 4421,
      "Smith": 4422,
      "ais": 4423,
      "bat": 4424,
      "bio": 4425,
      "dream": 4426,
      "iant": 4427,
      "mom": 4428,
      "mind": 4429,
      "nur": 4430,
      "ook": 4431,
      "ram": 4432,
      "tur": 4433,
      "analysis": 4434,
      "alle": 4435,
      "unit": 4436,
      "earned": 4437,
      "mechan": 4438,
      "weather": 4439,
      "themes": 4440,
      "seasons": 4441,
      "End": 4442,
      "ledge": 4443,
      "1944": 4444,
      "appears": 4445,
      "protest": 4446,
      "Manchester": 4447,
      "domestic": 4448,
      "apping": 4449,
      "ription": 4450,
      "divine": 4451,
      "planet": 4452,
      "historical": 4453,
      "industri": 4454,
      "inches": 4455,
      "individual": 4456,
      "Review": 4457,
      "Records": 4458,
      "ultimately": 4459,
      "Francis": 4460,
      "Nichol": 4461,
      "64": 4462,
      "Down": 4463,
      "Hok": 4464,
      "Jul": 4465,
      "Kent": 4466,
      "Pac": 4467,
      "Rob": 4468,
      "Sam": 4469,
      "dates": 4470,
      "glo": 4471,
      "pack": 4472,
      "tree": 4473,
      "thews": 4474,
      "ont": 4475,
      "leave": 4476,
      "imens": 4477,
      "vert": 4478,
      "1920": 4479,
      "utz": 4480,
      "ift": 4481,
      "bled": 4482,
      "prerogative": 4483,
      "Three": 4484,
      "monument": 4485,
      "Album": 4486,
      "defensive": 4487,
      "nearby": 4488,
      "crake": 4489,
      "extensive": 4490,
      "extreme": 4491,
      "grew": 4492,
      "collection": 4493,
      "alky": 4494,
      "typically": 4495,
      "connected": 4496,
      "separate": 4497,
      "prepared": 4498,
      "Joseph": 4499,
      "asketball": 4500,
      "NS": 4501,
      "Patty": 4502,
      "Valky": 4503,
      "cust": 4504,
      "fa": 4505,
      "hood": 4506,
      "oil": 4507,
      "rating": 4508,
      "uzz": 4509,
      "yson": 4510,
      "recomm": 4511,
      "esc": 4512,
      "isl": 4513,
      "iced": 4514,
      "amino": 4515,
      "delay": 4516,
      "unique": 4517,
      "convent": 4518,
      "istry": 4519,
      "train": 4520,
      "arden": 4521,
      "loy": 4522,
      "mainly": 4523,
      "spect": 4524,
      "newly": 4525,
      "produce": 4526,
      "fields": 4527,
      "controlled": 4528,
      "Book": 4529,
      "publication": 4530,
      "churches": 4531,
      "successfully": 4532,
      "widely": 4533,
      "audience": 4534,
      "primarily": 4535,
      "pieces": 4536,
      "tellig": 4537,
      "deliver": 4538,
      "applied": 4539,
      "thesis": 4540,
      "Tennyson": 4541,
      "Eaton": 4542,
      "Pennsylvania": 4543,
      "Bed": 4544,
      "Bos": 4545,
      "Dou": 4546,
      "Ev": 4547,
      "Je": 4548,
      "More": 4549,
      "Max": 4550,
      "bats": 4551,
      "bodies": 4552,
      "ker": 4553,
      "mouth": 4554,
      "rich": 4555,
      "sa": 4556,
      "ini": 4557,
      "atives": 4558,
      "older": 4559,
      "uten": 4560,
      "estival": 4561,
      "manufact": 4562,
      "portion": 4563,
      "ultural": 4564,
      "presence": 4565,
      "rug": 4566,
      "regard": 4567,
      "cannot": 4568,
      "consisted": 4569,
      "something": 4570,
      "sole": 4571,
      "highlight": 4572,
      "1943": 4573,
      "1984": 4574,
      "require": 4575,
      "Colon": 4576,
      "risk": 4577,
      "plement": 4578,
      "sequence": 4579,
      "claims": 4580,
      "camps": 4581,
      "floor": 4582,
      "authority": 4583,
      "authorities": 4584,
      "graphic": 4585,
      "ceeded": 4586,
      "routes": 4587,
      "budget": 4588,
      "65": 4589,
      "Band": 4590,
      "Bark": 4591,
      "Cali": 4592,
      "DS": 4593,
      "Du": 4594,
      "Fant": 4595,
      "Fern": 4596,
      "Gab": 4597,
      "Stop": 4598,
      "Ul": 4599,
      "Up": 4600,
      "cities": 4601,
      "push": 4602,
      "save": 4603,
      "sense": 4604,
      "ustr": 4605,
      "reaction": 4606,
      "enge": 4607,
      "hem": 4608,
      "uries": 4609,
      "1918": 4610,
      "mob": 4611,
      "mod": 4612,
      "mole": 4613,
      "ements": 4614,
      "actress": 4615,
      "boat": 4616,
      "attended": 4617,
      "flank": 4618,
      "obtain": 4619,
      "strugg": 4620,
      "singing": 4621,
      "submar": 4622,
      "secondary": 4623,
      "doing": 4624,
      "address": 4625,
      "1985": 4626,
      "maxim": 4627,
      "engaged": 4628,
      "Maria": 4629,
      "Scot": 4630,
      "Mean": 4631,
      "holds": 4632,
      "historic": 4633,
      "criticized": 4634,
      "declared": 4635,
      "Howe": 4636,
      "Lords": 4637,
      "losing": 4638,
      "fictional": 4639,
      "silver": 4640,
      "adopted": 4641,
      "Califor": 4642,
      "Bru": 4643,
      "Bishop": 4644,
      "Dar": 4645,
      "Emp": 4646,
      "Fur": 4647,
      "Ham": 4648,
      "If": 4649,
      "Rad": 4650,
      "Sto": 4651,
      "Time": 4652,
      "dance": 4653,
      "fix": 4654,
      "ka": 4655,
      "lor": 4656,
      "lived": 4657,
      "mut": 4658,
      "mart": 4659,
      "oth": 4660,
      "rig": 4661,
      "inte": 4662,
      "ono": 4663,
      "stating": 4664,
      "stained": 4665,
      "alone": 4666,
      "height": 4667,
      "Their": 4668,
      "iday": 4669,
      "utch": 4670,
      "clos": 4671,
      "Infantry": 4672,
      "tran": 4673,
      "extr": 4674,
      "essions": 4675,
      "Chronic": 4676,
      "prise": 4677,
      "committee": 4678,
      "versions": 4679,
      "charge": 4680,
      "numerous": 4681,
      "Commission": 4682,
      "Short": 4683,
      "famous": 4684,
      "transl": 4685,
      "label": 4686,
      "prominent": 4687,
      "explained": 4688,
      "broke": 4689,
      "Produ": 4690,
      "projects": 4691,
      "looking": 4692,
      "Edward": 4693,
      "combined": 4694,
      "begins": 4695,
      "Type": 4696,
      "security": 4697,
      "Russian": 4698,
      "micro": 4699,
      "Gwen": 4700,
      "necessary": 4701,
      "weapons": 4702,
      "determined": 4703,
      "Director": 4704,
      "battleship": 4705,
      "batsman": 4706,
      "Baby": 4707,
      "Kel": 4708,
      "Sus": 4709,
      "fare": 4710,
      "horses": 4711,
      "rat": 4712,
      "swe": 4713,
      "thm": 4714,
      "thous": 4715,
      "edding": 4716,
      "restr": 4717,
      "really": 4718,
      "ingu": 4719,
      "today": 4720,
      "imin": 4721,
      "concept": 4722,
      "emed": 4723,
      "ocated": 4724,
      "ieuten": 4725,
      "actors": 4726,
      "actually": 4727,
      "serial": 4728,
      "Though": 4729,
      "izing": 4730,
      "elected": 4731,
      "1946": 4732,
      "1989": 4733,
      "ithic": 4734,
      "supporting": 4735,
      "promoted": 4736,
      "Poland": 4737,
      "visited": 4738,
      "Norman": 4739,
      "Geoff": 4740,
      "People": 4741,
      "believe": 4742,
      "frig": 4743,
      "Committee": 4744,
      "facilities": 4745,
      "slide": 4746,
      "historian": 4747,
      "northeast": 4748,
      "tomb": 4749,
      "buried": 4750,
      "growth": 4751,
      "trees": 4752,
      "Party": 4753,
      "federal": 4754,
      "territory": 4755,
      "square": 4756,
      "financial": 4757,
      "55": 4758,
      "8th": 4759,
      "Cam": 4760,
      "Hob": 4761,
      "Iron": 4762,
      "OC": 4763,
      "Ode": 4764,
      "Ton": 4765,
      "Way": 4766,
      "bone": 4767,
      "flow": 4768,
      "lives": 4769,
      "pitch": 4770,
      "rush": 4771,
      "squadron": 4772,
      "edition": 4773,
      "replac": 4774,
      "rejected": 4775,
      "cher": 4776,
      "ental": 4777,
      "account": 4778,
      "images": 4779,
      "igo": 4780,
      "raise": 4781,
      "Child": 4782,
      "princ": 4783,
      "airline": 4784,
      "rows": 4785,
      "Albert": 4786,
      "charter": 4787,
      "follows": 4788,
      "founded": 4789,
      "drama": 4790,
      "Johnston": 4791,
      "defend": 4792,
      "gives": 4793,
      "royal": 4794,
      "commandment": 4795,
      "ullen": 4796,
      "Mathews": 4797,
      "earliest": 4798,
      "completely": 4799,
      "occupied": 4800,
      "flooding": 4801,
      "potential": 4802,
      "Bulls": 4803,
      "Alexander": 4804,
      "Castle": 4805,
      "Jesus": 4806,
      "hospital": 4807,
      "Admiral": 4808,
      "Coleman": 4809,
      "Background": 4810,
      "Hokies": 4811,
      "Valkyria": 4812,
      "California": 4813,
      "Empire": 4814,
      "Far": 4815,
      "Home": 4816,
      "Hosp": 4817,
      "Lin": 4818,
      "Mus": 4819,
      "Public": 4820,
      "Sound": 4821,
      "Tod": 4822,
      "Tower": 4823,
      "dict": 4824,
      "ease": 4825,
      "fear": 4826,
      "jun": 4827,
      "wise": 4828,
      "independent": 4829,
      "remix": 4830,
      "arian": 4831,
      "assem": 4832,
      "heart": 4833,
      "semi": 4834,
      "becomes": 4835,
      "artic": 4836,
      "peror": 4837,
      "qual": 4838,
      "ipal": 4839,
      "18th": 4840,
      "contain": 4841,
      "poses": 4842,
      "annel": 4843,
      "condition": 4844,
      "gency": 4845,
      "choir": 4846,
      "1988": 4847,
      "1980s": 4848,
      "direction": 4849,
      "leader": 4850,
      "Secret": 4851,
      "designated": 4852,
      "advent": 4853,
      "shortly": 4854,
      "southeast": 4855,
      "reference": 4856,
      "behav": 4857,
      "focus": 4858,
      "fiction": 4859,
      "physical": 4860,
      "benef": 4861,
      "cruiser": 4862,
      "increasingly": 4863,
      "nuclear": 4864,
      "Angeles": 4865,
      "Area": 4866,
      "scheduled": 4867,
      "conflict": 4868,
      "WASP": 4869,
      "46": 4870,
      "98": 4871,
      "DC": 4872,
      "Dun": 4873,
      "Fred": 4874,
      "Men": 4875,
      "Nations": 4876,
      "Never": 4877,
      "Ot": 4878,
      "bes": 4879,
      "baby": 4880,
      "fair": 4881,
      "jazz": 4882,
      "mile": 4883,
      "nick": 4884,
      "spl": 4885,
      "til": 4886,
      "wild": 4887,
      "ying": 4888,
      "ancy": 4889,
      "repe": 4890,
      "reign": 4891,
      "ora": 4892,
      "encour": 4893,
      "itude": 4894,
      "chi": 4895,
      "chism": 4896,
      "adel": 4897,
      "unknown": 4898,
      "apy": 4899,
      "mov": 4900,
      "shr": 4901,
      "shaped": 4902,
      "neigh": 4903,
      "ordin": 4904,
      "orders": 4905,
      "firing": 4906,
      "compound": 4907,
      "recent": 4908,
      "ween": 4909,
      "wealth": 4910,
      "Arm": 4911,
      "genus": 4912,
      "element": 4913,
      "1947": 4914,
      "ashion": 4915,
      "describes": 4916,
      "1972": 4917,
      "ficient": 4918,
      "results": 4919,
      "Stephen": 4920,
      "organized": 4921,
      "Spain": 4922,
      "ancient": 4923,
      "seventh": 4924,
      "teenth": 4925,
      "African": 4926,
      "Howard": 4927,
      "phase": 4928,
      "economy": 4929,
      "measure": 4930,
      "homes": 4931,
      "Carolina": 4932,
      "Korean": 4933,
      "Middle": 4934,
      "couple": 4935,
      "Southern": 4936,
      "abandoned": 4937,
      "Dominican": 4938,
      "Barker": 4939,
      "72": 4940,
      "79": 4941,
      "AD": 4942,
      "CP": 4943,
      "Lake": 4944,
      "cricket": 4945,
      "candid": 4946,
      "horn": 4947,
      "jump": 4948,
      "path": 4949,
      "sist": 4950,
      "cham": 4951,
      "academ": 4952,
      "iring": 4953,
      "igan": 4954,
      "consecut": 4955,
      "ager": 4956,
      "agric": 4957,
      "plain": 4958,
      "reser": 4959,
      "proved": 4960,
      "shape": 4961,
      "atechism": 4962,
      "avoid": 4963,
      "herself": 4964,
      "Championship": 4965,
      "pton": 4966,
      "intend": 4967,
      "web": 4968,
      "news": 4969,
      "17th": 4970,
      "Leg": 4971,
      "viewers": 4972,
      "1982": 4973,
      "servation": 4974,
      "tried": 4975,
      "continues": 4976,
      "rights": 4977,
      "Coast": 4978,
      "PlayStation": 4979,
      "launch": 4980,
      "pilot": 4981,
      "purchased": 4982,
      "literature": 4983,
      "families": 4984,
      "newspaper": 4985,
      "41": 4986,
      "43": 4987,
      "Age": 4988,
      "CE": 4989,
      "Cro": 4990,
      "Gar": 4991,
      "Jay": 4992,
      "Peach": 4993,
      "Ram": 4994,
      "Sen": 4995,
      "Sub": 4996,
      "Wel": 4997,
      "cited": 4998,
      "gro": 4999
    },
    "merges": [
      [
        "t",
        "h"
      ],
      [
        "i",
        "n"
      ],
      [
        "th",
        "e"
      ],
      [
        "a",
        "n"
      ],
      [
        "e",
        "r"
      ],
      [
        "o",
        "n"
      ],
      [
        "e",
        "d"
      ],
      [
        "r",
        "e"
      ],
      [
        "a",
        "t"
      ],
      [
        "o",
        "r"
      ],
      [
        "e",
        "n"
      ],
      [
        "s",
        "t"
      ],
      [
        "a",
        "l"
      ],
      [
        "a",
        "r"
      ],
      [
        "o",
        "f"
      ],
      [
        "an",
        "d"
      ],
      [
        "a",
        "s"
      ],
      [
        "e",
        "s"
      ],
      [
        "in",
        "g"
      ],
      [
        "i",
        "s"
      ],
      [
        "i",
        "t"
      ],
      [
        "t",
        "o"
      ],
      [
        "o",
        "u"
      ],
      [
        "i",
        "c"
      ],
      [
        "i",
        "on"
      ],
      [
        "h",
        "e"
      ],
      [
        "l",
        "e"
      ],
      [
        "r",
        "o"
      ],
      [
        "i",
        "l"
      ],
      [
        "c",
        "h"
      ],
      [
        "en",
        "t"
      ],
      [
        "a",
        "d"
      ],
      [
        "s",
        "e"
      ],
      [
        "a",
        "m"
      ],
      [
        "b",
        "e"
      ],
      [
        "o",
        "m"
      ],
      [
        "a",
        "c"
      ],
      [
        "l",
        "y"
      ],
      [
        "f",
        "or"
      ],
      [
        "w",
        "as"
      ],
      [
        "d",
        "e"
      ],
      [
        "u",
        "r"
      ],
      [
        "v",
        "e"
      ],
      [
        "o",
        "l"
      ],
      [
        "T",
        "he"
      ],
      [
        "i",
        "r"
      ],
      [
        "-",
        "@"
      ],
      [
        "@",
        "-@"
      ],
      [
        "o",
        "w"
      ],
      [
        "i",
        "m"
      ],
      [
        "i",
        "g"
      ],
      [
        "w",
        "h"
      ],
      [
        "t",
        "er"
      ],
      [
        "w",
        "i"
      ],
      [
        "v",
        "er"
      ],
      [
        "c",
        "e"
      ],
      [
        "a",
        "y"
      ],
      [
        "u",
        "n"
      ],
      [
        "at",
        "ion"
      ],
      [
        "wi",
        "th"
      ],
      [
        "c",
        "on"
      ],
      [
        "c",
        "t"
      ],
      [
        "th",
        "at"
      ],
      [
        "a",
        "g"
      ],
      [
        "t",
        "e"
      ],
      [
        "b",
        "y"
      ],
      [
        "i",
        "d"
      ],
      [
        "e",
        "l"
      ],
      [
        "u",
        "s"
      ],
      [
        "u",
        "l"
      ],
      [
        "o",
        "t"
      ],
      [
        "r",
        "i"
      ],
      [
        "a",
        "p"
      ],
      [
        "o",
        "p"
      ],
      [
        "u",
        "m"
      ],
      [
        "p",
        "l"
      ],
      [
        "1",
        "9"
      ],
      [
        "a",
        "in"
      ],
      [
        "e",
        "t"
      ],
      [
        "er",
        "e"
      ],
      [
        "ro",
        "m"
      ],
      [
        "re",
        "s"
      ],
      [
        "al",
        "l"
      ],
      [
        "c",
        "om"
      ],
      [
        "i",
        "st"
      ],
      [
        "u",
        "t"
      ],
      [
        "ou",
        "n"
      ],
      [
        "a",
        "b"
      ],
      [
        "er",
        "s"
      ],
      [
        "0",
        "0"
      ],
      [
        "s",
        "u"
      ],
      [
        "m",
        "o"
      ],
      [
        "h",
        "is"
      ],
      [
        "the",
        "r"
      ],
      [
        "p",
        "ro"
      ],
      [
        "s",
        "h"
      ],
      [
        "p",
        "e"
      ],
      [
        "a",
        "re"
      ],
      [
        "f",
        "rom"
      ],
      [
        "c",
        "l"
      ],
      [
        "at",
        "e"
      ],
      [
        "I",
        "n"
      ],
      [
        "i",
        "es"
      ],
      [
        "n",
        "e"
      ],
      [
        "o",
        "s"
      ],
      [
        "il",
        "l"
      ],
      [
        "e",
        "m"
      ],
      [
        "o",
        "c"
      ],
      [
        "t",
        "r"
      ],
      [
        "ar",
        "t"
      ],
      [
        "ig",
        "h"
      ],
      [
        "e",
        "st"
      ],
      [
        "e",
        "x"
      ],
      [
        "ar",
        "d"
      ],
      [
        "on",
        "g"
      ],
      [
        "w",
        "ere"
      ],
      [
        "i",
        "v"
      ],
      [
        "a",
        "st"
      ],
      [
        "l",
        "d"
      ],
      [
        "a",
        "k"
      ],
      [
        "is",
        "h"
      ],
      [
        "ic",
        "h"
      ],
      [
        "o",
        "d"
      ],
      [
        "i",
        "f"
      ],
      [
        "g",
        "h"
      ],
      [
        "an",
        "t"
      ],
      [
        "b",
        "er"
      ],
      [
        "or",
        "t"
      ],
      [
        "i",
        "ve"
      ],
      [
        "p",
        "er"
      ],
      [
        "m",
        "an"
      ],
      [
        "q",
        "u"
      ],
      [
        "at",
        "ed"
      ],
      [
        "es",
        "s"
      ],
      [
        "m",
        "ent"
      ],
      [
        "it",
        "y"
      ],
      [
        "am",
        "e"
      ],
      [
        "en",
        "d"
      ],
      [
        "or",
        "d"
      ],
      [
        "al",
        "s"
      ],
      [
        "ou",
        "t"
      ],
      [
        "h",
        "ad"
      ],
      [
        "u",
        "d"
      ],
      [
        "r",
        "a"
      ],
      [
        "ou",
        "gh"
      ],
      [
        "e",
        "ar"
      ],
      [
        "on",
        "e"
      ],
      [
        "o",
        "ver"
      ],
      [
        "ou",
        "r"
      ],
      [
        "ac",
        "k"
      ],
      [
        "t",
        "w"
      ],
      [
        "i",
        "e"
      ],
      [
        "wh",
        "ich"
      ],
      [
        "r",
        "it"
      ],
      [
        "i",
        "an"
      ],
      [
        "oun",
        "d"
      ],
      [
        "a",
        "v"
      ],
      [
        "i",
        "p"
      ],
      [
        "g",
        "e"
      ],
      [
        "as",
        "s"
      ],
      [
        "in",
        "e"
      ],
      [
        "st",
        "r"
      ],
      [
        "n",
        "ot"
      ],
      [
        "a",
        "ve"
      ],
      [
        "h",
        "er"
      ],
      [
        "i",
        "a"
      ],
      [
        "ar",
        "y"
      ],
      [
        "b",
        "ut"
      ],
      [
        "i",
        "al"
      ],
      [
        "C",
        "h"
      ],
      [
        "ac",
        "t"
      ],
      [
        "g",
        "r"
      ],
      [
        "igh",
        "t"
      ],
      [
        "ow",
        "n"
      ],
      [
        "it",
        "s"
      ],
      [
        "S",
        "t"
      ],
      [
        "u",
        "p"
      ],
      [
        "2",
        "00"
      ],
      [
        "ic",
        "al"
      ],
      [
        "f",
        "e"
      ],
      [
        "2",
        "0"
      ],
      [
        "d",
        "u"
      ],
      [
        "p",
        "ort"
      ],
      [
        "b",
        "l"
      ],
      [
        "f",
        "ir"
      ],
      [
        "ou",
        "s"
      ],
      [
        "a",
        "f"
      ],
      [
        "d",
        "er"
      ],
      [
        "l",
        "l"
      ],
      [
        "o",
        "re"
      ],
      [
        "a",
        "ch"
      ],
      [
        "p",
        "o"
      ],
      [
        "ag",
        "e"
      ],
      [
        "b",
        "o"
      ],
      [
        "l",
        "and"
      ],
      [
        "i",
        "de"
      ],
      [
        "p",
        "r"
      ],
      [
        "w",
        "or"
      ],
      [
        "ou",
        "ld"
      ],
      [
        "pl",
        "ay"
      ],
      [
        "h",
        "as"
      ],
      [
        "the",
        "ir"
      ],
      [
        "p",
        "t"
      ],
      [
        "it",
        "ion"
      ],
      [
        "fir",
        "st"
      ],
      [
        "s",
        "er"
      ],
      [
        "in",
        "t"
      ],
      [
        "o",
        "ther"
      ],
      [
        "u",
        "re"
      ],
      [
        "als",
        "o"
      ],
      [
        "i",
        "re"
      ],
      [
        "com",
        "p"
      ],
      [
        "re",
        "c"
      ],
      [
        "e",
        "p"
      ],
      [
        "s",
        "c"
      ],
      [
        "for",
        "m"
      ],
      [
        "l",
        "ow"
      ],
      [
        "t",
        "im"
      ],
      [
        "ig",
        "n"
      ],
      [
        "r",
        "an"
      ],
      [
        "1",
        "8"
      ],
      [
        "l",
        "o"
      ],
      [
        "a",
        "u"
      ],
      [
        "o",
        "k"
      ],
      [
        "ct",
        "ion"
      ],
      [
        "wh",
        "o"
      ],
      [
        "l",
        "i"
      ],
      [
        "of",
        "f"
      ],
      [
        "a",
        "w"
      ],
      [
        "en",
        "ce"
      ],
      [
        "e",
        "v"
      ],
      [
        "re",
        "e"
      ],
      [
        "tw",
        "o"
      ],
      [
        "h",
        "ave"
      ],
      [
        "k",
        "e"
      ],
      [
        "at",
        "t"
      ],
      [
        "H",
        "e"
      ],
      [
        "at",
        "er"
      ],
      [
        "con",
        "t"
      ],
      [
        "u",
        "e"
      ],
      [
        "be",
        "en"
      ],
      [
        "ur",
        "ing"
      ],
      [
        "p",
        "art"
      ],
      [
        "s",
        "p"
      ],
      [
        "it",
        "e"
      ],
      [
        "or",
        "y"
      ],
      [
        "ul",
        "t"
      ],
      [
        ".",
        "@"
      ],
      [
        "@",
        ".@"
      ],
      [
        "o",
        "g"
      ],
      [
        "om",
        "e"
      ],
      [
        "th",
        "is"
      ],
      [
        "d",
        "es"
      ],
      [
        "i",
        "le"
      ],
      [
        "p",
        "os"
      ],
      [
        "ar",
        "k"
      ],
      [
        "al",
        "ly"
      ],
      [
        "I",
        "t"
      ],
      [
        "20",
        "1"
      ],
      [
        "m",
        "e"
      ],
      [
        "in",
        "d"
      ],
      [
        "af",
        "ter"
      ],
      [
        "c",
        "ent"
      ],
      [
        "T",
        "h"
      ],
      [
        "ad",
        "e"
      ],
      [
        "c",
        "re"
      ],
      [
        "com",
        "m"
      ],
      [
        "A",
        "n"
      ],
      [
        "v",
        "ed"
      ],
      [
        "p",
        "res"
      ],
      [
        "d",
        "is"
      ],
      [
        "u",
        "st"
      ],
      [
        "a",
        "ir"
      ],
      [
        "el",
        "l"
      ],
      [
        "ab",
        "le"
      ],
      [
        "i",
        "z"
      ],
      [
        ",",
        "@"
      ],
      [
        "@",
        ",@"
      ],
      [
        "re",
        "n"
      ],
      [
        "in",
        "cl"
      ],
      [
        "y",
        "ear"
      ],
      [
        "i",
        "b"
      ],
      [
        "p",
        "re"
      ],
      [
        "sh",
        "ip"
      ],
      [
        "ol",
        "d"
      ],
      [
        "U",
        "n"
      ],
      [
        "ation",
        "s"
      ],
      [
        "w",
        "e"
      ],
      [
        "r",
        "ic"
      ],
      [
        "s",
        "he"
      ],
      [
        "an",
        "g"
      ],
      [
        "m",
        "ain"
      ],
      [
        "c",
        "es"
      ],
      [
        "an",
        "s"
      ],
      [
        "wor",
        "k"
      ],
      [
        "ic",
        "e"
      ],
      [
        "e",
        "ver"
      ],
      [
        "the",
        "y"
      ],
      [
        "ac",
        "e"
      ],
      [
        "c",
        "o"
      ],
      [
        "f",
        "er"
      ],
      [
        "an",
        "ce"
      ],
      [
        "t",
        "y"
      ],
      [
        "tim",
        "e"
      ],
      [
        "ion",
        "s"
      ],
      [
        "w",
        "ay"
      ],
      [
        "ar",
        "ch"
      ],
      [
        "s",
        "pe"
      ],
      [
        "c",
        "ed"
      ],
      [
        "r",
        "u"
      ],
      [
        "i",
        "ed"
      ],
      [
        "n",
        "o"
      ],
      [
        "r",
        "ough"
      ],
      [
        "as",
        "on"
      ],
      [
        "in",
        "ter"
      ],
      [
        "p",
        "h"
      ],
      [
        "it",
        "ed"
      ],
      [
        "mo",
        "st"
      ],
      [
        "a",
        "th"
      ],
      [
        "ve",
        "l"
      ],
      [
        "en",
        "s"
      ],
      [
        "i",
        "ous"
      ],
      [
        "m",
        "on"
      ],
      [
        "t",
        "ed"
      ],
      [
        "w",
        "ould"
      ],
      [
        "in",
        "to"
      ],
      [
        "mo",
        "re"
      ],
      [
        "f",
        "l"
      ],
      [
        "m",
        "er"
      ],
      [
        "r",
        "ed"
      ],
      [
        "as",
        "ed"
      ],
      [
        "ak",
        "e"
      ],
      [
        "c",
        "ess"
      ],
      [
        "f",
        "t"
      ],
      [
        "te",
        "m"
      ],
      [
        "A",
        "r"
      ],
      [
        "ne",
        "w"
      ],
      [
        "il",
        "d"
      ],
      [
        "incl",
        "ud"
      ],
      [
        "b",
        "u"
      ],
      [
        "an",
        "n"
      ],
      [
        "th",
        "ough"
      ],
      [
        "ct",
        "ed"
      ],
      [
        "be",
        "c"
      ],
      [
        "ur",
        "n"
      ],
      [
        "us",
        "ed"
      ],
      [
        "at",
        "es"
      ],
      [
        "t",
        "s"
      ],
      [
        "ing",
        "s"
      ],
      [
        "a",
        "il"
      ],
      [
        "f",
        "in"
      ],
      [
        "u",
        "bl"
      ],
      [
        "s",
        "ong"
      ],
      [
        "con",
        "d"
      ],
      [
        "as",
        "e"
      ],
      [
        "an",
        "y"
      ],
      [
        "s",
        "on"
      ],
      [
        "un",
        "der"
      ],
      [
        "ic",
        "k"
      ],
      [
        "o",
        "b"
      ],
      [
        "i",
        "x"
      ],
      [
        "ver",
        "s"
      ],
      [
        "e",
        "w"
      ],
      [
        "h",
        "im"
      ],
      [
        "f",
        "ore"
      ],
      [
        "oc",
        "k"
      ],
      [
        "l",
        "es"
      ],
      [
        "d",
        "uring"
      ],
      [
        "o",
        "y"
      ],
      [
        "o",
        "od"
      ],
      [
        "re",
        "g"
      ],
      [
        "r",
        "y"
      ],
      [
        "ent",
        "s"
      ],
      [
        "str",
        "u"
      ],
      [
        "or",
        "s"
      ],
      [
        "R",
        "e"
      ],
      [
        "ro",
        "w"
      ],
      [
        "the",
        "m"
      ],
      [
        "am",
        "p"
      ],
      [
        "ul",
        "ar"
      ],
      [
        "on",
        "ly"
      ],
      [
        "b",
        "um"
      ],
      [
        "o",
        "se"
      ],
      [
        "m",
        "in"
      ],
      [
        "r",
        "on"
      ],
      [
        "g",
        "an"
      ],
      [
        "A",
        "l"
      ],
      [
        "c",
        "ol"
      ],
      [
        "g",
        "ame"
      ],
      [
        "re",
        "l"
      ],
      [
        "t",
        "en"
      ],
      [
        "c",
        "an"
      ],
      [
        "w",
        "ard"
      ],
      [
        "ch",
        "ar"
      ],
      [
        "ol",
        "low"
      ],
      [
        "er",
        "n"
      ],
      [
        "19",
        "9"
      ],
      [
        "is",
        "ion"
      ],
      [
        "se",
        "ason"
      ],
      [
        "in",
        "s"
      ],
      [
        "rec",
        "ord"
      ],
      [
        "re",
        "t"
      ],
      [
        "the",
        "n"
      ],
      [
        "W",
        "h"
      ],
      [
        "e",
        "en"
      ],
      [
        "w",
        "rit"
      ],
      [
        "l",
        "ar"
      ],
      [
        "th",
        "ree"
      ],
      [
        "t",
        "on"
      ],
      [
        "wh",
        "en"
      ],
      [
        "n",
        "um"
      ],
      [
        "con",
        "s"
      ],
      [
        "s",
        "ing"
      ],
      [
        "g",
        "en"
      ],
      [
        "C",
        "om"
      ],
      [
        "ab",
        "out"
      ],
      [
        "i",
        "o"
      ],
      [
        "al",
        "bum"
      ],
      [
        "k",
        "n"
      ],
      [
        "m",
        "y"
      ],
      [
        "er",
        "ed"
      ],
      [
        "wh",
        "ile"
      ],
      [
        "d",
        "ay"
      ],
      [
        "f",
        "ul"
      ],
      [
        "ation",
        "al"
      ],
      [
        "E",
        "n"
      ],
      [
        "il",
        "m"
      ],
      [
        "s",
        "ome"
      ],
      [
        "pro",
        "du"
      ],
      [
        "th",
        "rough"
      ],
      [
        "O",
        "n"
      ],
      [
        "ou",
        "th"
      ],
      [
        "c",
        "oun"
      ],
      [
        "am",
        "es"
      ],
      [
        "re",
        "le"
      ],
      [
        "1",
        "0"
      ],
      [
        "A",
        "s"
      ],
      [
        "A",
        "f"
      ],
      [
        "B",
        "rit"
      ],
      [
        "at",
        "ing"
      ],
      [
        "th",
        "an"
      ],
      [
        "D",
        "e"
      ],
      [
        "ie",
        "w"
      ],
      [
        "t",
        "ain"
      ],
      [
        "A",
        "u"
      ],
      [
        "ag",
        "ain"
      ],
      [
        "s",
        "y"
      ],
      [
        "be",
        "tw"
      ],
      [
        "betw",
        "een"
      ],
      [
        "su",
        "b"
      ],
      [
        "ic",
        "t"
      ],
      [
        "m",
        "ade"
      ],
      [
        "s",
        "o"
      ],
      [
        "ur",
        "y"
      ],
      [
        "f",
        "our"
      ],
      [
        "l",
        "ater"
      ],
      [
        "or",
        "th"
      ],
      [
        "il",
        "y"
      ],
      [
        "a",
        "id"
      ],
      [
        "e",
        "le"
      ],
      [
        "wh",
        "ere"
      ],
      [
        "00",
        "0"
      ],
      [
        "g",
        "u"
      ],
      [
        "e",
        "y"
      ],
      [
        "m",
        "ed"
      ],
      [
        "ch",
        "o"
      ],
      [
        "spe",
        "c"
      ],
      [
        "o",
        "ve"
      ],
      [
        "he",
        "l"
      ],
      [
        "se",
        "t"
      ],
      [
        "l",
        "ed"
      ],
      [
        "p",
        "ubl"
      ],
      [
        "se",
        "cond"
      ],
      [
        "1",
        "7"
      ],
      [
        "se",
        "l"
      ],
      [
        "su",
        "ch"
      ],
      [
        "h",
        "igh"
      ],
      [
        "ish",
        "ed"
      ],
      [
        "L",
        "e"
      ],
      [
        "J",
        "o"
      ],
      [
        "it",
        "ies"
      ],
      [
        "l",
        "ine"
      ],
      [
        "us",
        "ic"
      ],
      [
        "f",
        "ollow"
      ],
      [
        "d",
        "o"
      ],
      [
        "ad",
        "d"
      ],
      [
        "u",
        "b"
      ],
      [
        "c",
        "k"
      ],
      [
        "su",
        "p"
      ],
      [
        "is",
        "s"
      ],
      [
        "ic",
        "s"
      ],
      [
        "f",
        "ilm"
      ],
      [
        "i",
        "el"
      ],
      [
        "g",
        "o"
      ],
      [
        "S",
        "h"
      ],
      [
        "c",
        "ap"
      ],
      [
        "j",
        "e"
      ],
      [
        "v",
        "iew"
      ],
      [
        "num",
        "ber"
      ],
      [
        "b",
        "all"
      ],
      [
        "ol",
        "og"
      ],
      [
        "be",
        "ing"
      ],
      [
        "ter",
        "s"
      ],
      [
        "ap",
        "pe"
      ],
      [
        "s",
        "ur"
      ],
      [
        "e",
        "f"
      ],
      [
        "be",
        "fore"
      ],
      [
        "u",
        "al"
      ],
      [
        "a",
        "z"
      ],
      [
        "c",
        "er"
      ],
      [
        "C",
        "on"
      ],
      [
        "ri",
        "b"
      ],
      [
        "ur",
        "ch"
      ],
      [
        "N",
        "ew"
      ],
      [
        "b",
        "r"
      ],
      [
        "l",
        "oc"
      ],
      [
        "ow",
        "ever"
      ],
      [
        "T",
        "his"
      ],
      [
        "bo",
        "th"
      ],
      [
        "ser",
        "ies"
      ],
      [
        "I",
        "I"
      ],
      [
        "w",
        "ell"
      ],
      [
        "at",
        "ive"
      ],
      [
        "is",
        "ed"
      ],
      [
        "in",
        "es"
      ],
      [
        "b",
        "ack"
      ],
      [
        "v",
        "en"
      ],
      [
        "19",
        "4"
      ],
      [
        "1",
        "2"
      ],
      [
        "m",
        "ber"
      ],
      [
        "19",
        "8"
      ],
      [
        "p",
        "ar"
      ],
      [
        "u",
        "se"
      ],
      [
        "man",
        "y"
      ],
      [
        "al",
        "e"
      ],
      [
        "or",
        "n"
      ],
      [
        "ig",
        "in"
      ],
      [
        "H",
        "er"
      ],
      [
        "the",
        "re"
      ],
      [
        "au",
        "se"
      ],
      [
        "p",
        "ed"
      ],
      [
        "ar",
        "ri"
      ],
      [
        "1",
        "5"
      ],
      [
        "year",
        "s"
      ],
      [
        "m",
        "i"
      ],
      [
        "on",
        "d"
      ],
      [
        "kn",
        "own"
      ],
      [
        "op",
        "er"
      ],
      [
        "m",
        "a"
      ],
      [
        "c",
        "all"
      ],
      [
        "if",
        "ic"
      ],
      [
        "char",
        "ac"
      ],
      [
        "f",
        "ound"
      ],
      [
        "in",
        "ce"
      ],
      [
        "st",
        "e"
      ],
      [
        "G",
        "er"
      ],
      [
        "h",
        "ist"
      ],
      [
        "c",
        "ur"
      ],
      [
        "l",
        "ong"
      ],
      [
        "se",
        "ver"
      ],
      [
        "po",
        "int"
      ],
      [
        "re",
        "main"
      ],
      [
        "ce",
        "pt"
      ],
      [
        "appe",
        "ar"
      ],
      [
        "Brit",
        "ish"
      ],
      [
        "e",
        "k"
      ],
      [
        "re",
        "at"
      ],
      [
        "en",
        "g"
      ],
      [
        "S",
        "he"
      ],
      [
        "ment",
        "s"
      ],
      [
        "p",
        "op"
      ],
      [
        "s",
        "ide"
      ],
      [
        "Un",
        "ited"
      ],
      [
        "h",
        "y"
      ],
      [
        "st",
        "ud"
      ],
      [
        "d",
        "r"
      ],
      [
        "d",
        "own"
      ],
      [
        "it",
        "t"
      ],
      [
        "h",
        "n"
      ],
      [
        "mer",
        "ic"
      ],
      [
        "A",
        "meric"
      ],
      [
        "M",
        "ar"
      ],
      [
        "su",
        "c"
      ],
      [
        "A",
        "t"
      ],
      [
        "over",
        "n"
      ],
      [
        "includ",
        "ing"
      ],
      [
        "ou",
        "p"
      ],
      [
        "li",
        "ke"
      ],
      [
        "cent",
        "ury"
      ],
      [
        "d",
        "if"
      ],
      [
        "or",
        "igin"
      ],
      [
        "iv",
        "ed"
      ],
      [
        "m",
        "em"
      ],
      [
        "to",
        "w"
      ],
      [
        "des",
        "c"
      ],
      [
        "iel",
        "d"
      ],
      [
        "fe",
        "at"
      ],
      [
        "vel",
        "op"
      ],
      [
        "bec",
        "ame"
      ],
      [
        "is",
        "e"
      ],
      [
        "w",
        "ar"
      ],
      [
        "ser",
        "v"
      ],
      [
        "cho",
        "ol"
      ],
      [
        "1",
        "6"
      ],
      [
        "o",
        "ot"
      ],
      [
        "de",
        "c"
      ],
      [
        "d",
        "ire"
      ],
      [
        "s",
        "m"
      ],
      [
        "un",
        "t"
      ],
      [
        "u",
        "res"
      ],
      [
        "an",
        "e"
      ],
      [
        "te",
        "am"
      ],
      [
        "ro",
        "s"
      ],
      [
        ".",
        "."
      ],
      [
        "st",
        "on"
      ],
      [
        "on",
        "s"
      ],
      [
        "Jo",
        "hn"
      ],
      [
        "cont",
        "in"
      ],
      [
        "at",
        "ch"
      ],
      [
        "1",
        "3"
      ],
      [
        "pro",
        "v"
      ],
      [
        "g",
        "l"
      ],
      [
        "b",
        "le"
      ],
      [
        "Af",
        "ter"
      ],
      [
        "je",
        "ct"
      ],
      [
        "c",
        "ord"
      ],
      [
        "p",
        "ol"
      ],
      [
        "res",
        "s"
      ],
      [
        "G",
        "u"
      ],
      [
        "sh",
        "ow"
      ],
      [
        "le",
        "ad"
      ],
      [
        "in",
        "n"
      ],
      [
        "suc",
        "cess"
      ],
      [
        "s",
        "ign"
      ],
      [
        "be",
        "l"
      ],
      [
        "again",
        "st"
      ],
      [
        "per",
        "i"
      ],
      [
        "comp",
        "le"
      ],
      [
        "f",
        "am"
      ],
      [
        "m",
        "usic"
      ],
      [
        "h",
        "am"
      ],
      [
        "in",
        "k"
      ],
      [
        "sever",
        "al"
      ],
      [
        "u",
        "ch"
      ],
      [
        "as",
        "h"
      ],
      [
        "iz",
        "ed"
      ],
      [
        "W",
        "ar"
      ],
      [
        "pro",
        "te"
      ],
      [
        "l",
        "ist"
      ],
      [
        "op",
        "en"
      ],
      [
        "ers",
        "on"
      ],
      [
        "c",
        "ould"
      ],
      [
        "an",
        "k"
      ],
      [
        "de",
        "velop"
      ],
      [
        "pres",
        "ent"
      ],
      [
        "c",
        "ity"
      ],
      [
        "c",
        "rit"
      ],
      [
        "m",
        "ill"
      ],
      [
        "be",
        "gan"
      ],
      [
        "S",
        "e"
      ],
      [
        "d",
        "am"
      ],
      [
        "l",
        "if"
      ],
      [
        "p",
        "ass"
      ],
      [
        "ri",
        "st"
      ],
      [
        "ro",
        "ad"
      ],
      [
        "op",
        "le"
      ],
      [
        "m",
        "et"
      ],
      [
        "oc",
        "i"
      ],
      [
        "tr",
        "y"
      ],
      [
        "v",
        "ol"
      ],
      [
        "end",
        "ed"
      ],
      [
        "W",
        "or"
      ],
      [
        "p",
        "or"
      ],
      [
        "M",
        "ay"
      ],
      [
        "o",
        "st"
      ],
      [
        "ak",
        "ing"
      ],
      [
        "c",
        "he"
      ],
      [
        "ow",
        "er"
      ],
      [
        "3",
        "0"
      ],
      [
        "re",
        "ce"
      ],
      [
        "ep",
        "is"
      ],
      [
        "1",
        "4"
      ],
      [
        "c",
        "a"
      ],
      [
        "i",
        "th"
      ],
      [
        "v",
        "al"
      ],
      [
        "id",
        "ent"
      ],
      [
        "a",
        "e"
      ],
      [
        "o",
        "de"
      ],
      [
        "sel",
        "f"
      ],
      [
        "c",
        "over"
      ],
      [
        "m",
        "il"
      ],
      [
        "g",
        "un"
      ],
      [
        "er",
        "al"
      ],
      [
        "le",
        "y"
      ],
      [
        "w",
        "est"
      ],
      [
        "de",
        "p"
      ],
      [
        "F",
        "or"
      ],
      [
        "d",
        "id"
      ],
      [
        "r",
        "un"
      ],
      [
        "he",
        "ad"
      ],
      [
        "tr",
        "ans"
      ],
      [
        "off",
        "ic"
      ],
      [
        "al",
        "ong"
      ],
      [
        "u",
        "ally"
      ],
      [
        "C",
        "ar"
      ],
      [
        "d",
        "ist"
      ],
      [
        "e",
        "ach"
      ],
      [
        "g",
        "est"
      ],
      [
        "s",
        "aid"
      ],
      [
        "de",
        "f"
      ],
      [
        "id",
        "ed"
      ],
      [
        "2",
        "5"
      ],
      [
        "the",
        "se"
      ],
      [
        "ist",
        "s"
      ],
      [
        "pre",
        "v"
      ],
      [
        "C",
        "l"
      ],
      [
        "a",
        "ther"
      ],
      [
        "v",
        "ar"
      ],
      [
        "re",
        "ad"
      ],
      [
        "C",
        "an"
      ],
      [
        "it",
        "ar"
      ],
      [
        "f",
        "ield"
      ],
      [
        "ag",
        "ed"
      ],
      [
        "pl",
        "ac"
      ],
      [
        "ne",
        "ar"
      ],
      [
        "s",
        "ix"
      ],
      [
        "gr",
        "ound"
      ],
      [
        "pos",
        "ition"
      ],
      [
        "B",
        "l"
      ],
      [
        "e",
        "ast"
      ],
      [
        "is",
        "m"
      ],
      [
        "to",
        "p"
      ],
      [
        "ial",
        "ly"
      ],
      [
        "I",
        "s"
      ],
      [
        "es",
        "e"
      ],
      [
        "ou",
        "se"
      ],
      [
        "lar",
        "ge"
      ],
      [
        "sup",
        "port"
      ],
      [
        "s",
        "ame"
      ],
      [
        "des",
        "ign"
      ],
      [
        "c",
        "y"
      ],
      [
        "n",
        "ow"
      ],
      [
        "iv",
        "ision"
      ],
      [
        "rele",
        "ased"
      ],
      [
        "o",
        "v"
      ],
      [
        "ur",
        "al"
      ],
      [
        "desc",
        "rib"
      ],
      [
        "19",
        "7"
      ],
      [
        "bu",
        "ild"
      ],
      [
        "st",
        "ate"
      ],
      [
        "ro",
        "p"
      ],
      [
        "bec",
        "ause"
      ],
      [
        "sm",
        "all"
      ],
      [
        "g",
        "overn"
      ],
      [
        "f",
        "ic"
      ],
      [
        "os",
        "s"
      ],
      [
        "A",
        "c"
      ],
      [
        "le",
        "g"
      ],
      [
        "call",
        "ed"
      ],
      [
        "c",
        "ast"
      ],
      [
        "op",
        "s"
      ],
      [
        "ib",
        "le"
      ],
      [
        "B",
        "e"
      ],
      [
        "a",
        "im"
      ],
      [
        "l",
        "ight"
      ],
      [
        "ther",
        "n"
      ],
      [
        "ear",
        "ly"
      ],
      [
        "G",
        "r"
      ],
      [
        "charac",
        "ter"
      ],
      [
        "c",
        "ar"
      ],
      [
        "f",
        "ive"
      ],
      [
        "n",
        "am"
      ],
      [
        "re",
        "qu"
      ],
      [
        "ar",
        "m"
      ],
      [
        "m",
        "ay"
      ],
      [
        "g",
        "et"
      ],
      [
        "or",
        "m"
      ],
      [
        "d",
        "ra"
      ],
      [
        "pe",
        "ople"
      ],
      [
        "ret",
        "urn"
      ],
      [
        "bo",
        "ok"
      ],
      [
        "H",
        "owever"
      ],
      [
        "v",
        "es"
      ],
      [
        "st",
        "art"
      ],
      [
        "ir",
        "d"
      ],
      [
        "ct",
        "or"
      ],
      [
        "R",
        "o"
      ],
      [
        "t",
        "ri"
      ],
      [
        "all",
        "ow"
      ],
      [
        "com",
        "e"
      ],
      [
        "follow",
        "ing"
      ],
      [
        "C",
        "oun"
      ],
      [
        "g",
        "ust"
      ],
      [
        "ad",
        "v"
      ],
      [
        "f",
        "un"
      ],
      [
        "s",
        "chool"
      ],
      [
        "Ger",
        "man"
      ],
      [
        "cord",
        "ing"
      ],
      [
        "cont",
        "ro"
      ],
      [
        "19",
        "5"
      ],
      [
        "form",
        "ed"
      ],
      [
        "mill",
        "ion"
      ],
      [
        "om",
        "an"
      ],
      [
        "0",
        "s"
      ],
      [
        "ro",
        "te"
      ],
      [
        "unt",
        "il"
      ],
      [
        "l",
        "a"
      ],
      [
        "l",
        "ess"
      ],
      [
        "s",
        "k"
      ],
      [
        "en",
        "n"
      ],
      [
        "ur",
        "ed"
      ],
      [
        "cons",
        "id"
      ],
      [
        "i",
        "am"
      ],
      [
        "i",
        "vers"
      ],
      [
        "re",
        "st"
      ],
      [
        "at",
        "ter"
      ],
      [
        "ros",
        "s"
      ],
      [
        "E",
        "u"
      ],
      [
        "c",
        "r"
      ],
      [
        "or",
        "ed"
      ],
      [
        "ion",
        "al"
      ],
      [
        "il",
        "t"
      ],
      [
        "J",
        "an"
      ],
      [
        "st",
        "em"
      ],
      [
        "ag",
        "ue"
      ],
      [
        "B",
        "o"
      ],
      [
        "s",
        "im"
      ],
      [
        "Americ",
        "an"
      ],
      [
        "O",
        "c"
      ],
      [
        "f",
        "le"
      ],
      [
        "play",
        "ed"
      ],
      [
        "A",
        "ll"
      ],
      [
        "m",
        "ark"
      ],
      [
        "n",
        "ational"
      ],
      [
        "ir",
        "ed"
      ],
      [
        "tow",
        "n"
      ],
      [
        "t",
        "it"
      ],
      [
        "at",
        "s"
      ],
      [
        "ian",
        "s"
      ],
      [
        "pres",
        "s"
      ],
      [
        "epis",
        "ode"
      ],
      [
        "W",
        "est"
      ],
      [
        "st",
        "and"
      ],
      [
        "in",
        "ed"
      ],
      [
        "The",
        "y"
      ],
      [
        "gr",
        "ap"
      ],
      [
        "1",
        "1"
      ],
      [
        "M",
        "an"
      ],
      [
        "un",
        "e"
      ],
      [
        "T",
        "e"
      ],
      [
        "b",
        "ers"
      ],
      [
        "c",
        "are"
      ],
      [
        "j",
        "or"
      ],
      [
        "p",
        "rom"
      ],
      [
        "ar",
        "ound"
      ],
      [
        "im",
        "e"
      ],
      [
        "Ch",
        "rist"
      ],
      [
        "lif",
        "e"
      ],
      [
        "n",
        "ame"
      ],
      [
        "d",
        "om"
      ],
      [
        "fe",
        "ct"
      ],
      [
        "contin",
        "u"
      ],
      [
        "Wor",
        "ld"
      ],
      [
        "on",
        "y"
      ],
      [
        "od",
        "y"
      ],
      [
        "gr",
        "oup"
      ],
      [
        "publ",
        "ic"
      ],
      [
        "c",
        "le"
      ],
      [
        "or",
        "k"
      ],
      [
        "il",
        "ity"
      ],
      [
        "to",
        "ok"
      ],
      [
        "we",
        "ek"
      ],
      [
        "S",
        "ep"
      ],
      [
        "er",
        "y"
      ],
      [
        "P",
        "l"
      ],
      [
        "U",
        "S"
      ],
      [
        "part",
        "ic"
      ],
      [
        "c",
        "ut"
      ],
      [
        "ar",
        "s"
      ],
      [
        "ship",
        "s"
      ],
      [
        "b",
        "re"
      ],
      [
        "m",
        "iss"
      ],
      [
        "str",
        "al"
      ],
      [
        "att",
        "ack"
      ],
      [
        "res",
        "ult"
      ],
      [
        "Can",
        "ad"
      ],
      [
        "t",
        "ing"
      ],
      [
        "ical",
        "ly"
      ],
      [
        "ev",
        "en"
      ],
      [
        "I",
        "re"
      ],
      [
        "is",
        "su"
      ],
      [
        "tem",
        "ber"
      ],
      [
        "Sep",
        "tember"
      ],
      [
        "u",
        "ary"
      ],
      [
        "to",
        "ber"
      ],
      [
        "Oc",
        "tober"
      ],
      [
        "g",
        "ames"
      ],
      [
        "x",
        "t"
      ],
      [
        "ag",
        "es"
      ],
      [
        "ate",
        "ly"
      ],
      [
        "Au",
        "gust"
      ],
      [
        "Ire",
        "land"
      ],
      [
        "in",
        "c"
      ],
      [
        "de",
        "st"
      ],
      [
        "F",
        "ran"
      ],
      [
        "Y",
        "ork"
      ],
      [
        "g",
        "iv"
      ],
      [
        "ro",
        "y"
      ],
      [
        "sing",
        "le"
      ],
      [
        "S",
        "te"
      ],
      [
        "w",
        "ill"
      ],
      [
        "re",
        "port"
      ],
      [
        "ver",
        "y"
      ],
      [
        "rece",
        "ived"
      ],
      [
        "P",
        "ol"
      ],
      [
        "b",
        "att"
      ],
      [
        "an",
        "other"
      ],
      [
        "ex",
        "t"
      ],
      [
        "bu",
        "ilt"
      ],
      [
        "N",
        "orth"
      ],
      [
        "S",
        "c"
      ],
      [
        "v",
        "is"
      ],
      [
        "as",
        "k"
      ],
      [
        "A",
        "d"
      ],
      [
        "K",
        "ing"
      ],
      [
        "O",
        "ld"
      ],
      [
        "g",
        "re"
      ],
      [
        "St",
        "ates"
      ],
      [
        "Au",
        "stral"
      ],
      [
        "J",
        "u"
      ],
      [
        "o",
        "le"
      ],
      [
        "ou",
        "te"
      ],
      [
        "ain",
        "ed"
      ],
      [
        "et",
        "s"
      ],
      [
        "are",
        "a"
      ],
      [
        "p",
        "ri"
      ],
      [
        "en",
        "ces"
      ],
      [
        "ar",
        "n"
      ],
      [
        "ren",
        "ch"
      ],
      [
        "C",
        "ol"
      ],
      [
        "h",
        "um"
      ],
      [
        "t",
        "al"
      ],
      [
        "av",
        "ing"
      ],
      [
        "c",
        "our"
      ],
      [
        "con",
        "stru"
      ],
      [
        "res",
        "p"
      ],
      [
        "g",
        "od"
      ],
      [
        "r",
        "is"
      ],
      [
        "u",
        "te"
      ],
      [
        "st",
        "ory"
      ],
      [
        "pos",
        "s"
      ],
      [
        "201",
        "0"
      ],
      [
        "F",
        "e"
      ],
      [
        "j",
        "ust"
      ],
      [
        "S",
        "outh"
      ],
      [
        "n",
        "orth"
      ],
      [
        "s",
        "ince"
      ],
      [
        "19",
        "3"
      ],
      [
        "ard",
        "s"
      ],
      [
        "p",
        "ower"
      ],
      [
        "cl",
        "ass"
      ],
      [
        "b",
        "and"
      ],
      [
        "g",
        "y"
      ],
      [
        "pl",
        "ace"
      ],
      [
        "19",
        "6"
      ],
      [
        "origin",
        "al"
      ],
      [
        "cl",
        "ub"
      ],
      [
        "Eu",
        "ro"
      ],
      [
        "m",
        "en"
      ],
      [
        "s",
        "ent"
      ],
      [
        "or",
        "gan"
      ],
      [
        "In",
        "d"
      ],
      [
        "describ",
        "ed"
      ],
      [
        "Jan",
        "uary"
      ],
      [
        "a",
        "h"
      ],
      [
        "in",
        "cre"
      ],
      [
        "includ",
        "ed"
      ],
      [
        "p",
        "erson"
      ],
      [
        "r",
        "ight"
      ],
      [
        "re",
        "ach"
      ],
      [
        "ord",
        "er"
      ],
      [
        "row",
        "n"
      ],
      [
        "ward",
        "s"
      ],
      [
        "D",
        "uring"
      ],
      [
        "wor",
        "ld"
      ],
      [
        "l",
        "ast"
      ],
      [
        "c",
        "ra"
      ],
      [
        "p",
        "le"
      ],
      [
        "fam",
        "ily"
      ],
      [
        "J",
        "une"
      ],
      [
        "f",
        "ur"
      ],
      [
        "ide",
        "o"
      ],
      [
        "nam",
        "ed"
      ],
      [
        "F",
        "rench"
      ],
      [
        "prev",
        "ious"
      ],
      [
        "ent",
        "ly"
      ],
      [
        "wh",
        "at"
      ],
      [
        "ri",
        "end"
      ],
      [
        "pe",
        "ct"
      ],
      [
        "M",
        "e"
      ],
      [
        "h",
        "al"
      ],
      [
        "r",
        "al"
      ],
      [
        "y",
        "s"
      ],
      [
        "al",
        "though"
      ],
      [
        "k",
        "m"
      ],
      [
        "s",
        "outh"
      ],
      [
        "An",
        "d"
      ],
      [
        "Euro",
        "pe"
      ],
      [
        "dif",
        "fer"
      ],
      [
        "ex",
        "pl"
      ],
      [
        "govern",
        "ment"
      ],
      [
        "re",
        "view"
      ],
      [
        "se",
        "qu"
      ],
      [
        "mo",
        "ved"
      ],
      [
        "sh",
        "ort"
      ],
      [
        "b",
        "ar"
      ],
      [
        "cl",
        "aim"
      ],
      [
        "J",
        "ack"
      ],
      [
        "N",
        "ove"
      ],
      [
        "O",
        "r"
      ],
      [
        "i",
        "um"
      ],
      [
        "ch",
        "ild"
      ],
      [
        "h",
        "and"
      ],
      [
        "u",
        "de"
      ],
      [
        "m",
        "uch"
      ],
      [
        "it",
        "ary"
      ],
      [
        "Th",
        "ere"
      ],
      [
        "comm",
        "and"
      ],
      [
        "ap",
        "p"
      ],
      [
        "hist",
        "ory"
      ],
      [
        "Nove",
        "mber"
      ],
      [
        "b",
        "ased"
      ],
      [
        "ma",
        "jor"
      ],
      [
        "P",
        "r"
      ],
      [
        "le",
        "ft"
      ],
      [
        "if",
        "ied"
      ],
      [
        "b",
        "ro"
      ],
      [
        "l",
        "ate"
      ],
      [
        "with",
        "in"
      ],
      [
        "200",
        "9"
      ],
      [
        "add",
        "ition"
      ],
      [
        "w",
        "rote"
      ],
      [
        "st",
        "y"
      ],
      [
        "du",
        "e"
      ],
      [
        "c",
        "amp"
      ],
      [
        "d",
        "en"
      ],
      [
        "av",
        "y"
      ],
      [
        "tem",
        "pt"
      ],
      [
        "cra",
        "ft"
      ],
      [
        "N",
        "or"
      ],
      [
        "P",
        "ar"
      ],
      [
        "f",
        "oot"
      ],
      [
        "i",
        "er"
      ],
      [
        "l",
        "s"
      ],
      [
        "for",
        "t"
      ],
      [
        "G",
        "e"
      ],
      [
        "P",
        "e"
      ],
      [
        "m",
        "ar"
      ],
      [
        "ord",
        "an"
      ],
      [
        "M",
        "on"
      ],
      [
        "i",
        "ent"
      ],
      [
        "ap",
        "pro"
      ],
      [
        "A",
        "pr"
      ],
      [
        "Apr",
        "il"
      ],
      [
        "v",
        "ing"
      ],
      [
        "be",
        "st"
      ],
      [
        "id",
        "es"
      ],
      [
        "el",
        "t"
      ],
      [
        "us",
        "ing"
      ],
      [
        "bel",
        "ie"
      ],
      [
        "B",
        "r"
      ],
      [
        "J",
        "ordan"
      ],
      [
        "et",
        "y"
      ],
      [
        "De",
        "ce"
      ],
      [
        "loc",
        "al"
      ],
      [
        "Dece",
        "mber"
      ],
      [
        "S",
        "p"
      ],
      [
        "ch",
        "urch"
      ],
      [
        "N",
        "o"
      ],
      [
        "dra",
        "w"
      ],
      [
        "Te",
        "ch"
      ],
      [
        "R",
        "oman"
      ],
      [
        "a",
        "x"
      ],
      [
        "g",
        "in"
      ],
      [
        "w",
        "on"
      ],
      [
        "in",
        "it"
      ],
      [
        "at",
        "tempt"
      ],
      [
        "il",
        "ar"
      ],
      [
        "f",
        "r"
      ],
      [
        "le",
        "t"
      ],
      [
        "ant",
        "s"
      ],
      [
        "fin",
        "al"
      ],
      [
        "B",
        "y"
      ],
      [
        "r",
        "ound"
      ],
      [
        "s",
        "ite"
      ],
      [
        "sy",
        "stem"
      ],
      [
        "2",
        "4"
      ],
      [
        "ul",
        "ation"
      ],
      [
        "Com",
        "m"
      ],
      [
        "peri",
        "od"
      ],
      [
        "th",
        "ose"
      ],
      [
        "ber",
        "t"
      ],
      [
        "Her",
        "o"
      ],
      [
        "al",
        "es"
      ],
      [
        "it",
        "al"
      ],
      [
        "f",
        "act"
      ],
      [
        "m",
        "ake"
      ],
      [
        "2",
        "6"
      ],
      [
        "T",
        "own"
      ],
      [
        "n",
        "ess"
      ],
      [
        "th",
        "or"
      ],
      [
        "at",
        "ure"
      ],
      [
        "P",
        "ro"
      ],
      [
        "S",
        "u"
      ],
      [
        "j",
        "o"
      ],
      [
        "t",
        "urn"
      ],
      [
        "en",
        "se"
      ],
      [
        "it",
        "er"
      ],
      [
        "5",
        "0"
      ],
      [
        "m",
        "p"
      ],
      [
        "t",
        "ar"
      ],
      [
        "v",
        "ision"
      ],
      [
        "ch",
        "an"
      ],
      [
        "W",
        "e"
      ],
      [
        "tr",
        "ack"
      ],
      [
        "spec",
        "ies"
      ],
      [
        "Ju",
        "ly"
      ],
      [
        "for",
        "man"
      ],
      [
        "t",
        "ak"
      ],
      [
        "st",
        "ill"
      ],
      [
        "em",
        "ent"
      ],
      [
        "stru",
        "ct"
      ],
      [
        "f",
        "ire"
      ],
      [
        "ist",
        "er"
      ],
      [
        "qu",
        "e"
      ],
      [
        "ae",
        "olog"
      ],
      [
        "h",
        "ome"
      ],
      [
        "st",
        "it"
      ],
      [
        "record",
        "ed"
      ],
      [
        "P",
        "al"
      ],
      [
        "ab",
        "l"
      ],
      [
        "ev",
        "ent"
      ],
      [
        "st",
        "er"
      ],
      [
        "f",
        "ac"
      ],
      [
        "consid",
        "ered"
      ],
      [
        "m",
        "s"
      ],
      [
        "col",
        "le"
      ],
      [
        "k",
        "ing"
      ],
      [
        "in",
        "a"
      ],
      [
        "fl",
        "u"
      ],
      [
        "P",
        "ark"
      ],
      [
        "s",
        "l"
      ],
      [
        "in",
        "o"
      ],
      [
        "ens",
        "ive"
      ],
      [
        "2",
        "3"
      ],
      [
        "2",
        "1"
      ],
      [
        "th",
        "ing"
      ],
      [
        "N",
        "ational"
      ],
      [
        "or",
        "ies"
      ],
      [
        "su",
        "g"
      ],
      [
        "iv",
        "es"
      ],
      [
        "care",
        "er"
      ],
      [
        "hal",
        "f"
      ],
      [
        "M",
        "arch"
      ],
      [
        "p",
        "ut"
      ],
      [
        "g",
        "ed"
      ],
      [
        "i",
        "ver"
      ],
      [
        "re",
        "al"
      ],
      [
        "ain",
        "ing"
      ],
      [
        "play",
        "er"
      ],
      [
        "ivers",
        "ity"
      ],
      [
        "plac",
        "ed"
      ],
      [
        "c",
        "as"
      ],
      [
        "ri",
        "but"
      ],
      [
        "ain",
        "s"
      ],
      [
        "pr",
        "of"
      ],
      [
        "S",
        "A"
      ],
      [
        "of",
        "ten"
      ],
      [
        "ill",
        "a"
      ],
      [
        "St",
        "ate"
      ],
      [
        "l",
        "im"
      ],
      [
        "s",
        "ay"
      ],
      [
        "v",
        "ideo"
      ],
      [
        "he",
        "el"
      ],
      [
        "200",
        "7"
      ],
      [
        "200",
        "8"
      ],
      [
        "publ",
        "ished"
      ],
      [
        "Old",
        "ham"
      ],
      [
        "fur",
        "ther"
      ],
      [
        "E",
        "ar"
      ],
      [
        "G",
        "en"
      ],
      [
        "m",
        "ag"
      ],
      [
        "am",
        "ong"
      ],
      [
        "de",
        "ath"
      ],
      [
        "form",
        "er"
      ],
      [
        "h",
        "ouse"
      ],
      [
        "s",
        "old"
      ],
      [
        "ro",
        "le"
      ],
      [
        "us",
        "s"
      ],
      [
        "2",
        "8"
      ],
      [
        "c",
        "ame"
      ],
      [
        "th",
        "ird"
      ],
      [
        "per",
        "forman"
      ],
      [
        "qu",
        "ar"
      ],
      [
        "Wh",
        "en"
      ],
      [
        "itt",
        "le"
      ],
      [
        "..",
        "."
      ],
      [
        "N",
        "e"
      ],
      [
        "h",
        "ow"
      ],
      [
        "T",
        "w"
      ],
      [
        "W",
        "ith"
      ],
      [
        "s",
        "ol"
      ],
      [
        "w",
        "ater"
      ],
      [
        "un",
        "d"
      ],
      [
        "mon",
        "th"
      ],
      [
        "1",
        "00"
      ],
      [
        "v",
        "i"
      ],
      [
        "w",
        "ind"
      ],
      [
        "for",
        "d"
      ],
      [
        "comm",
        "un"
      ],
      [
        "song",
        "s"
      ],
      [
        "continu",
        "ed"
      ],
      [
        "E",
        "x"
      ],
      [
        "a",
        "ur"
      ],
      [
        "m",
        "atch"
      ],
      [
        "ri",
        "pt"
      ],
      [
        "act",
        "ion"
      ],
      [
        "Gu",
        "itar"
      ],
      [
        "Ac",
        "cording"
      ],
      [
        "sug",
        "gest"
      ],
      [
        "H",
        "is"
      ],
      [
        "p",
        "ite"
      ],
      [
        "am",
        "ent"
      ],
      [
        "us",
        "h"
      ],
      [
        "c",
        "ult"
      ],
      [
        "n",
        "a"
      ],
      [
        "an",
        "c"
      ],
      [
        "201",
        "1"
      ],
      [
        "m",
        "id"
      ],
      [
        "v",
        "ent"
      ],
      [
        "w",
        "ood"
      ],
      [
        "st",
        "ar"
      ],
      [
        "gl",
        "ish"
      ],
      [
        "d",
        "iv"
      ],
      [
        "im",
        "port"
      ],
      [
        "est",
        "abl"
      ],
      [
        "W",
        "ill"
      ],
      [
        "aw",
        "ay"
      ],
      [
        "G",
        "al"
      ],
      [
        "T",
        "r"
      ],
      [
        "oun",
        "g"
      ],
      [
        "vers",
        "ion"
      ],
      [
        "success",
        "ful"
      ],
      [
        "sim",
        "ilar"
      ],
      [
        "A",
        "ir"
      ],
      [
        "D",
        "ivision"
      ],
      [
        "mo",
        "ve"
      ],
      [
        "ast",
        "er"
      ],
      [
        "rele",
        "ase"
      ],
      [
        "dest",
        "roy"
      ],
      [
        "A",
        "ct"
      ],
      [
        "a",
        "it"
      ],
      [
        "k",
        "ill"
      ],
      [
        "pol",
        "it"
      ],
      [
        "ch",
        "ed"
      ],
      [
        "En",
        "glish"
      ],
      [
        "mil",
        "itary"
      ],
      [
        "tit",
        "le"
      ],
      [
        "ch",
        "ang"
      ],
      [
        "pos",
        "ed"
      ],
      [
        "se",
        "ven"
      ],
      [
        "om",
        "in"
      ],
      [
        "Ch",
        "urch"
      ],
      [
        "gen",
        "er"
      ],
      [
        "partic",
        "ular"
      ],
      [
        "h",
        "old"
      ],
      [
        "m",
        "ix"
      ],
      [
        "ic",
        "es"
      ],
      [
        "le",
        "vel"
      ],
      [
        "writ",
        "ten"
      ],
      [
        "build",
        "ing"
      ],
      [
        "differ",
        "ent"
      ],
      [
        "l",
        "ing"
      ],
      [
        "con",
        "tr"
      ],
      [
        "ef",
        "fect"
      ],
      [
        "ar",
        "ed"
      ],
      [
        "pl",
        "an"
      ],
      [
        "produ",
        "ction"
      ],
      [
        "f",
        "all"
      ],
      [
        "f",
        "ree"
      ],
      [
        "he",
        "ld"
      ],
      [
        "Al",
        "though"
      ],
      [
        "M",
        "c"
      ],
      [
        "W",
        "heel"
      ],
      [
        "f",
        "lo"
      ],
      [
        "st",
        "ant"
      ],
      [
        "Ch",
        "ar"
      ],
      [
        "200",
        "6"
      ],
      [
        "bo",
        "ard"
      ],
      [
        "ste",
        "ad"
      ],
      [
        "inn",
        "ing"
      ],
      [
        "s",
        "ou"
      ],
      [
        "the",
        "dr"
      ],
      [
        "with",
        "out"
      ],
      [
        "En",
        "g"
      ],
      [
        "Bl",
        "ack"
      ],
      [
        "f",
        "f"
      ],
      [
        "im",
        "ent"
      ],
      [
        "au",
        "thor"
      ],
      [
        "n",
        "ight"
      ],
      [
        "t",
        "ake"
      ],
      [
        "re",
        "fer"
      ],
      [
        "um",
        "ent"
      ],
      [
        "C",
        "ity"
      ],
      [
        "f",
        "riend"
      ],
      [
        "re",
        "f"
      ],
      [
        "Wh",
        "ite"
      ],
      [
        "mem",
        "bers"
      ],
      [
        "2",
        "7"
      ],
      [
        "B",
        "ra"
      ],
      [
        "l",
        "aw"
      ],
      [
        "in",
        "vol"
      ],
      [
        "str",
        "ong"
      ],
      [
        "fe",
        "w"
      ],
      [
        "po",
        "em"
      ],
      [
        "hist",
        "or"
      ],
      [
        "Coun",
        "ty"
      ],
      [
        "D",
        "es"
      ],
      [
        "h",
        "owever"
      ],
      [
        "s",
        "it"
      ],
      [
        "po",
        "st"
      ],
      [
        "Wheel",
        "er"
      ],
      [
        "e",
        "qu"
      ],
      [
        "om",
        "er"
      ],
      [
        "wi",
        "de"
      ],
      [
        "au",
        "gh"
      ],
      [
        "O",
        "ne"
      ],
      [
        "R",
        "ac"
      ],
      [
        "st",
        "ated"
      ],
      [
        "te",
        "le"
      ],
      [
        "tr",
        "ad"
      ],
      [
        "b",
        "or"
      ],
      [
        "for",
        "ces"
      ],
      [
        "ive",
        "ly"
      ],
      [
        "L",
        "ove"
      ],
      [
        "i",
        "ence"
      ],
      [
        "r",
        "ap"
      ],
      [
        "ne",
        "xt"
      ],
      [
        "sty",
        "le"
      ],
      [
        "S",
        "er"
      ],
      [
        "a",
        "i"
      ],
      [
        "b",
        "ru"
      ],
      [
        "s",
        "oci"
      ],
      [
        "at",
        "or"
      ],
      [
        "pro",
        "ject"
      ],
      [
        "coun",
        "try"
      ],
      [
        "Le",
        "ague"
      ],
      [
        "thedr",
        "al"
      ],
      [
        "P",
        "h"
      ],
      [
        "ch",
        "art"
      ],
      [
        "be",
        "come"
      ],
      [
        "for",
        "ce"
      ],
      [
        "end",
        "ing"
      ],
      [
        "ser",
        "ved"
      ],
      [
        "tim",
        "es"
      ],
      [
        "dire",
        "ct"
      ],
      [
        "constru",
        "ction"
      ],
      [
        "C",
        "ent"
      ],
      [
        "im",
        "es"
      ],
      [
        "produ",
        "ced"
      ],
      [
        "pop",
        "ular"
      ],
      [
        "4",
        "0"
      ],
      [
        "R",
        "oy"
      ],
      [
        "op",
        "e"
      ],
      [
        "ain",
        "t"
      ],
      [
        "ut",
        "ion"
      ],
      [
        "cl",
        "ose"
      ],
      [
        "ond",
        "on"
      ],
      [
        "c",
        "or"
      ],
      [
        "d",
        "i"
      ],
      [
        "g",
        "ave"
      ],
      [
        "re",
        "present"
      ],
      [
        "se",
        "en"
      ],
      [
        "ag",
        "re"
      ],
      [
        "id",
        "ge"
      ],
      [
        "ul",
        "l"
      ],
      [
        "b",
        "as"
      ],
      [
        "h",
        "aving"
      ],
      [
        "i",
        "or"
      ],
      [
        "y",
        "ou"
      ],
      [
        "dis",
        "c"
      ],
      [
        "giv",
        "en"
      ],
      [
        "J",
        "ames"
      ],
      [
        "L",
        "ondon"
      ],
      [
        "b",
        "ody"
      ],
      [
        "w",
        "all"
      ],
      [
        "201",
        "3"
      ],
      [
        "w",
        "in"
      ],
      [
        "ot",
        "s"
      ],
      [
        "ant",
        "ed"
      ],
      [
        "develop",
        "ed"
      ],
      [
        "2",
        "2"
      ],
      [
        "h",
        "ip"
      ],
      [
        "y",
        "n"
      ],
      [
        "um",
        "p"
      ],
      [
        "ab",
        "ly"
      ],
      [
        "iz",
        "e"
      ],
      [
        "Un",
        "iversity"
      ],
      [
        "crit",
        "ic"
      ],
      [
        "Rac",
        "hel"
      ],
      [
        "u",
        "c"
      ],
      [
        "te",
        "en"
      ],
      [
        "te",
        "st"
      ],
      [
        "mo",
        "ther"
      ],
      [
        "way",
        "s"
      ],
      [
        "se",
        "arch"
      ],
      [
        "per",
        "formed"
      ],
      [
        "ever",
        "y"
      ],
      [
        "through",
        "out"
      ],
      [
        "Af",
        "ric"
      ],
      [
        "hum",
        "an"
      ],
      [
        "H",
        "ar"
      ],
      [
        "T",
        "o"
      ],
      [
        "g",
        "er"
      ],
      [
        "i",
        "ther"
      ],
      [
        "in",
        "flu"
      ],
      [
        "incl",
        "ude"
      ],
      [
        "R",
        "ock"
      ],
      [
        "f",
        "ron"
      ],
      [
        "g",
        "es"
      ],
      [
        "i",
        "k"
      ],
      [
        "at",
        "ic"
      ],
      [
        "st",
        "ri"
      ],
      [
        "de",
        "cl"
      ],
      [
        "ap",
        "an"
      ],
      [
        "su",
        "re"
      ],
      [
        "gun",
        "s"
      ],
      [
        "B",
        "C"
      ],
      [
        "d",
        "a"
      ],
      [
        "u",
        "es"
      ],
      [
        "ce",
        "ll"
      ],
      [
        "lo",
        "ok"
      ],
      [
        "day",
        "s"
      ],
      [
        "os",
        "ed"
      ],
      [
        "cept",
        "ion"
      ],
      [
        "Fe",
        "bru"
      ],
      [
        "Gal",
        "ve"
      ],
      [
        "Febru",
        "ary"
      ],
      [
        "2",
        "9"
      ],
      [
        "f",
        "elt"
      ],
      [
        "al",
        "k"
      ],
      [
        "ab",
        "or"
      ],
      [
        "ty",
        "p"
      ],
      [
        "I",
        "r"
      ],
      [
        "n",
        "ing"
      ],
      [
        "v",
        "o"
      ],
      [
        "in",
        "du"
      ],
      [
        "at",
        "ops"
      ],
      [
        "en",
        "ed"
      ],
      [
        "st",
        "orm"
      ],
      [
        "qu",
        "ad"
      ],
      [
        "int",
        "ro"
      ],
      [
        "Eng",
        "land"
      ],
      [
        "cap",
        "t"
      ],
      [
        "Galve",
        "ston"
      ],
      [
        "J",
        "apan"
      ],
      [
        "P",
        "ort"
      ],
      [
        "i",
        "ke"
      ],
      [
        "m",
        "aking"
      ],
      [
        "is",
        "land"
      ],
      [
        "arch",
        "aeolog"
      ],
      [
        "E",
        "ast"
      ],
      [
        "H",
        "ist"
      ],
      [
        "b",
        "us"
      ],
      [
        "f",
        "ind"
      ],
      [
        "p",
        "ur"
      ],
      [
        "z",
        "y"
      ],
      [
        "re",
        "w"
      ],
      [
        "be",
        "h"
      ],
      [
        "om",
        "et"
      ],
      [
        "gr",
        "am"
      ],
      [
        "pop",
        "ulation"
      ],
      [
        "return",
        "ed"
      ],
      [
        "C",
        "or"
      ],
      [
        "E",
        "d"
      ],
      [
        "M",
        "usic"
      ],
      [
        "to",
        "tal"
      ],
      [
        "mo",
        "der"
      ],
      [
        "iv",
        "il"
      ],
      [
        "Gen",
        "eral"
      ],
      [
        "i",
        "ers"
      ],
      [
        "to",
        "o"
      ],
      [
        "id",
        "ence"
      ],
      [
        "sh",
        "ould"
      ],
      [
        "not",
        "ed"
      ],
      [
        "act",
        "iv"
      ],
      [
        "Th",
        "ese"
      ],
      [
        "cle",
        "ar"
      ],
      [
        "M",
        "a"
      ],
      [
        "f",
        "ace"
      ],
      [
        "f",
        "ather"
      ],
      [
        "l",
        "ay"
      ],
      [
        "n",
        "or"
      ],
      [
        "w",
        "ent"
      ],
      [
        "com",
        "b"
      ],
      [
        "iv",
        "ing"
      ],
      [
        "ak",
        "es"
      ],
      [
        "ear",
        "li"
      ],
      [
        "play",
        "ers"
      ],
      [
        "comp",
        "any"
      ],
      [
        "report",
        "ed"
      ],
      [
        "t",
        "ro"
      ],
      [
        "w",
        "ord"
      ],
      [
        "er",
        "c"
      ],
      [
        "er",
        "ing"
      ],
      [
        "ra",
        "ised"
      ],
      [
        "g",
        "ood"
      ],
      [
        "h",
        "our"
      ],
      [
        "r",
        "ad"
      ],
      [
        "to",
        "m"
      ],
      [
        "ro",
        "ck"
      ],
      [
        "ran",
        "ge"
      ],
      [
        "cre",
        "ated"
      ],
      [
        "ric",
        "k"
      ],
      [
        "fic",
        "ult"
      ],
      [
        "l",
        "ines"
      ],
      [
        "y",
        "ard"
      ],
      [
        "ch",
        "n"
      ],
      [
        "pl",
        "oy"
      ],
      [
        "ne",
        "ver"
      ],
      [
        "ction",
        "s"
      ],
      [
        "god",
        "s"
      ],
      [
        "child",
        "ren"
      ],
      [
        "man",
        "ag"
      ],
      [
        "ste",
        "in"
      ],
      [
        "dif",
        "ficult"
      ],
      [
        "var",
        "ious"
      ],
      [
        "grap",
        "h"
      ],
      [
        "f",
        "an"
      ],
      [
        "In",
        "ter"
      ],
      [
        "ne",
        "ed"
      ],
      [
        "av",
        "en"
      ],
      [
        "ubl",
        "ic"
      ],
      [
        "writ",
        "ing"
      ],
      [
        "reach",
        "ed"
      ],
      [
        "B",
        "ar"
      ],
      [
        "e",
        "ight"
      ],
      [
        "s",
        "end"
      ],
      [
        "ur",
        "ric"
      ],
      [
        "ition",
        "s"
      ],
      [
        "remain",
        "ed"
      ],
      [
        "Roy",
        "al"
      ],
      [
        "is",
        "ing"
      ],
      [
        "Re",
        "g"
      ],
      [
        "sign",
        "ific"
      ],
      [
        "tak",
        "en"
      ],
      [
        "C",
        "o"
      ],
      [
        "a",
        "el"
      ],
      [
        "f",
        "ig"
      ],
      [
        "ap",
        "point"
      ],
      [
        "Ir",
        "ish"
      ],
      [
        "intro",
        "du"
      ],
      [
        "Y",
        "ou"
      ],
      [
        "b",
        "ur"
      ],
      [
        "r",
        "oute"
      ],
      [
        "en",
        "e"
      ],
      [
        "is",
        "on"
      ],
      [
        "su",
        "f"
      ],
      [
        "air",
        "craft"
      ],
      [
        "ful",
        "l"
      ],
      [
        "B",
        "ill"
      ],
      [
        "f",
        "em"
      ],
      [
        "an",
        "ces"
      ],
      [
        "st",
        "at"
      ],
      [
        "ion",
        "ed"
      ],
      [
        "him",
        "self"
      ],
      [
        "6",
        "0"
      ],
      [
        "H",
        "igh"
      ],
      [
        "al",
        "y"
      ],
      [
        "ke",
        "y"
      ],
      [
        "Wh",
        "ile"
      ],
      [
        "M",
        "ich"
      ],
      [
        "N",
        "ic"
      ],
      [
        "g",
        "reat"
      ],
      [
        "n",
        "er"
      ],
      [
        "p",
        "air"
      ],
      [
        "in",
        "ess"
      ],
      [
        "on",
        "es"
      ],
      [
        "te",
        "chn"
      ],
      [
        "19",
        "0"
      ],
      [
        "ard",
        "ed"
      ],
      [
        "Ar",
        "my"
      ],
      [
        "ann",
        "oun"
      ],
      [
        "foot",
        "ball"
      ],
      [
        "Ge",
        "or"
      ],
      [
        "A",
        "m"
      ],
      [
        "P",
        "a"
      ],
      [
        "R",
        "oss"
      ],
      [
        "ch",
        "ap"
      ],
      [
        "ent",
        "ire"
      ],
      [
        "ie",
        "f"
      ],
      [
        "av",
        "es"
      ],
      [
        "ge",
        "ther"
      ],
      [
        "fle",
        "et"
      ],
      [
        "batt",
        "le"
      ],
      [
        "Su",
        "per"
      ],
      [
        "n",
        "al"
      ],
      [
        "om",
        "en"
      ],
      [
        "ex",
        "p"
      ],
      [
        "reg",
        "ular"
      ],
      [
        "stud",
        "y"
      ],
      [
        "miss",
        "ion"
      ],
      [
        "tele",
        "vision"
      ],
      [
        "C",
        "are"
      ],
      [
        "P",
        "o"
      ],
      [
        "a",
        "ver"
      ],
      [
        "c",
        "up"
      ],
      [
        "m",
        "arri"
      ],
      [
        "iv",
        "al"
      ],
      [
        "inter",
        "est"
      ],
      [
        "Will",
        "iam"
      ],
      [
        "c",
        "il"
      ],
      [
        "m",
        "m"
      ],
      [
        "s",
        "um"
      ],
      [
        "to",
        "ur"
      ],
      [
        "ab",
        "ility"
      ],
      [
        "issu",
        "e"
      ],
      [
        "Comm",
        "and"
      ],
      [
        "M",
        "ag"
      ],
      [
        "a",
        "ud"
      ],
      [
        "v",
        "oc"
      ],
      [
        "it",
        "ted"
      ],
      [
        "prof",
        "ess"
      ],
      [
        "M",
        "ary"
      ],
      [
        "c",
        "ir"
      ],
      [
        "c",
        "ru"
      ],
      [
        "n",
        "is"
      ],
      [
        "se",
        "x"
      ],
      [
        "lo",
        "st"
      ],
      [
        "201",
        "2"
      ],
      [
        "ann",
        "a"
      ],
      [
        "hel",
        "p"
      ],
      [
        "comple",
        "ted"
      ],
      [
        "Austral",
        "ia"
      ],
      [
        "import",
        "ant"
      ],
      [
        "st",
        "one"
      ],
      [
        "al",
        "ter"
      ],
      [
        "af",
        "f"
      ],
      [
        "pr",
        "im"
      ],
      [
        "rel",
        "ation"
      ],
      [
        "add",
        "ed"
      ],
      [
        "mi",
        "um"
      ],
      [
        "cover",
        "ed"
      ],
      [
        "fron",
        "t"
      ],
      [
        "f",
        "ail"
      ],
      [
        "be",
        "t"
      ],
      [
        "18",
        "9"
      ],
      [
        "ren",
        "t"
      ],
      [
        "charac",
        "ters"
      ],
      [
        "dep",
        "end"
      ],
      [
        "start",
        "ed"
      ],
      [
        "contro",
        "l"
      ],
      [
        "performan",
        "ce"
      ],
      [
        "V",
        "ir"
      ],
      [
        "V",
        "illa"
      ],
      [
        "d",
        "ou"
      ],
      [
        "in",
        "ation"
      ],
      [
        "tr",
        "ave"
      ],
      [
        "ant",
        "ic"
      ],
      [
        "port",
        "s"
      ],
      [
        "form",
        "ation"
      ],
      [
        "Canad",
        "ian"
      ],
      [
        "E",
        "gy"
      ],
      [
        "x",
        "im"
      ],
      [
        "al",
        "th"
      ],
      [
        "se",
        "e"
      ],
      [
        "ac",
        "y"
      ],
      [
        "de",
        "but"
      ],
      [
        "ass",
        "oci"
      ],
      [
        "fe",
        "et"
      ],
      [
        "other",
        "s"
      ],
      [
        "comp",
        "et"
      ],
      [
        "spec",
        "ial"
      ],
      [
        "King",
        "dom"
      ],
      [
        "F",
        "ir"
      ],
      [
        "y",
        "oung"
      ],
      [
        "ad",
        "mium"
      ],
      [
        "wh",
        "ite"
      ],
      [
        "con",
        "om"
      ],
      [
        "cre",
        "w"
      ],
      [
        "no",
        "vel"
      ],
      [
        "cer",
        "t"
      ],
      [
        "u",
        "k"
      ],
      [
        "ter",
        "min"
      ],
      [
        "ll",
        "ing"
      ],
      [
        "though",
        "t"
      ],
      [
        "appear",
        "ed"
      ],
      [
        "var",
        "i"
      ],
      [
        "Z",
        "h"
      ],
      [
        "f",
        "ight"
      ],
      [
        "l",
        "er"
      ],
      [
        "p",
        "ie"
      ],
      [
        "ran",
        "g"
      ],
      [
        "Com",
        "p"
      ],
      [
        "ey",
        "er"
      ],
      [
        "sur",
        "v"
      ],
      [
        "develop",
        "ment"
      ],
      [
        "Pol",
        "ish"
      ],
      [
        "m",
        "oun"
      ],
      [
        "en",
        "ced"
      ],
      [
        "ro",
        "om"
      ],
      [
        "com",
        "ing"
      ],
      [
        "ca",
        "thedral"
      ],
      [
        "C",
        "ap"
      ],
      [
        "a",
        "ult"
      ],
      [
        "le",
        "ast"
      ],
      [
        "os",
        "p"
      ],
      [
        "play",
        "ing"
      ],
      [
        "Canad",
        "a"
      ],
      [
        "be",
        "g"
      ],
      [
        "dam",
        "age"
      ],
      [
        "chan",
        "ge"
      ],
      [
        "Egy",
        "pt"
      ],
      [
        "S",
        "an"
      ],
      [
        "a",
        "then"
      ],
      [
        "d",
        "ied"
      ],
      [
        "ar",
        "i"
      ],
      [
        "ish",
        "ing"
      ],
      [
        "sc",
        "ored"
      ],
      [
        "Ro",
        "bert"
      ],
      [
        "Bra",
        "athen"
      ],
      [
        "Fir",
        "st"
      ],
      [
        "M",
        "eyer"
      ],
      [
        "c",
        "op"
      ],
      [
        "t",
        "ail"
      ],
      [
        "re",
        "am"
      ],
      [
        "om",
        "b"
      ],
      [
        "ist",
        "ed"
      ],
      [
        "ex",
        "peri"
      ],
      [
        "200",
        "5"
      ],
      [
        "writ",
        "er"
      ],
      [
        "Brit",
        "ain"
      ],
      [
        "med",
        "i"
      ],
      [
        "dam",
        "aged"
      ],
      [
        "M",
        "L"
      ],
      [
        "b",
        "ase"
      ],
      [
        "d",
        "ri"
      ],
      [
        "g",
        "old"
      ],
      [
        "l",
        "ive"
      ],
      [
        "s",
        "ound"
      ],
      [
        "v",
        "an"
      ],
      [
        "in",
        "v"
      ],
      [
        "am",
        "b"
      ],
      [
        "ang",
        "er"
      ],
      [
        "M",
        "ad"
      ],
      [
        "R",
        "ed"
      ],
      [
        "e",
        "ither"
      ],
      [
        "am",
        "a"
      ],
      [
        "ir",
        "on"
      ],
      [
        "te",
        "ach"
      ],
      [
        "ot",
        "ed"
      ],
      [
        "are",
        "n"
      ],
      [
        "200",
        "3"
      ],
      [
        "comm",
        "on"
      ],
      [
        "amp",
        "le"
      ],
      [
        "II",
        "I"
      ],
      [
        "bre",
        "ak"
      ],
      [
        "k",
        "ed"
      ],
      [
        "m",
        "as"
      ],
      [
        "id",
        "s"
      ],
      [
        "str",
        "y"
      ],
      [
        "gr",
        "ad"
      ],
      [
        "rec",
        "og"
      ],
      [
        "do",
        "es"
      ],
      [
        "az",
        "ine"
      ],
      [
        "loc",
        "ated"
      ],
      [
        "feat",
        "ures"
      ],
      [
        "ink",
        "el"
      ],
      [
        "quad",
        "ron"
      ],
      [
        "signific",
        "ant"
      ],
      [
        "S",
        "omer"
      ],
      [
        "T",
        "V"
      ],
      [
        "f",
        "ly"
      ],
      [
        "f",
        "av"
      ],
      [
        "it",
        "ing"
      ],
      [
        "to",
        "gether"
      ],
      [
        "ic",
        "o"
      ],
      [
        "ap",
        "er"
      ],
      [
        "18",
        "8"
      ],
      [
        "ath",
        "us"
      ],
      [
        "Town",
        "send"
      ],
      [
        "Vir",
        "gin"
      ],
      [
        "Somer",
        "set"
      ],
      [
        "D",
        "av"
      ],
      [
        "F",
        "inkel"
      ],
      [
        "R",
        "ep"
      ],
      [
        "R",
        "oute"
      ],
      [
        "d",
        "ate"
      ],
      [
        "o",
        "x"
      ],
      [
        "p",
        "at"
      ],
      [
        "s",
        "our"
      ],
      [
        "be",
        "er"
      ],
      [
        "ac",
        "ross"
      ],
      [
        "200",
        "4"
      ],
      [
        "iz",
        "ation"
      ],
      [
        "Pl",
        "ay"
      ],
      [
        "moder",
        "n"
      ],
      [
        "Care",
        "y"
      ],
      [
        "Finkel",
        "stein"
      ],
      [
        "B",
        "er"
      ],
      [
        "B",
        "att"
      ],
      [
        "C",
        "r"
      ],
      [
        "M",
        "y"
      ],
      [
        "M",
        "ed"
      ],
      [
        "b",
        "orn"
      ],
      [
        "s",
        "es"
      ],
      [
        "ur",
        "t"
      ],
      [
        "open",
        "ed"
      ],
      [
        "rop",
        "ical"
      ],
      [
        "vi",
        "ol"
      ],
      [
        "Meyer",
        "beer"
      ],
      [
        "J",
        "ew"
      ],
      [
        "M",
        "o"
      ],
      [
        "l",
        "ittle"
      ],
      [
        "al",
        "d"
      ],
      [
        "res",
        "pect"
      ],
      [
        "pe",
        "ak"
      ],
      [
        "oc",
        "cur"
      ],
      [
        "ll",
        "ed"
      ],
      [
        "ele",
        "ct"
      ],
      [
        "mem",
        "ber"
      ],
      [
        "prov",
        "ided"
      ],
      [
        "poss",
        "ible"
      ],
      [
        "B",
        "el"
      ],
      [
        "S",
        "tr"
      ],
      [
        "t",
        "ies"
      ],
      [
        "re",
        "en"
      ],
      [
        "al",
        "ity"
      ],
      [
        "ar",
        "a"
      ],
      [
        "ic",
        "ated"
      ],
      [
        "ac",
        "cept"
      ],
      [
        "fl",
        "ight"
      ],
      [
        "comple",
        "te"
      ],
      [
        "Nic",
        "ole"
      ],
      [
        "recog",
        "n"
      ],
      [
        "B",
        "est"
      ],
      [
        "M",
        "in"
      ],
      [
        "d",
        "on"
      ],
      [
        "d",
        "ol"
      ],
      [
        "f",
        "if"
      ],
      [
        "r",
        "ing"
      ],
      [
        "on",
        "ce"
      ],
      [
        "es",
        "b"
      ],
      [
        "con",
        "ne"
      ],
      [
        "sp",
        "ace"
      ],
      [
        "four",
        "th"
      ],
      [
        "follow",
        "ed"
      ],
      [
        "mil",
        "es"
      ],
      [
        "week",
        "s"
      ],
      [
        "Braathen",
        "s"
      ],
      [
        "L",
        "aw"
      ],
      [
        "g",
        "row"
      ],
      [
        "v",
        "ill"
      ],
      [
        "in",
        "ch"
      ],
      [
        "se",
        "a"
      ],
      [
        "est",
        "im"
      ],
      [
        "trad",
        "ition"
      ],
      [
        "R",
        "ich"
      ],
      [
        "d",
        "ing"
      ],
      [
        "l",
        "oss"
      ],
      [
        "us",
        "es"
      ],
      [
        "use",
        "um"
      ],
      [
        "ca",
        "used"
      ],
      [
        "Europe",
        "an"
      ],
      [
        "claim",
        "ed"
      ],
      [
        "b",
        "road"
      ],
      [
        "c",
        "ause"
      ],
      [
        "l",
        "in"
      ],
      [
        "at",
        "a"
      ],
      [
        "it",
        "ch"
      ],
      [
        "ad",
        "em"
      ],
      [
        "con",
        "cl"
      ],
      [
        "ag",
        "o"
      ],
      [
        "te",
        "e"
      ],
      [
        "um",
        "ents"
      ],
      [
        "cre",
        "t"
      ],
      [
        "ang",
        "u"
      ],
      [
        "rel",
        "ig"
      ],
      [
        "sy",
        "n"
      ],
      [
        "high",
        "way"
      ],
      [
        "establ",
        "ished"
      ],
      [
        "H",
        "ow"
      ],
      [
        "P",
        "er"
      ],
      [
        "h",
        "ost"
      ],
      [
        "n",
        "et"
      ],
      [
        "in",
        "stead"
      ],
      [
        "ch",
        "ol"
      ],
      [
        "ot",
        "t"
      ],
      [
        "rough",
        "t"
      ],
      [
        "go",
        "al"
      ],
      [
        "ines",
        "e"
      ],
      [
        "Americ",
        "a"
      ],
      [
        "lead",
        "ing"
      ],
      [
        "S",
        "ong"
      ],
      [
        "in",
        "al"
      ],
      [
        "mo",
        "de"
      ],
      [
        "pe",
        "c"
      ],
      [
        "Ch",
        "inese"
      ],
      [
        "ign",
        "ed"
      ],
      [
        "announ",
        "ced"
      ],
      [
        "H",
        "ill"
      ],
      [
        "H",
        "ait"
      ],
      [
        "T",
        "int"
      ],
      [
        "f",
        "ar"
      ],
      [
        "i",
        "h"
      ],
      [
        "p",
        "an"
      ],
      [
        "p",
        "en"
      ],
      [
        "se",
        "le"
      ],
      [
        "for",
        "ced"
      ],
      [
        "pro",
        "b"
      ],
      [
        "iv",
        "id"
      ],
      [
        "18",
        "7"
      ],
      [
        "ev",
        "idence"
      ],
      [
        "olog",
        "y"
      ],
      [
        "serv",
        "ice"
      ],
      [
        "3",
        "5"
      ],
      [
        "N",
        "esb"
      ],
      [
        "S",
        "y"
      ],
      [
        "s",
        "aw"
      ],
      [
        "al",
        "i"
      ],
      [
        "as",
        "ing"
      ],
      [
        "un",
        "g"
      ],
      [
        "ne",
        "y"
      ],
      [
        "ra",
        "el"
      ],
      [
        "bl",
        "ack"
      ],
      [
        "cent",
        "ral"
      ],
      [
        "sub",
        "sequ"
      ],
      [
        "gu",
        "itar"
      ],
      [
        "dire",
        "ctor"
      ],
      [
        "Is",
        "rael"
      ],
      [
        "grap",
        "hy"
      ],
      [
        "urric",
        "ane"
      ],
      [
        "Tint",
        "in"
      ],
      [
        "F",
        "ollow"
      ],
      [
        "O",
        "da"
      ],
      [
        "S",
        "w"
      ],
      [
        "i",
        "et"
      ],
      [
        "p",
        "has"
      ],
      [
        "v",
        "ict"
      ],
      [
        "z",
        "e"
      ],
      [
        "il",
        "le"
      ],
      [
        "ve",
        "st"
      ],
      [
        "av",
        "ail"
      ],
      [
        "An",
        "g"
      ],
      [
        "fin",
        "ished"
      ],
      [
        "point",
        "s"
      ],
      [
        "At",
        "l"
      ],
      [
        "origin",
        "ally"
      ],
      [
        "Zh",
        "ou"
      ],
      [
        "E",
        "l"
      ],
      [
        "F",
        "ey"
      ],
      [
        "S",
        "arn"
      ],
      [
        "er",
        "a"
      ],
      [
        "ab",
        "ove"
      ],
      [
        "tr",
        "a"
      ],
      [
        "ough",
        "t"
      ],
      [
        "sp",
        "ac"
      ],
      [
        "tem",
        "por"
      ],
      [
        "remain",
        "s"
      ],
      [
        "list",
        "ed"
      ],
      [
        "Christ",
        "mas"
      ],
      [
        "Tw",
        "o"
      ],
      [
        "Nesb",
        "itt"
      ],
      [
        "Oda",
        "en"
      ],
      [
        "C",
        "up"
      ],
      [
        "g",
        "ra"
      ],
      [
        "o",
        "to"
      ],
      [
        "p",
        "s"
      ],
      [
        "p",
        "ers"
      ],
      [
        "it",
        "ive"
      ],
      [
        "wi",
        "fe"
      ],
      [
        "ish",
        "op"
      ],
      [
        "up",
        "on"
      ],
      [
        "sc",
        "ript"
      ],
      [
        "work",
        "s"
      ],
      [
        "set",
        "t"
      ],
      [
        "Odaen",
        "athus"
      ],
      [
        "c",
        "ase"
      ],
      [
        "e",
        "conom"
      ],
      [
        "i",
        "que"
      ],
      [
        "n",
        "ar"
      ],
      [
        "p",
        "on"
      ],
      [
        "se",
        "m"
      ],
      [
        "pro",
        "cess"
      ],
      [
        "Th",
        "om"
      ],
      [
        "work",
        "ed"
      ],
      [
        "resp",
        "ons"
      ],
      [
        "Follow",
        "ing"
      ],
      [
        "Sarn",
        "ia"
      ],
      [
        "3",
        "6"
      ],
      [
        "D",
        "ay"
      ],
      [
        "G",
        "l"
      ],
      [
        "K",
        "e"
      ],
      [
        "l",
        "abor"
      ],
      [
        "t",
        "re"
      ],
      [
        "u",
        "ck"
      ],
      [
        "he",
        "st"
      ],
      [
        "im",
        "p"
      ],
      [
        "are",
        "as"
      ],
      [
        "ex",
        "ample"
      ],
      [
        "form",
        "s"
      ],
      [
        "read",
        "y"
      ],
      [
        "allow",
        "ed"
      ],
      [
        "H",
        "ol"
      ],
      [
        "d",
        "ed"
      ],
      [
        "h",
        "on"
      ],
      [
        "h",
        "ar"
      ],
      [
        "i",
        "als"
      ],
      [
        "s",
        "w"
      ],
      [
        "s",
        "en"
      ],
      [
        "crit",
        "ics"
      ],
      [
        "la",
        "un"
      ],
      [
        "appro",
        "ach"
      ],
      [
        "struct",
        "ure"
      ],
      [
        "beh",
        "ind"
      ],
      [
        "I",
        "m"
      ],
      [
        "P",
        "ri"
      ],
      [
        "m",
        "us"
      ],
      [
        "st",
        "age"
      ],
      [
        "pro",
        "gram"
      ],
      [
        "sp",
        "ir"
      ],
      [
        "co",
        "ast"
      ],
      [
        "gen",
        "eral"
      ],
      [
        "design",
        "ed"
      ],
      [
        "quar",
        "ter"
      ],
      [
        "earli",
        "er"
      ],
      [
        "H",
        "en"
      ],
      [
        "M",
        "or"
      ],
      [
        "O",
        "ther"
      ],
      [
        "b",
        "rought"
      ],
      [
        "c",
        "admium"
      ],
      [
        "l",
        "angu"
      ],
      [
        "n",
        "y"
      ],
      [
        "ac",
        "c"
      ],
      [
        "el",
        "s"
      ],
      [
        "pl",
        "ann"
      ],
      [
        "pro",
        "ble"
      ],
      [
        "ear",
        "th"
      ],
      [
        "ind",
        "ivid"
      ],
      [
        "Ar",
        "ch"
      ],
      [
        "dec",
        "ided"
      ],
      [
        "event",
        "ually"
      ],
      [
        "month",
        "s"
      ],
      [
        "Geor",
        "ge"
      ],
      [
        "M",
        "ark"
      ],
      [
        "R",
        "iver"
      ],
      [
        "S",
        "ome"
      ],
      [
        "S",
        "chool"
      ],
      [
        "a",
        "ign"
      ],
      [
        "k",
        "s"
      ],
      [
        "m",
        "ater"
      ],
      [
        "r",
        "id"
      ],
      [
        "it",
        "es"
      ],
      [
        "de",
        "m"
      ],
      [
        "em",
        "ploy"
      ],
      [
        "ant",
        "i"
      ],
      [
        "land",
        "s"
      ],
      [
        "li",
        "ament"
      ],
      [
        "open",
        "ing"
      ],
      [
        "stand",
        "ing"
      ],
      [
        "Nor",
        "thern"
      ],
      [
        "M",
        "S"
      ],
      [
        "R",
        "ev"
      ],
      [
        "g",
        "a"
      ],
      [
        "l",
        "ot"
      ],
      [
        "l",
        "ack"
      ],
      [
        "n",
        "ed"
      ],
      [
        "n",
        "at"
      ],
      [
        "out",
        "side"
      ],
      [
        "201",
        "5"
      ],
      [
        "cer",
        "tain"
      ],
      [
        "kill",
        "ed"
      ],
      [
        "polit",
        "ical"
      ],
      [
        "4",
        "5"
      ],
      [
        "A",
        "b"
      ],
      [
        "L",
        "ord"
      ],
      [
        "N",
        "avy"
      ],
      [
        "c",
        "ing"
      ],
      [
        "ic",
        "a"
      ],
      [
        "ur",
        "b"
      ],
      [
        "19",
        "th"
      ],
      [
        "In",
        "nis"
      ],
      [
        "act",
        "ions"
      ],
      [
        "me",
        "et"
      ],
      [
        "ty",
        "pe"
      ],
      [
        "feat",
        "ured"
      ],
      [
        "previous",
        "ly"
      ],
      [
        "Mich",
        "ael"
      ],
      [
        "Pa",
        "ul"
      ],
      [
        "cir",
        "c"
      ],
      [
        "n",
        "on"
      ],
      [
        "ed",
        "y"
      ],
      [
        "ce",
        "ed"
      ],
      [
        "te",
        "ll"
      ],
      [
        "qu",
        "est"
      ],
      [
        "pr",
        "act"
      ],
      [
        "ib",
        "ility"
      ],
      [
        "Fran",
        "ce"
      ],
      [
        "Dav",
        "id"
      ],
      [
        "Rep",
        "ublic"
      ],
      [
        "Y",
        "ue"
      ],
      [
        "c",
        "arri"
      ],
      [
        "g",
        "ress"
      ],
      [
        "l",
        "os"
      ],
      [
        "t",
        "aking"
      ],
      [
        "ap",
        "e"
      ],
      [
        "pl",
        "es"
      ],
      [
        "com",
        "pl"
      ],
      [
        "work",
        "ing"
      ],
      [
        "3",
        "1"
      ],
      [
        "O",
        "s"
      ],
      [
        "W",
        "il"
      ],
      [
        "p",
        "ast"
      ],
      [
        "u",
        "g"
      ],
      [
        "at",
        "ory"
      ],
      [
        "se",
        "par"
      ],
      [
        "wh",
        "om"
      ],
      [
        "ot",
        "ion"
      ],
      [
        "ran",
        "ch"
      ],
      [
        "east",
        "ern"
      ],
      [
        "invol",
        "ved"
      ],
      [
        "A",
        "A"
      ],
      [
        "C",
        "ath"
      ],
      [
        "b",
        "al"
      ],
      [
        "b",
        "ound"
      ],
      [
        "s",
        "oc"
      ],
      [
        "he",
        "avy"
      ],
      [
        "ent",
        "ion"
      ],
      [
        "ol",
        "ic"
      ],
      [
        "oc",
        "cup"
      ],
      [
        "ev",
        "ents"
      ],
      [
        "kn",
        "ow"
      ],
      [
        "5",
        "00"
      ],
      [
        "m",
        "ing"
      ],
      [
        "it",
        "z"
      ],
      [
        "be",
        "ll"
      ],
      [
        "de",
        "al"
      ],
      [
        "de",
        "li"
      ],
      [
        "tr",
        "aining"
      ],
      [
        "201",
        "4"
      ],
      [
        "me",
        "as"
      ],
      [
        "co",
        "st"
      ],
      [
        "ath",
        "an"
      ],
      [
        "prote",
        "ins"
      ],
      [
        "Ind",
        "ian"
      ],
      [
        "Pe",
        "ter"
      ],
      [
        "belie",
        "ved"
      ],
      [
        "particular",
        "ly"
      ],
      [
        "fem",
        "ale"
      ],
      [
        "avail",
        "able"
      ],
      [
        "F",
        "E"
      ],
      [
        "F",
        "oot"
      ],
      [
        "S",
        "un"
      ],
      [
        "V",
        "er"
      ],
      [
        "h",
        "om"
      ],
      [
        "v",
        "ice"
      ],
      [
        "the",
        "ast"
      ],
      [
        "re",
        "ve"
      ],
      [
        "ex",
        "c"
      ],
      [
        "ant",
        "im"
      ],
      [
        "18",
        "6"
      ],
      [
        "lo",
        "ve"
      ],
      [
        "me",
        "an"
      ],
      [
        "remain",
        "ing"
      ],
      [
        "addition",
        "al"
      ],
      [
        "Hist",
        "ory"
      ],
      [
        "suf",
        "fer"
      ],
      [
        "H",
        "ouse"
      ],
      [
        "c",
        "ivil"
      ],
      [
        "m",
        "is"
      ],
      [
        "m",
        "ust"
      ],
      [
        "o",
        "o"
      ],
      [
        "for",
        "ward"
      ],
      [
        "com",
        "ment"
      ],
      [
        "bo",
        "x"
      ],
      [
        "low",
        "er"
      ],
      [
        "des",
        "pite"
      ],
      [
        "lar",
        "gest"
      ],
      [
        "As",
        "soci"
      ],
      [
        "go",
        "als"
      ],
      [
        "incre",
        "ased"
      ],
      [
        "jo",
        "ined"
      ],
      [
        "Comp",
        "any"
      ],
      [
        "G",
        "overn"
      ],
      [
        "d",
        "le"
      ],
      [
        "n",
        "ine"
      ],
      [
        "r",
        "um"
      ],
      [
        "t",
        "or"
      ],
      [
        "in",
        "st"
      ],
      [
        "an",
        "z"
      ],
      [
        "ed",
        "uc"
      ],
      [
        "re",
        "search"
      ],
      [
        "le",
        "arn"
      ],
      [
        "oper",
        "ations"
      ],
      [
        "appear",
        "ance"
      ],
      [
        "Car",
        "ol"
      ],
      [
        "sou",
        "thern"
      ],
      [
        "appoint",
        "ed"
      ],
      [
        "3",
        "7"
      ],
      [
        "C",
        "ra"
      ],
      [
        "F",
        "le"
      ],
      [
        "h",
        "ous"
      ],
      [
        "k",
        "en"
      ],
      [
        "con",
        "du"
      ],
      [
        "part",
        "s"
      ],
      [
        "comm",
        "iss"
      ],
      [
        "ele",
        "ments"
      ],
      [
        "contr",
        "act"
      ],
      [
        "dol",
        "lar"
      ],
      [
        "L",
        "and"
      ],
      [
        "U",
        "K"
      ],
      [
        "c",
        "ross"
      ],
      [
        "r",
        "ul"
      ],
      [
        "or",
        "ing"
      ],
      [
        "ct",
        "s"
      ],
      [
        "end",
        "s"
      ],
      [
        "pr",
        "ed"
[...]
