<pad>	0
<unk>	0
<s>	0
</s>	0
[EN]	0
[HI]	0
▁क	-0
▁t	-1
▁a	-2
he	-3
in	-4
▁the	-5
▁स	-6
▁म	-7
▁ह	-8
er	-9
on	-10
▁s	-11
▁प	-12
re	-13
▁,	-14
▁w	-15
▁c	-16
▁o	-17
ed	-18
ें	-19
ार	-20
▁b	-21
nd	-22
▁f	-23
▁के	-24
▁.	-25
ने	-26
at	-27
▁ब	-28
्र	-29
it	-30
or	-31
▁in	-32
en	-33
▁p	-34
▁ज	-35
▁है	-36
▁m	-37
या	-38
is	-39
es	-40
ar	-41
▁of	-42
▁द	-43
▁में	-44
an	-45
al	-46
ing	-47
▁र	-48
▁ल	-49
▁d	-50
▁व	-51
as	-52
▁अ	-53
ों	-54
▁and	-55
▁h	-56
▁to	-57
ro	-58
▁की	-59
▁न	-60
▁को	-61
ic	-62
▁l	-63
▁ग	-64
र्	-65
ion	-66
ान	-67
▁आ	-68
▁1	-69
▁से	-70
ou	-71
▁कि	-72
▁n	-73
▁re	-74
▁इ	-75
ता	-76
▁कर	-77
▁का	-78
▁भ	-79
▁त	-80
il	-81
▁th	-82
▁उ	-83
▁e	-84
▁g	-85
▁ने	-86
ent	-87
ना	-88
le	-89
▁पर	-90
िक	-91
▁"	-92
्य	-93
st	-94
ाल	-95
िल	-96
▁श	-97
am	-98
▁च	-99
om	-100
▁on	-101
▁2	-102
el	-103
▁औ	-104
▁प्र	-105
ad	-106
स्	-107
▁और	-108
▁was	-109
▁ए	-110
क्	-111
ac	-112
▁be	-113
▁st	-114
▁इस	-115
▁'	-116
ur	-117
ही	-118
▁he	-119
हा	-120
ड़	-121
ly	-122
▁for	-123
▁u	-124
▁हो	-125
iv	-126
▁as	-127
ir	-128
id	-129
im	-130
ol	-131
ter	-132
ig	-133
ाम	-134
▁थ	-135
▁हैं	-136
ित	-137
ct	-138
िया	-139
▁जा	-140
▁य	-141
th	-142
ay	-143
वा	-144
ow	-145
िए	-146
▁ख	-147
ith	-148
▁फ	-149
िय	-150
ver	-151
ंग	-152
ut	-153
▁al	-154
▁with	-155
▁भी	-156
▁se	-157
ot	-158
के	-159
ce	-160
▁(	-161
▁that	-162
▁r	-163
ation	-164
▁बा	-165
ते	-166
ला	-167
▁it	-168
00	-169
▁con	-170
ेश	-171
त्र	-172
▁स्	-173
▁wh	-174
▁at	-175
▁वि	-176
▁de	-177
री	-178
ch	-179
▁j	-180
se	-181
ले	-182
▁by	-183
▁is	-184
▁19	-185
हीं	-186
िन	-187
कर	-188
▁an	-189
▁रा	-190
et	-191
रा	-192
ul	-193
ती	-194
and	-195
▁उन	-196
▁लिए	-197
िस	-198
▁v	-199
▁सा	-200
ain	-201
rom	-202
ारी	-203
▁ch	-204
▁ट	-205
▁एक	-206
▁सं	-207
▁k	-208
गा	-209
ers	-210
ag	-211
em	-212
ति	-213
ुर	-214
est	-215
▁his	-216
से	-217
सी	-218
▁)	-219
▁com	-220
av	-221
्या	-222
um	-223
ोग	-224
her	-225
नी	-226
▁हु	-227
▁नहीं	-228
▁ले	-229
us	-230
▁ड	-231
ां	-232
▁किया	-233
क्ष	-234
▁अप	-235
ली	-236
▁from	-237
वार	-238
का	-239
▁सम	-240
▁दे	-241
▁मु	-242
▁mo	-243
▁su	-244
▁रह	-245
ंद	-246
▁pro	-247
ri	-248
ुल	-249
▁ही	-250
pe	-251
▁नि	-252
if	-253
्म	-254
ill	-255
ाय	-256
res	-257
▁पह	-258
▁गया	-259
ld	-260
▁ne	-261
्ट	-262
ere	-263
un	-264
ort	-265
ies	-266
▁कार	-267
os	-268
▁3	-269
ist	-270
od	-271
ard	-272
▁pl	-273
▁were	-274
▁था	-275
की	-276
▁y	-277
ियों	-278
▁ro	-279
all	-280
▁sh	-281
igh	-282
ap	-283
▁कहा	-284
▁घ	-285
िला	-286
art	-287
ate	-288
op	-289
ber	-290
▁un	-291
qu	-292
▁or	-293
▁20	-294
ak	-295
ich	-296
त्	-297
▁ex	-298
ong	-299
्ह	-300
▁le	-301
▁करने	-302
ant	-303
ame	-304
ab	-305
gh	-306
ंड	-307
ास	-308
रो	-309
ity	-310
▁साथ	-311
ated	-312
कार	-313
red	-314
ive	-315
▁बाद	-316
ंच	-317
ess	-318
ud	-319
▁had	-320
▁तो	-321
oc	-322
▁सि	-323
मा	-324
▁अध	-325
▁लोग	-326
▁रहे	-327
भा	-328
ip	-329
▁उन्ह	-330
ढ़	-331
ack	-332
▁tr	-333
गी	-334
▁are	-335
ie	-336
▁राज	-337
▁कु	-338
▁यह	-339
▁अन	-340
दी	-341
▁ar	-342
ाह	-343
▁पू	-344
▁वाल	-345
rou	-346
▁which	-347
▁छ	-348
रे	-349
देश	-350
ment	-351
▁af	-352
▁200	-353
कि	-354
▁दिया	-355
ast	-356
▁सु	-357
वि	-358
▁4	-359
▁not	-360
our	-361
▁दो	-362
्री	-363
ge	-364
जी	-365
ally	-366
पी	-367
ंत्र	-368
▁5	-369
ेट	-370
rit	-371
▁whe	-372
▁गई	-373
ord	-374
pt	-375
ight	-376
oun	-377
दा	-378
स्ट	-379
▁तक	-380
cc	-381
pp	-382
ल्	-383
ust	-384
ine	-385
▁:	-386
ary	-387
▁रहा	-388
भी	-389
ाइ	-390
िर	-391
ell	-392
▁fir	-393
▁सर	-394
▁उस	-395
वी	-396
▁सी	-397
▁comp	-398
▁बता	-399
ave	-400
▁हुए	-401
cl	-402
▁पुल	-403
ian	-404
▁–	-405
ther	-406
▁201	-407
ेल	-408
▁मिल	-409
▁cl	-410
ia	-411
▁या	-412
▁tw	-413
▁ad	-414
▁first	-415
▁en	-416
▁but	-417
गर	-418
ौर	-419
▁this	-420
▁ध	-421
▁थी	-422
▁sc	-423
▁रही	-424
ish	-425
ore	-426
▁her	-427
ओं	-428
गे	-429
में	-430
▁बी	-431
▁सक	-432
▁their	-433
▁चु	-434
▁पुलिस	-435
▁wor	-436
▁आप	-437
्ष	-438
te	-439
ould	-440
▁मह	-441
सा	-442
▁after	-443
▁दी	-444
ions	-445
▁cont	-446
▁bo	-447
ानी	-448
ide	-449
▁जो	-450
ाना	-451
▁its	-452
ire	-453
▁;	-454
तर	-455
ous	-456
ign	-457
टी	-458
▁ab	-459
ार्	-460
▁te	-461
ोंने	-462
so	-463
▁they	-464
ाई	-465
ोज	-466
ome	-467
टर	-468
▁भार	-469
▁man	-470
स्त	-471
▁one	-472
▁int	-473
▁जिस	-474
▁मा	-475
▁all	-476
ure	-477
ical	-478
▁बार	-479
ra	-480
श्	-481
ial	-482
▁अपने	-483
▁लोगों	-484
hed	-485
ue	-486
्रे	-487
ru	-488
▁rec	-489
ाज	-490
▁जाए	-491
▁fe	-492
▁new	-493
out	-494
▁per	-495
ीन	-496
शन	-497
च्	-498
िव	-499
स्थ	-500
▁मौ	-501
ub	-502
द्	-503
▁am	-504
ater	-505
▁two	-506
बर	-507
▁उन्होंने	-508
्त	-509
▁मै	-510
पा	-511
किन	-512
▁अधिक	-513
▁play	-514
ov	-515
▁ला	-516
▁लगा	-517
▁18	-518
per	-519
▁हम	-520
▁she	-521
▁थे	-522
क्र	-523
▁6	-524
▁tim	-525
ass	-526
▁स्थ	-527
▁mar	-528
ok	-529
▁comm	-530
▁ser	-531
▁us	-532
ear	-533
age	-534
द्र	-535
▁sp	-536
ंत्री	-537
▁also	-538
ड़ी	-539
▁लेकिन	-540
▁सरकार	-541
▁i	-542
ुप	-543
हां	-544
▁bec	-545
orm	-546
▁@	-547
जा	-548
.@	-549
▁@.@	-550
og	-551
ond	-552
land	-553
ंह	-554
हर	-555
ction	-556
▁res	-557
..	-558
▁who	-559
ree	-560
▁ag	-561
▁ऐ	-562
▁होने	-563
▁co	-564
own	-565
ष्ट	-566
uring	-567
▁have	-568
▁go	-569
ff	-570
▁7	-571
ted	-572
▁बना	-573
ry	-574
र्म	-575
नों	-576
▁गए	-577
▁टी	-578
▁कम	-579
pl	-580
▁been	-581
▁पा	-582
▁मो	-583
ence	-584
▁इसके	-585
ड़ा	-586
▁पहले	-587
are	-588
▁dis	-589
▁part	-590
▁des	-591
▁अब	-592
पुर	-593
ade	-594
ance	-595
न्	-596
▁we	-597
▁po	-598
ough	-599
▁has	-600
ile	-601
▁बै	-602
du	-603
▁me	-604
▁over	-605
▁fin	-606
▁दिन	-607
ect	-608
ूर	-609
▁बताया	-610
▁पी	-611
ach	-612
बा	-613
ंप	-614
▁सिंह	-615
oll	-616
ric	-617
ition	-618
▁जब	-619
▁im	-620
ts	-621
▁माम	-622
▁कार्य	-623
र्ट	-624
ans	-625
▁off	-626
▁जी	-627
ंध	-628
खा	-629
ations	-630
ely	-631
ये	-632
▁other	-633
▁इन	-634
urn	-635
▁जान	-636
▁वर्	-637
▁year	-638
िंग	-639
वे	-640
▁उप	-641
▁वाले	-642
्यू	-643
▁तर	-644
▁pre	-645
▁8	-646
wn	-647
▁वह	-648
▁ev	-649
▁बि	-650
▁सो	-651
▁during	-652
ory	-653
▁लेकर	-654
▁when	-655
iz	-656
▁निर्	-657
मार	-658
▁मे	-659
ress	-660
▁out	-661
ंट	-662
▁10	-663
ason	-664
िल्	-665
धान	-666
▁बात	-667
▁पहु	-668
clud	-669
▁inter	-670
▁ओ	-671
ice	-672
ward	-673
ंक	-674
को	-675
▁up	-676
▁9	-677
ke	-678
▁ap	-679
▁बढ़	-680
ace	-681
▁कुछ	-682
▁पहुंच	-683
▁fl	-684
▁हि	-685
▁would	-686
ved	-687
▁can	-688
▁time	-689
▁सब	-690
man	-691
nder	-692
िश	-693
▁sou	-694
ite	-695
ang	-696
ड़े	-697
▁sec	-698
▁साल	-699
act	-700
▁br	-701
▁jo	-702
au	-703
ced	-704
ोट	-705
▁क्ष	-706
▁more	-707
▁साम	-708
ount	-709
ाप	-710
▁दौर	-711
जे	-712
▁into	-713
एम	-714
▁करते	-715
ib	-716
्स	-717
▁अनु	-718
▁जन	-719
▁song	-720
कों	-721
कारी	-722
ult	-723
we	-724
▁शुर	-725
▁हुई	-726
ited	-727
▁includ	-728
▁भारत	-729
ings	-730
▁att	-731
ild	-732
amp	-733
▁चाह	-734
one	-735
क्षा	-736
▁परि	-737
वर	-738
ens	-739
▁रुप	-740
▁कई	-741
▁रू	-742
▁ind	-743
ोल	-744
▁game	-745
क्त	-746
▁col	-747
▁दु	-748
▁देश	-749
rough	-750
र्व	-751
ks	-752
▁उत्	-753
▁gr	-754
बी	-755
▁ear	-756
way	-757
▁बे	-758
ix	-759
▁काम	-760
जार	-761
ces	-762
ail	-763
ied	-764
▁qu	-765
▁ये	-766
वं	-767
ूल	-768
▁हुआ	-769
▁cent	-770
▁ऑ	-771
▁वे	-772
port	-773
▁pe	-774
ve	-775
▁him	-776
▁मुख	-777
▁पार	-778
▁अपनी	-779
ंस	-780
▁सभी	-781
वाल	-782
▁कै	-783
▁रि	-784
्ल	-785
able	-786
▁दौरान	-787
ेंद्र	-788
ased	-789
▁spe	-790
डी	-791
▁आय	-792
▁कोई	-793
▁द्	-794
ren	-795
ates	-796
▁form	-797
▁गां	-798
जन	-799
ेत्र	-800
मंत्री	-801
ोक	-802
als	-803
▁season	-804
ious	-805
les	-806
▁no	-807
एस	-808
000	-809
च्च	-810
▁bl	-811
▁शिक	-812
▁प्रदेश	-813
▁हर	-814
▁char	-815
▁दू	-816
▁while	-817
▁pr	-818
▁bet	-819
▁most	-820
▁सू	-821
▁12	-822
▁फिल	-823
▁दिल्	-824
▁आरो	-825
▁क्षेत्र	-826
िका	-827
vel	-828
▁eng	-829
िम	-830
▁बह	-831
▁ग्र	-832
ake	-833
▁प्रति	-834
▁हाल	-835
ase	-836
gan	-837
चार	-838
▁war	-839
▁देख	-840
वारा	-841
मान	-842
▁स्ट	-843
ents	-844
▁किसी	-845
old	-846
ाने	-847
▁rem	-848
्टी	-849
्रेस	-850
▁ver	-851
▁खिला	-852
▁तरह	-853
▁समय	-854
ember	-855
▁चल	-856
▁record	-857
▁how	-858
▁bu	-859
▁act	-860
िट	-861
iss	-862
▁acc	-863
▁some	-864
▁दिल्ली	-865
▁199	-866
ick	-867
▁only	-868
▁उनके	-869
ered	-870
▁कह	-871
ind	-872
▁later	-873
▁reg	-874
▁व्य	-875
ors	-876
ेंगे	-877
▁them	-878
बंध	-879
▁विक	-880
ollow	-881
▁again	-882
▁bat	-883
▁नाम	-884
▁दर्	-885
▁15	-886
▁may	-887
▁राज्य	-888
▁nor	-889
नाव	-890
▁सह	-891
ound	-892
ोर	-893
▁अम	-894
▁there	-895
ोड़	-896
▁follow	-897
▁three	-898
▁द्वारा	-899
ष्	-900
▁घर	-901
द्ध	-902
▁टीम	-903
round	-904
▁kn	-905
form	-906
fer	-907
▁through	-908
▁पि	-909
▁car	-910
▁लिया	-911
सान	-912
▁than	-913
▁par	-914
▁so	-915
rib	-916
क्रम	-917
ters	-918
▁शुरू	-919
▁under	-920
▁लग	-921
रोना	-922
▁cons	-923
▁शाम	-924
▁मामले	-925
▁अं	-926
ubl	-927
reat	-928
,000	-929
▁उन्हें	-930
▁about	-931
▁app	-932
ीड	-933
▁कोरोना	-934
aw	-935
▁आज	-936
▁बु	-937
▁num	-938
ilm	-939
▁महिला	-940
▁fr	-941
▁11	-942
▁रख	-943
▁0	-944
▁end	-945
fore	-946
ision	-947
▁ass	-948
▁second	-949
▁होगा	-950
▁फिल्म	-951
▁जाने	-952
ween	-953
eric	-954
▁ret	-955
▁between	-956
▁high	-957
▁work	-958
ft	-959
सर	-960
▁अभ	-961
hip	-962
▁तीन	-963
▁रूप	-964
▁जु	-965
ational	-966
फी	-967
▁मुख्य	-968
ood	-969
▁बीच	-970
ning	-971
जर	-972
ck	-973
▁mus	-974
▁rele	-975
▁आई	-976
cted	-977
्यक्ष	-978
▁four	-979
ral	-980
▁em	-981
▁mon	-982
▁min	-983
▁gu	-984
▁day	-985
▁inc	-986
▁पु	-987
▁film	-988
▁def	-989
ारा	-990
▁खु	-991
ames	-992
ज़	-993
ons	-994
▁ना	-995
▁lo	-996
▁made	-997
▁gen	-998
ug	-999
▁इं	-1000
ict	-1001
दार	-1002
▁north	-1003
ath	-1004
▁rel	-1005
▁एवं	-1006
स्प	-1007
▁pos	-1008
▁यु	-1009
▁before	-1010
र्स	-1011
▁sy	-1012
ून	-1013
▁फै	-1014
हत	-1015
iew	-1016
▁ac	-1017
▁तै	-1018
▁कुमार	-1019
▁sub	-1020
▁चुनाव	-1021
चा	-1022
rop	-1023
क्ट	-1024
▁दि	-1025
▁produ	-1026
भाग	-1027
वाई	-1028
▁world	-1029
▁ठ	-1030
▁alb	-1031
यर	-1032
▁16	-1033
▁करना	-1034
▁झ	-1035
▁पै	-1036
ेर	-1037
▁निक	-1038
▁यहां	-1039
▁where	-1040
▁do	-1041
▁ता	-1042
▁lar	-1043
der	-1044
्मी	-1045
▁ep	-1046
▁कांग	-1047
ular	-1048
▁पास	-1049
▁वर्ष	-1050
▁गु	-1051
▁ent	-1052
पो	-1053
▁americ	-1054
जू	-1055
नि	-1056
▁pres	-1057
▁जै	-1058
▁वहीं	-1059
ating	-1060
▁स्थित	-1061
▁series	-1062
्रीय	-1063
▁city	-1064
लय	-1065
▁बन	-1066
▁ट्र	-1067
ss	-1068
▁भा	-1069
▁bro	-1070
▁लि	-1071
▁दूस	-1072
▁ma	-1073
ished	-1074
▁li	-1075
▁जर	-1076
ived	-1077
▁हा	-1078
▁ele	-1079
आई	-1080
▁writ	-1081
लों	-1082
▁album	-1083
▁जानकारी	-1084
ne	-1085
ुत	-1086
तीय	-1087
एं	-1088
ose	-1089
शी	-1090
iel	-1091
▁कारण	-1092
धार	-1093
▁सकता	-1094
aid	-1095
▁कांग्रेस	-1096
▁sur	-1097
ेज	-1098
tern	-1099
▁‘	-1100
▁एस	-1101
▁चौ	-1102
ane	-1103
▁रो	-1104
▁loc	-1105
▁-	-1106
▁south	-1107
▁जाएगा	-1108
▁जाता	-1109
टना	-1110
▁आरोप	-1111
▁sing	-1112
▁बच्च	-1113
दि	-1114
▁अव	-1115
▁sever	-1116
▁ph	-1117
▁epis	-1118
धी	-1119
क्स	-1120
▁appe	-1121
▁अन्य	-1122
ily	-1123
▁cap	-1124
▁being	-1125
वन	-1126
दे	-1127
्यों	-1128
▁दोनों	-1129
ever	-1130
▁dec	-1131
▁लाख	-1132
▁फिर	-1133
▁जिला	-1134
▁count	-1135
्यादा	-1136
▁मांग	-1137
ll	-1138
▁supp	-1139
hes	-1140
▁17	-1141
▁गांव	-1142
▁episod	-1143
सार	-1144
▁such	-1145
▁सबसे	-1146
ual	-1147
▁खिलाफ	-1148
हार	-1149
▁कॉ	-1150
▁जारी	-1151
▁विभाग	-1152
▁अग	-1153
▁छा	-1154
▁rep	-1155
tle	-1156
▁14	-1157
▁team	-1158
▁जिल	-1159
ained	-1160
▁रुपये	-1161
ics	-1162
▁मान	-1163
▁number	-1164
ph	-1165
▁बैठ	-1166
▁publ	-1167
मी	-1168
ury	-1169
ific	-1170
▁ऐसे	-1171
▁जांच	-1172
च्छ	-1173
ायत	-1174
▁add	-1175
▁वाली	-1176
▁क्र	-1177
int	-1178
▁many	-1179
▁mill	-1180
▁राष्ट	-1181
▁स्क	-1182
▁became	-1183
▁डॉ	-1184
▁both	-1185
ब्	-1186
iver	-1187
▁years	-1188
▁पार्टी	-1189
▁however	-1190
▁op	-1191
था	-1192
ys	-1193
▁पूर्व	-1194
ute	-1195
▁spec	-1196
▁will	-1197
▁united	-1198
▁गो	-1199
▁किए	-1200
▁brit	-1201
पर	-1202
▁long	-1203
ियां	-1204
▁rev	-1205
▁used	-1206
▁चाहिए	-1207
▁well	-1208
वाद	-1209
▁कंप	-1210
▁sm	-1211
क्ति	-1212
▁then	-1213
ंब	-1214
▁उसके	-1215
▁ज्यादा	-1216
▁13	-1217
li	-1218
▁सकते	-1219
▁dep	-1220
up	-1221
ars	-1222
▁pol	-1223
दान	-1224
▁उनकी	-1225
▁सुर	-1226
end	-1227
ताओं	-1228
▁देने	-1229
ird	-1230
ject	-1231
▁gener	-1232
▁dr	-1233
▁198	-1234
टा	-1235
▁शामिल	-1236
▁ed	-1237
▁शु	-1238
hn	-1239
ins	-1240
▁against	-1241
olog	-1242
ंबर	-1243
ised	-1244
▁मैं	-1245
▁state	-1246
णा	-1247
▁25	-1248
▁air	-1249
velop	-1250
▁किसान	-1251
▁ship	-1252
▁stud	-1253
ांच	-1254
▁वै	-1255
▁ste	-1256
▁dire	-1257
▁rece	-1258
सभा	-1259
ton	-1260
ोजना	-1261
air	-1262
▁भारतीय	-1263
ause	-1264
▁तैय	-1265
▁several	-1266
क्टर	-1267
ज्	-1268
▁show	-1269
▁back	-1270
ale	-1271
other	-1272
प्र	-1273
▁ob	-1274
▁राम	-1275
▁inv	-1276
ten	-1277
ायर	-1278
▁30	-1279
▁उम	-1280
▁sim	-1281
▁अध्यक्ष	-1282
▁ओर	-1283
▁करोड़	-1284
प्	-1285
भाव	-1286
ince	-1287
til	-1288
ारे	-1289
▁ter	-1290
▁call	-1291
▁इससे	-1292
ank	-1293
र्थ	-1294
▁div	-1295
▁these	-1296
वान	-1297
▁/	-1298
▁काफी	-1299
▁music	-1300
▁आए	-1301
▁बद	-1302
▁प्रधान	-1303
र्ड	-1304
ामी	-1305
▁sch	-1306
▁महा	-1307
गत	-1308
▁pop	-1309
▁orig	-1310
ield	-1311
पोर्ट	-1312
▁develop	-1313
▁following	-1314
पाल	-1315
ृत	-1316
्यालय	-1317
▁दर्ज	-1318
▁उसे	-1319
ise	-1320
▁inst	-1321
▁main	-1322
ोन	-1323
ूर्	-1324
▁john	-1325
ork	-1326
ेशन	-1327
ीस	-1328
tal	-1329
▁nov	-1330
▁छात्र	-1331
▁ली	-1332
ूम	-1333
▁गिर	-1334
▁arm	-1335
▁set	-1336
ures	-1337
ful	-1338
ारियों	-1339
20	-1340
▁हजार	-1341
▁including	-1342
▁डि	-1343
▁trans	-1344
श्व	-1345
ोष	-1346
ताल	-1347
ired	-1348
ुक	-1349
▁sl	-1350
▁नई	-1351
ities	-1352
▁मंत्री	-1353
योग	-1354
▁भाज	-1355
चना	-1356
io	-1357
ंदी	-1358
▁194	-1359
▁down	-1360
▁began	-1361
▁196	-1362
ident	-1363
▁origin	-1364
दर्	-1365
▁पिछ	-1366
▁स्व	-1367
ower	-1368
▁यू	-1369
▁mat	-1370
▁जिन	-1371
▁शिक्ष	-1372
▁episode	-1373
▁z	-1374
▁mil	-1375
▁crit	-1376
ool	-1377
row	-1378
▁—	-1379
ife	-1380
ley	-1381
▁lead	-1382
▁perform	-1383
▁197	-1384
▁करें	-1385
▁cre	-1386
ty	-1387
▁करी	-1388
▁मौत	-1389
urch	-1390
▁सद	-1391
▁भाजपा	-1392
▁sign	-1393
▁contin	-1394
ement	-1395
▁बहुत	-1396
▁early	-1397
▁प्रश	-1398
und	-1399
▁न्यू	-1400
▁होगी	-1401
-1	-1402
▁नी	-1403
मु	-1404
iet	-1405
धिक	-1406
▁bel	-1407
▁imp	-1408
▁care	-1409
though	-1410
ैन	-1411
▁run	-1412
orn	-1413
▁although	-1414
▁मोदी	-1415
ines	-1416
▁art	-1417
▁करा	-1418
▁design	-1419
▁होता	-1420
▁mu	-1421
led	-1422
ियो	-1423
▁land	-1424
▁found	-1425
▁charac	-1426
▁प्रत	-1427
▁est	-1428
▁hist	-1429
its	-1430
▁आने	-1431
▁चार	-1432
▁const	-1433
▁until	-1434
▁port	-1435
▁इसी	-1436
▁डी	-1437
ेंद	-1438
ather	-1439
▁though	-1440
▁comple	-1441
▁str	-1442
▁स्वा	-1443
oot	-1444
son	-1445
▁इला	-1446
▁could	-1447
▁बो	-1448
▁win	-1449
ert	-1450
▁inf	-1451
ared	-1452
vern	-1453
▁did	-1454
▁six	-1455
▁aust	-1456
▁open	-1457
▁जिले	-1458
▁states	-1459
ued	-1460
ाली	-1461
enn	-1462
▁बंद	-1463
त्म	-1464
▁ke	-1465
▁km	-1466
▁दिए	-1467
▁million	-1468
वास	-1469
▁बारे	-1470
▁सामने	-1471
ative	-1472
ेड	-1473
▁कप	-1474
▁wee	-1475
्ड	-1476
▁आर	-1477
▁ever	-1478
▁अल	-1479
▁जम	-1480
जूद	-1481
ुरु	-1482
स्था	-1483
्रा	-1484
द्य	-1485
▁वो	-1486
फ्त	-1487
▁british	-1488
ments	-1489
▁return	-1490
▁मार्	-1491
▁compan	-1492
▁अपना	-1493
▁along	-1494
une	-1495
tend	-1496
▁oper	-1497
▁अगर	-1498
▁dist	-1499
ेंट	-1500
▁केंद्र	-1501
रण	-1502
elf	-1503
ासन	-1504
ized	-1505
▁नगर	-1506
▁शा	-1507
लो	-1508
rap	-1509
▁संबंध	-1510
ually	-1511
▁because	-1512
्‍	-1513
निया	-1514
▁कर्म	-1515
▁ई	-1516
ann	-1517
▁अस्प	-1518
ost	-1519
ध्य	-1520
ined	-1521
aking	-1522
▁area	-1523
▁govern	-1524
ague	-1525
▁build	-1526
ron	-1527
▁dif	-1528
▁you	-1529
▁पूरी	-1530
▁श्री	-1531
▁west	-1532
▁aug	-1533
▁bar	-1534
▁करीब	-1535
▁अनुसार	-1536
▁fam	-1537
▁निय	-1538
▁याद	-1539
▁met	-1540
▁each	-1541
▁exp	-1542
▁pass	-1543
▁अला	-1544
▁start	-1545
▁any	-1546
▁prev	-1547
▁क्यों	-1548
▁said	-1549
▁उठ	-1550
▁american	-1551
आर	-1552
ताब	-1553
▁ger	-1554
ross	-1555
▁घटना	-1556
▁शहर	-1557
▁award	-1558
▁पद	-1559
▁मन	-1560
धा	-1561
ूं	-1562
▁टे	-1563
▁पांच	-1564
▁august	-1565
▁मैच	-1566
▁अभी	-1567
ccess	-1568
▁released	-1569
▁prov	-1570
ंगे	-1571
ock	-1572
रीज	-1573
gr	-1574
▁since	-1575
▁तथा	-1576
▁feat	-1577
▁near	-1578
▁पिछले	-1579
तार	-1580
▁195	-1581
▁योजना	-1582
ptember	-1583
▁dam	-1584
शे	-1585
ured	-1586
ull	-1587
stem	-1588
ivers	-1589
ier	-1590
▁स्कूल	-1591
▁ann	-1592
ially	-1593
▁आपको	-1594
▁disc	-1595
▁इसमें	-1596
ided	-1597
▁इसे	-1598
▁peop	-1599
▁national	-1600
ove	-1601
▁चे	-1602
ange	-1603
▁इंड	-1604
▁विध	-1605
▁known	-1606
▁september	-1607
▁camp	-1608
▁पढ़	-1609
▁मुख्यमंत्री	-1610
ting	-1611
▁अलावा	-1612
▁best	-1613
▁दर	-1614
▁क्या	-1615
oy	-1616
▁desc	-1617
▁अधिकारी	-1618
▁जग	-1619
▁hel	-1620
म्	-1621
▁king	-1622
▁मिले	-1623
els	-1624
▁191	-1625
▁जबकि	-1626
ंत	-1627
स्तान	-1628
वासी	-1629
▁adv	-1630
▁five	-1631
▁उत्तर	-1632
...	-1633
▁offic	-1634
▁storm	-1635
▁$	-1636
बाद	-1637
▁आयोज	-1638
वल	-1639
ूट	-1640
▁system	-1641
az	-1642
ांकि	-1643
▁पानी	-1644
yl	-1645
▁if	-1646
▁people	-1647
जय	-1648
▁193	-1649
दन	-1650
ont	-1651
ाला	-1652
▁club	-1653
▁serv	-1654
▁खा	-1655
osed	-1656
▁church	-1657
▁हालांकि	-1658
▁maj	-1659
▁सफ	-1660
▁विकास	-1661
िन्	-1662
▁दा	-1663
cept	-1664
▁final	-1665
ेत	-1666
▁league	-1667
र्फ	-1668
amed	-1669
क्षण	-1670
▁old	-1671
▁संग	-1672
▁प्रा	-1673
ble	-1674
roup	-1675
▁100	-1676
▁परी	-1677
त्व	-1678
▁games	-1679
▁support	-1680
ख्या	-1681
▁ca	-1682
▁ju	-1683
ची	-1684
▁रिपोर्ट	-1685
▁around	-1686
▁austral	-1687
▁24	-1688
▁mid	-1689
ms	-1690
ball	-1691
▁अच्छ	-1692
ash	-1693
▁med	-1694
र्मा	-1695
▁just	-1696
िता	-1697
▁50	-1698
▁var	-1699
▁town	-1700
▁group	-1701
▁मीड	-1702
▁road	-1703
▁same	-1704
▁miss	-1705
anc	-1706
ज्ञ	-1707
▁cr	-1708
ains	-1709
▁eff	-1710
▁कंपनी	-1711
ुक्त	-1712
▁success	-1713
ड़क	-1714
▁el	-1715
▁ins	-1716
ropical	-1717
▁प्रधानमंत्री	-1718
xt	-1719
ible	-1720
▁मज	-1721
▁जिसमें	-1722
▁major	-1723
▁जहां	-1724
▁मत	-1725
▁बेट	-1726
▁head	-1727
▁wal	-1728
▁बजे	-1729
▁eu	-1730
▁use	-1731
ped	-1732
▁command	-1733
कान	-1734
▁gl	-1735
▁संक्रम	-1736
ंगल	-1737
gest	-1738
▁परिवार	-1739
करण	-1740
▁occ	-1741
▁खेल	-1742
▁आम	-1743
▁line	-1744
▁short	-1745
▁called	-1746
▁अस्पताल	-1747
▁tri	-1748
aving	-1749
▁दिनों	-1750
▁मीडिया	-1751
▁बॉ	-1752
▁पंच	-1753
▁school	-1754
▁पो	-1755
▁पड़	-1756
▁what	-1757
▁%	-1758
ime	-1759
ाइन	-1760
▁ऐसा	-1761
▁star	-1762
▁निर्देश	-1763
▁आग	-1764
ouse	-1765
▁युव	-1766
ists	-1767
▁due	-1768
▁own	-1769
▁conc	-1770
▁describ	-1771
त्रा	-1772
▁नजर	-1773
▁received	-1774
▁ext	-1775
▁gun	-1776
हम	-1777
▁चला	-1778
स्ता	-1779
▁बल्	-1780
▁small	-1781
▁21	-1782
▁...	-1783
▁तहत	-1784
सल	-1785
▁mem	-1786
▁last	-1787
▁व्यव	-1788
▁like	-1789
▁नेता	-1790
▁तैयार	-1791
▁another	-1792
aced	-1793
▁jan	-1794
▁oct	-1795
aining	-1796
▁direct	-1797
्ला	-1798
▁fur	-1799
▁pers	-1800
▁सकती	-1801
▁june	-1802
शि	-1803
▁बैठक	-1804
▁colle	-1805
▁attack	-1806
स्क	-1807
मेंट	-1808
▁पत्र	-1809
uc	-1810
माण	-1811
▁दें	-1812
▁बड़ी	-1813
uary	-1814
▁chr	-1815
ober	-1816
▁कान	-1817
त्या	-1818
▁मिली	-1819
▁great	-1820
ंज	-1821
डा	-1822
▁hur	-1823
▁contro	-1824
▁company	-1825
ution	-1826
▁वा	-1827
कर्	-1828
▁भर	-1829
बह	-1830
ियर	-1831
▁book	-1832
▁incre	-1833
▁मद	-1834
▁लोक	-1835
▁home	-1836
ेंस	-1837
▁rest	-1838
▁गिरफ्त	-1839
▁बेह	-1840
▁रात	-1841
▁मिला	-1842
▁प्रदर्	-1843
▁कार्यक्रम	-1844
ked	-1845
▁prom	-1846
▁consid	-1847
▁gre	-1848
▁turn	-1849
▁top	-1850
▁conf	-1851
by	-1852
ven	-1853
▁कहना	-1854
▁german	-1855
लिए	-1856
▁मुताब	-1857
▁विश्व	-1858
▁october	-1859
ah	-1860
जह	-1861
▁जाएगी	-1862
▁कार्र	-1863
▁report	-1864
▁century	-1865
▁lit	-1866
▁won	-1867
ately	-1868
▁large	-1869
▁cor	-1870
▁जीत	-1871
ष्ठ	-1872
▁मुताबिक	-1873
▁कार्रवाई	-1874
used	-1875
▁आगे	-1876
बू	-1877
▁way	-1878
▁public	-1879
▁now	-1880
▁बनाने	-1881
ium	-1882
खंड	-1883
bers	-1884
▁योग	-1885
स्थ्य	-1886
ायक	-1887
▁23	-1888
▁कुल	-1889
ril	-1890
▁होती	-1891
ger	-1892
गढ़	-1893
▁रुपए	-1894
▁water	-1895
▁संख्या	-1896
▁सुरक्षा	-1897
ored	-1898
▁york	-1899
get	-1900
▁आदि	-1901
▁वजह	-1902
▁सदस	-1903
▁डे	-1904
▁हों	-1905
ोध	-1906
▁रवि	-1907
▁river	-1908
▁कोर्ट	-1909
्मीद	-1910
▁tech	-1911
▁took	-1912
ीय	-1913
dom	-1914
lish	-1915
▁much	-1916
▁बैंक	-1917
▁मौके	-1918
▁child	-1919
▁थाना	-1920
▁appear	-1921
▁men	-1922
▁july	-1923
▁विधान	-1924
▁शे	-1925
ural	-1926
▁che	-1927
▁april	-1928
▁उम्मीद	-1929
ैंड	-1930
▁january	-1931
ues	-1932
aged	-1933
▁played	-1934
▁सच	-1935
▁इस्	-1936
▁vide	-1937
▁यादव	-1938
▁मंद	-1939
▁22	-1940
▁tropical	-1941
▁character	-1942
▁स्वास्थ्य	-1943
ony	-1944
▁sk	-1945
▁giv	-1946
▁mag	-1947
▁घोष	-1948
▁ब्र	-1949
▁एन	-1950
▁bre	-1951
▁बाहर	-1952
▁partic	-1953
▁review	-1954
min	-1955
▁बस	-1956
▁late	-1957
iam	-1958
▁ge	-1959
empt	-1960
▁hum	-1961
▁mov	-1962
▁रे	-1963
▁आधार	-1964
▁इसकी	-1965
▁england	-1966
वरी	-1967
ालय	-1968
▁बर	-1969
▁जगह	-1970
▁करता	-1971
▁वायर	-1972
▁government	-1973
ep	-1974
▁hal	-1975
▁उनका	-1976
▁दूसरे	-1977
▁शर्मा	-1978
▁capt	-1979
▁east	-1980
ants	-1981
▁tit	-1982
▁वहां	-1983
▁within	-1984
▁अधिकारियों	-1985
▁my	-1986
▁करे	-1987
ional	-1988
▁पाकि	-1989
राब	-1990
▁गा	-1991
▁नए	-1992
▁vis	-1993
▁सूचना	-1994
ner	-1995
▁मही	-1996
▁ऑफ	-1997
मत	-1998
gin	-1999
over	-2000
af	-2001
▁वीड	-2002
▁stru	-2003
▁सुबह	-2004
▁appro	-2005
ilt	-2006
चित	-2007
▁मार	-2008
▁बिहार	-2009
ient	-2010
▁life	-2011
▁march	-2012
▁single	-2013
▁हिंदी	-2014
▁family	-2015
pect	-2016
▁even	-2017
sion	-2018
▁los	-2019
▁लड़	-2020
▁allow	-2021
▁इसलिए	-2022
ina	-2023
▁ty	-2024
▁division	-2025
▁जैसे	-2026
▁मौजूद	-2027
शेष	-2028
▁univers	-2029
▁26	-2030
ार्थ	-2031
▁dem	-2032
लाइ	-2033
▁आया	-2034
▁न्या	-2035
▁black	-2036
झे	-2037
▁फीस	-2038
▁फैस	-2039
▁लगे	-2040
ament	-2041
▁island	-2042
▁नौ	-2043
▁सौ	-2044
राज	-2045
▁ir	-2046
▁वाह	-2047
▁सीट	-2048
▁निवासी	-2049
▁मदद	-2050
▁अफ	-2051
▁दिख	-2052
▁वीडियो	-2053
cess	-2054
▁foot	-2055
▁previous	-2056
▁विधानसभा	-2057
▁पं	-2058
▁पहली	-2059
▁स्थिति	-2060
शल	-2061
हन	-2062
▁stre	-2063
▁किसानों	-2064
be	-2065
uth	-2066
मुख	-2067
▁bill	-2068
▁third	-2069
▁क्योंकि	-2070
▁ii	-2071
▁जे	-2072
▁arr	-2073
ified	-2074
▁मंदिर	-2075
▁player	-2076
▁power	-2077
ages	-2078
▁mcc	-2079
▁nort	-2080
▁wind	-2081
▁hurric	-2082
▁बच्चों	-2083
ism	-2084
र्चा	-2085
▁pat	-2086
▁सोम	-2087
▁हाथ	-2088
र्च	-2089
▁attempt	-2090
bo	-2091
मारी	-2092
▁ant	-2093
▁del	-2094
ility	-2095
▁cour	-2096
▁very	-2097
▁परीक्षा	-2098
ets	-2099
▁राष्ट्रीय	-2100
▁ऊ	-2101
▁डा	-2102
▁होते	-2103
▁event	-2104
▁constru	-2105
ाइल	-2106
ियन	-2107
ached	-2108
▁2008	-2109
▁left	-2110
▁जाती	-2111
▁times	-2112
▁soc	-2113
ively	-2114
▁euro	-2115
▁गांधी	-2116
▁intern	-2117
एन	-2118
यी	-2119
aim	-2120
▁कृ	-2121
▁व्यक्ति	-2122
▁प्रदर्शन	-2123
omin	-2124
▁उसकी	-2125
▁विशेष	-2126
▁लॉ	-2127
▁जल्	-2128
▁2010	-2129
▁गुरु	-2130
▁light	-2131
med	-2132
िये	-2133
▁2009	-2134
▁video	-2135
▁november	-2136
▁28	-2137
▁एम	-2138
▁ref	-2139
ody	-2140
ards	-2141
▁मरीज	-2142
▁list	-2143
▁vict	-2144
▁track	-2145
▁40	-2146
ामीण	-2147
▁arch	-2148
▁dece	-2149
▁रहने	-2150
▁champ	-2151
शा	-2152
erv	-2153
ched	-2154
rote	-2155
ently	-2156
ulation	-2157
▁addition	-2158
ंटे	-2159
▁खान	-2160
▁जिसके	-2161
▁general	-2162
avy	-2163
वीर	-2164
▁पता	-2165
ances	-2166
▁dest	-2167
ically	-2168
तन	-2169
र्क	-2170
▁ग्रामीण	-2171
सम	-2172
▁।	-2173
▁es	-2174
▁rom	-2175
▁सहित	-2176
▁राष्ट्र	-2177
ूरत	-2178
raft	-2179
▁leg	-2180
▁विरो	-2181
▁death	-2182
▁बाजार	-2183
▁शुक्र	-2184
▁शिकायत	-2185
▁accord	-2186
▁खबर	-2187
▁प्रशासन	-2188
▁[	-2189
▁ढ	-2190
▁mor	-2191
▁opp	-2192
▁squ	-2193
▁tour	-2194
ham	-2195
▁लेने	-2196
▁christ	-2197
mber	-2198
▁resp	-2199
▁व्या	-2200
▁place	-2201
▁original	-2202
शत	-2203
यान	-2204
▁तब	-2205
▁अलग	-2206
ience	-2207
▁expl	-2208
▁class	-2209
▁songs	-2210
▁गिरफ्तार	-2211
ग्	-2212
डे	-2213
ling	-2214
▁स्प	-2215
▁month	-2216
ुआ	-2217
▁fore	-2218
▁requ	-2219
▁named	-2220
▁eas	-2221
स्थान	-2222
▁श्र	-2223
▁अमेर	-2224
▁मामला	-2225
▁करेंगे	-2226
▁27	-2227
▁av	-2228
क्सी	-2229
▁2007	-2230
▁organ	-2231
▁पे	-2232
▁पूरा	-2233
▁december	-2234
नाथ	-2235
▁poss	-2236
र्य	-2237
▁make	-2238
▁those	-2239
▁पंचायत	-2240
ंगा	-2241
पति	-2242
ायल	-2243
▁moved	-2244
▁differ	-2245
धि	-2246
ives	-2247
▁सोमवार	-2248
▁according	-2249
रि	-2250
▁रेल	-2251
▁समझ	-2252
द्यालय	-2253
▁europe	-2254
▁बच	-2255
▁हूं	-2256
▁field	-2257
ांत	-2258
▁31	-2259
▁सै	-2260
▁शनि	-2261
▁mark	-2262
हरा	-2263
▁पूछ	-2264
▁इसका	-2265
▁included	-2266
विड	-2267
▁रोक	-2268
▁कल	-2269
एल	-2270
ats	-2271
▁सुन	-2272
▁हत्या	-2273
जल	-2274
eder	-2275
▁law	-2276
21	-2277
ink	-2278
ंदर	-2279
ाप्त	-2280
▁bus	-2281
▁har	-2282
▁next	-2283
▁repl	-2284
itions	-2285
▁la	-2286
▁low	-2287
▁hurricane	-2288
ern	-2289
iod	-2290
▁ची	-2291
▁पाल	-2292
▁बुध	-2293
▁init	-2294
▁tele	-2295
▁wrote	-2296
गम	-2297
लेज	-2298
▁red	-2299
▁wom	-2300
▁चुके	-2301
▁house	-2302
▁स्थान	-2303
मिक	-2304
▁खे	-2305
▁bas	-2306
▁brig	-2307
▁kill	-2308
▁समाज	-2309
app	-2310
▁नर	-2311
▁खुद	-2312
▁निर्माण	-2313
▁estab	-2314
▁मंत्र	-2315
day	-2316
▁sw	-2317
ology	-2318
▁]	-2319
aff	-2320
akes	-2321
▁deb	-2322
▁सेवा	-2323
▁story	-2324
ark	-2325
ल्ड	-2326
▁जनता	-2327
▁लगातार	-2328
टे	-2329
▁अर	-2330
▁माह	-2331
▁पाकिस्तान	-2332
ात	-2333
ides	-2334
ison	-2335
▁val	-2336
▁vill	-2337
▁white	-2338
▁further	-2339
ead	-2340
ged	-2341
▁came	-2342
▁milit	-2343
▁period	-2344
यू	-2345
ार्ड	-2346
▁खरी	-2347
न्द्र	-2348
▁still	-2349
▁मिलने	-2350
ps	-2351
ense	-2352
▁राजनी	-2353
▁प्रभाव	-2354
बे	-2355
▁पत्	-2356
▁शिव	-2357
▁बड़े	-2358
▁chart	-2359
▁described	-2360
ians	-2361
▁iss	-2362
▁plan	-2363
वेश	-2364
▁वाप	-2365
▁sent	-2366
▁prote	-2367
ster	-2368
ंबई	-2369
▁led	-2370
▁week	-2371
▁2011	-2372
▁real	-2373
▁शादी	-2374
▁local	-2375
▁आरोपी	-2376
▁आस	-2377
▁प्रो	-2378
▁stand	-2379
▁प्रमुख	-2380
ital	-2381
▁राह	-2382
▁सिर्फ	-2383
▁न्यूज़	-2384
▁university	-2385
सू	-2386
▁commun	-2387
br	-2388
ॉल	-2389
▁जिससे	-2390
▁महीने	-2391
▁continued	-2392
तिक	-2393
माल	-2394
▁गं	-2395
let	-2396
▁दिव	-2397
▁लगाया	-2398
यन	-2399
▁tem	-2400
▁पहुंचे	-2401
pend	-2402
▁तरफ	-2403
▁बुधवार	-2404
▁जल	-2405
▁hand	-2406
▁belie	-2407
▁built	-2408
ुट	-2409
hen	-2410
por	-2411
▁je	-2412
ness	-2413
▁बाल	-2414
sh	-2415
लाई	-2416
▁side	-2417
▁बढ़ा	-2418
▁result	-2419
तम	-2420
▁defe	-2421
▁park	-2422
ियान	-2423
▁हिस्	-2424
▁प्रया	-2425
ef	-2426
णी	-2427
िकेट	-2428
▁cal	-2429
▁युवक	-2430
▁वित	-2431
▁take	-2432
▁चुकी	-2433
▁history	-2434
▁व्यवस्था	-2435
▁मि	-2436
▁भाग	-2437
▁exper	-2438
▁super	-2439
▁शुक्रवार	-2440
▁आत	-2441
▁सम्म	-2442
▁common	-2443
▁विधायक	-2444
cent	-2445
स्या	-2446
▁say	-2447
▁coun	-2448
▁आदेश	-2449
▁contr	-2450
▁every	-2451
aken	-2452
▁cle	-2453
▁दूर	-2454
▁लाल	-2455
riend	-2456
▁उसने	-2457
▁चलते	-2458
▁मंगल	-2459
▁सड़क	-2460
▁रन	-2461
▁शिक्षा	-2462
hel	-2463
काल	-2464
चान	-2465
itar	-2466
ograp	-2467
▁fire	-2468
tended	-2469
▁शनिवार	-2470
ग्र	-2471
▁परेश	-2472
▁order	-2473
bs	-2474
ैल	-2475
▁wat	-2476
▁building	-2477
उन	-2478
षण	-2479
▁फर	-2480
▁love	-2481
▁role	-2482
▁पूरे	-2483
▁मुंबई	-2484
▁few	-2485
िने	-2486
▁जय	-2487
arch	-2488
estern	-2489
▁having	-2490
▁present	-2491
▁इत	-2492
▁भे	-2493
पूर्	-2494
▁rock	-2495
▁youn	-2496
▁गेंद	-2497
▁never	-2498
▁highway	-2499
bert	-2500
ences	-2501
▁2006	-2502
▁among	-2503
▁polit	-2504
▁चर्चा	-2505
▁दुकान	-2506
▁महिलाओं	-2507
ेंड	-2508
▁29	-2509
rodu	-2510
▁उठा	-2511
▁मंड	-2512
▁शाह	-2513
▁desp	-2514
▁manag	-2515
▁पोस्ट	-2516
ंका	-2517
त्री	-2518
▁मां	-2519
▁2012	-2520
▁band	-2521
▁champions	-2522
na	-2523
ery	-2524
िति	-2525
िरा	-2526
▁बिज	-2527
▁days	-2528
▁sold	-2529
▁देते	-2530
▁वाला	-2531
▁सवाल	-2532
▁night	-2533
▁battal	-2534
▁रविवार	-2535
▁project	-2536
▁माल	-2537
▁जल्द	-2538
▁route	-2539
▁दूसरी	-2540
mer	-2541
तरा	-2542
दारी	-2543
▁पेश	-2544
iving	-2545
ention	-2546
▁feder	-2547
▁battle	-2548
▁without	-2549
मे	-2550
ico	-2551
▁fre	-2552
स्ट्र	-2553
▁प्रतिशत	-2554
bru	-2555
idge	-2556
side	-2557
्यान	-2558
▁beh	-2559
▁cur	-2560
▁सके	-2561
aster	-2562
▁prop	-2563
▁career	-2564
ilar	-2565
thing	-2566
▁auth	-2567
▁मुझे	-2568
ler	-2569
चाल	-2570
▁see	-2571
iation	-2572
▁total	-2573
▁कोविड	-2574
▁effect	-2575
▁x	-2576
ston	-2577
▁राय	-2578
wards	-2579
▁ट्रे	-2580
▁टेस्ट	-2581
▁fle	-2582
▁उपल	-2583
▁बड़ा	-2584
▁कराया	-2585
▁strong	-2586
gy	-2587
▁दल	-2588
▁half	-2589
▁विरोध	-2590
▁person	-2591
▁military	-2592
वाह	-2593
▁name	-2594
▁right	-2595
नर	-2596
काश	-2597
gram	-2598
▁2013	-2599
▁view	-2600
▁स्तर	-2601
roy	-2602
ल्प	-2603
▁far	-2604
▁god	-2605
ठन	-2606
मो	-2607
ott	-2608
ches	-2609
▁prof	-2610
▁बयान	-2611
▁मध्य	-2612
▁compet	-2613
▁football	-2614
▁मी	-2615
र्ती	-2616
▁often	-2617
▁सदस्य	-2618
hy	-2619
▁बज	-2620
▁sug	-2621
▁gold	-2622
▁दुनिया	-2623
ival	-2624
▁som	-2625
▁roy	-2626
ature	-2627
▁less	-2628
▁अभियान	-2629
सि	-2630
ady	-2631
ियम	-2632
▁sol	-2633
▁held	-2634
▁post	-2635
▁नंबर	-2636
▁county	-2637
▁इंडिया	-2638
▁दौ	-2639
bruary	-2640
▁press	-2641
▁सरकारी	-2642
▁claim	-2643
्व	-2644
vers	-2645
▁pit	-2646
▁खास	-2647
▁पट	-2648
▁वन	-2649
self	-2650
▁सर्	-2651
ories	-2652
50	-2653
इक	-2654
▁ho	-2655
▁जाते	-2656
▁canad	-2657
▁similar	-2658
ots	-2659
श्य	-2660
▁वी	-2661
▁हे	-2662
ales	-2663
▁हाई	-2664
▁decl	-2665
▁कीमत	-2666
▁सोशल	-2667
▁point	-2668
▁ships	-2669
▁country	-2670
▁क्रिकेट	-2671
वेदन	-2672
▁hor	-2673
iment	-2674
▁लिखा	-2675
▁assoc	-2676
▁february	-2677
बार	-2678
▁tre	-2679
▁जीवन	-2680
vision	-2681
▁repres	-2682
▁despite	-2683
▁er	-2684
▁obs	-2685
ering	-2686
▁सांस	-2687
▁समस्या	-2688
▁english	-2689
▁अंतर	-2690
▁ra	-2691
▁ते	-2692
▁शि	-2693
▁डाल	-2694
▁trad	-2695
▁उपलब्	-2696
▁ग्राम	-2697
▁former	-2698
पु	-2699
ple	-2700
भीर	-2701
श्मी	-2702
▁away	-2703
▁import	-2704
▁तेज	-2705
▁lost	-2706
▁करती	-2707
▁become	-2708
eng	-2709
erc	-2710
▁cy	-2711
▁पक	-2712
rench	-2713
▁free	-2714
ensive	-2715
ression	-2716
▁position	-2717
▁recorded	-2718
▁considered	-2719
elt	-2720
ior	-2721
raw	-2722
yle	-2723
ried	-2724
▁ang	-2725
▁ball	-2726
▁release	-2727
▁different	-2728
भग	-2729
ops	-2730
ाइट	-2731
ूरी	-2732
▁पुर	-2733
▁रखा	-2734
▁good	-2735
बाज	-2736
uted	-2737
▁तौर	-2738
▁भूम	-2739
▁कराने	-2740
▁histor	-2741
ney	-2742
न्न	-2743
िली	-2744
ister	-2745
▁infl	-2746
▁little	-2747
क्शन	-2748
पूर्ण	-2749
▁president	-2750
mb	-2751
ret	-2752
लाइन	-2753
▁राहुल	-2754
बल	-2755
वाब	-2756
▁चीन	-2757
▁विभ	-2758
▁want	-2759
▁version	-2760
▁throughout	-2761
िकल	-2762
ोरी	-2763
▁कट	-2764
ices	-2765
▁नोट	-2766
▁संक्रमण	-2767
▁आद	-2768
ission	-2769
▁संघ	-2770
▁प्रभ	-2771
▁लक्ष	-2772
▁guitar	-2773
▁&	-2774
हरी	-2775
▁गै	-2776
ंद्र	-2777
▁players	-2778
line	-2779
जेपी	-2780
▁लाभ	-2781
▁chang	-2782
▁forces	-2783
ai	-2784
ूप	-2785
र्ष	-2786
ring	-2787
र्जी	-2788
▁कोश	-2789
ising	-2790
तेमाल	-2791
▁जाना	-2792
▁व्याप	-2793
▁friend	-2794
कत	-2795
▁net	-2796
▁tor	-2797
▁थीं	-2798
▁stat	-2799
▁force	-2800
▁मंगलवार	-2801
ae	-2802
कर्म	-2803
▁sum	-2804
▁आपके	-2805
▁फीसदी	-2806
▁program	-2807
▁international	-2808
▁1,	-2809
िन्न	-2810
▁sit	-2811
▁चाल	-2812
▁comb	-2813
▁members	-2814
▁returned	-2815
-19	-2816
que	-2817
▁mm	-2818
▁ट्	-2819
▁तस्	-2820
▁scen	-2821
▁particular	-2822
एफ	-2823
play	-2824
▁जेल	-2825
▁hero	-2826
▁प्रे	-2827
▁होंगे	-2828
▁लगभग	-2829
▁coast	-2830
▁grand	-2831
inc	-2832
▁सीएम	-2833
▁गंभीर	-2834
▁प्रयास	-2835
यों	-2836
▁don	-2837
▁युवा	-2838
▁based	-2839
off	-2840
▁rad	-2841
▁find	-2842
▁level	-2843
▁moder	-2844
▁ध्यान	-2845
▁सामान	-2846
▁यात्रा	-2847
▁control	-2848
▁norther	-2849
▁reached	-2850
▁कभी	-2851
▁दिखा	-2852
▁समेत	-2853
▁given	-2854
▁invol	-2855
▁development	-2856
set	-2857
▁धन	-2858
▁जमा	-2859
▁इंटर	-2860
ves	-2861
▁शव	-2862
▁भाई	-2863
▁पीएम	-2864
▁सचिव	-2865
▁इस्तेमाल	-2866
▁शी	-2867
▁फोन	-2868
▁केवल	-2869
▁बारिश	-2870
▁french	-2871
▁television	-2872
enc	-2873
xim	-2874
▁फोट	-2875
▁छोड़	-2876
▁service	-2877
▁northern	-2878
ylan	-2879
▁cast	-2880
▁घंटे	-2881
▁species	-2882
▁production	-2883
▁आव	-2884
▁190	-2885
▁dylan	-2886
▁represent	-2887
कु	-2888
com	-2889
दों	-2890
रिक	-2891
ांस	-2892
▁jack	-2893
लि	-2894
osp	-2895
aces	-2896
▁aff	-2897
▁चिक	-2898
▁sound	-2899
▁वालों	-2900
▁सहयोग	-2901
▁बीजेपी	-2902
▁pri	-2903
▁मृत	-2904
▁author	-2905
लर	-2906
ades	-2907
ator	-2908
▁ham	-2909
▁hig	-2910
▁जिम	-2911
▁match	-2912
▁मना	-2913
ailed	-2914
श्मीर	-2915
▁once	-2916
▁eight	-2917
▁suggest	-2918
▁army	-2919
▁western	-2920
▁children	-2921
▁geor	-2922
▁वाहन	-2923
▁announ	-2924
▁ord	-2925
▁ten	-2926
▁बने	-2927
▁सित	-2928
▁mass	-2929
▁सुवि	-2930
▁mount	-2931
▁कोशिश	-2932
▁बनाया	-2933
▁उपलब्ध	-2934
ama	-2935
▁छह	-2936
▁192	-2937
▁निगम	-2938
षा	-2939
aign	-2940
sequ	-2941
▁फैसला	-2942
ize	-2943
uss	-2944
ying	-2945
▁पीछ	-2946
▁बिना	-2947
▁देखने	-2948
▁ground	-2949
▁campaign	-2950
▁championship	-2951
गू	-2952
par	-2953
▁fif	-2954
▁conv	-2955
▁feet	-2956
▁fort	-2957
▁prim	-2958
▁करके	-2959
▁चुका	-2960
▁हमारे	-2961
▁making	-2962
▁central	-2963
▁गल	-2964
▁चि	-2965
▁cup	-2966
▁fun	-2967
▁lim	-2968
▁live	-2969
▁title	-2970
▁जरूरत	-2971
▁stated	-2972
ुड	-2973
▁संप	-2974
▁gave	-2975
▁rich	-2976
con	-2977
▁pur	-2978
▁लगी	-2979
▁संय	-2980
▁souther	-2981
टक	-2982
वत	-2983
िज	-2984
▁dav	-2985
▁अहम	-2986
▁पिता	-2987
▁cross	-2988
▁विभिन्न	-2989
मन	-2990
ोह	-2991
▁वृ	-2992
ours	-2993
▁पति	-2994
▁होना	-2995
▁royal	-2996
काब	-2997
▁written	-2998
▁southern	-2999
▁लौ	-3000
iety	-3001
▁activ	-3002
▁destroy	-3003
▁produced	-3004
▁signific	-3005
स्‍	-3006
▁60	-3007
augh	-3008
▁bow	-3009
▁रोड	-3010
▁सात	-3011
craft	-3012
▁बिजली	-3013
▁भग	-3014
▁रै	-3015
बाजी	-3016
▁cat	-3017
▁fem	-3018
▁बनाए	-3019
▁आयोजन	-3020
▁कॉलेज	-3021
▁वायरस	-3022
▁critic	-3023
▁आयोजित	-3024
me	-3025
▁रिक	-3026
▁2004	-3027
▁राशि	-3028
▁elect	-3029
▁should	-3030
che	-3031
▁arg	-3032
▁sun	-3033
▁अति	-3034
▁पड़ा	-3035
▁प्राप्त	-3036
▁mod	-3037
▁घोषणा	-3038
aul	-3039
▁dou	-3040
▁घायल	-3041
▁techn	-3042
▁जाएंगे	-3043
▁सुविधा	-3044
▁reported	-3045
ob	-3046
ned	-3047
gress	-3048
▁नियम	-3049
▁पक्ष	-3050
▁भर्ती	-3051
▁संचाल	-3052
▁published	-3053
▁जवाब	-3054
▁miles	-3055
▁seven	-3056
▁brigade	-3057
▁कमी	-3058
▁2005	-3059
▁poin	-3060
▁आयोग	-3061
▁विकेट	-3062
▁william	-3063
्रोल	-3064
▁cro	-3065
▁full	-3066
▁cover	-3067
▁battalion	-3068
▁mi	-3069
▁too	-3070
▁सफल	-3071
▁afric	-3072
▁eastern	-3073
▁कार्यकर्	-3074
▁population	-3075
जु	-3076
atic	-3077
ford	-3078
जनों	-3079
▁lat	-3080
▁बोर्ड	-3081
खन	-3082
▁burn	-3083
▁विवाद	-3084
▁ire	-3085
▁मिश	-3086
▁उसका	-3087
▁शेयर	-3088
फा	-3089
तिम	-3090
र्ण	-3091
▁vi	-3092
बंधन	-3093
▁prot	-3094
▁refer	-3095
▁रेलवे	-3096
▁शुरुआ	-3097
▁australia	-3098
द्योग	-3099
▁cult	-3100
▁guns	-3101
▁human	-3102
▁influ	-3103
▁across	-3104
दू	-3105
लब	-3106
▁equ	-3107
▁सें	-3108
▁broad	-3109
▁R	-3110
▁अद	-3111
▁ill	-3112
▁pal	-3113
▁tur	-3114
▁बाइक	-3115
▁वापस	-3116
▁आवेदन	-3117
▁interest	-3118
▁construction	-3119
भर	-3120
ामा	-3121
िनि	-3122
्मे	-3123
्रम	-3124
▁35	-3125
▁age	-3126
▁रोज	-3127
▁सप्	-3128
▁सही	-3129
▁करवा	-3130
▁केंद	-3131
ration	-3132
▁पत्नी	-3133
▁struct	-3134
▁तस्वीर	-3135
▁क्	-3136
ille	-3137
iness	-3138
▁instead	-3139
▁ज़	-3140
▁फे	-3141
ड़ों	-3142
▁lab	-3143
▁fact	-3144
▁इलाज	-3145
▁young	-3146
ंभ	-3147
ृह	-3148
ॉप	-3149
▁get	-3150
▁तीस	-3151
▁भेज	-3152
▁यूपी	-3153
धिकारी	-3154
▁popular	-3155
co	-3156
कट	-3157
षि	-3158
वीं	-3159
▁तय	-3160
▁ऐसी	-3161
▁रखने	-3162
ertain	-3163
▁चिकित	-3164
▁scored	-3165
▁ireland	-3166
▁!	-3167
▁अर्	-3168
▁देर	-3169
▁introdu	-3170
▁केंद्रीय	-3171
वुड	-3172
rick	-3173
क्षक	-3174
▁inde	-3175
▁wood	-3176
mp	-3177
ौन	-3178
तों	-3179
▁80	-3180
▁atl	-3181
▁seen	-3182
▁went	-3183
▁एक्स	-3184
▁माध्य	-3185
▁developed	-3186
एच	-3187
▁तला	-3188
▁2014	-3189
▁अप्र	-3190
▁मुकाब	-3191
र्ग	-3192
ांड	-3193
▁cas	-3194
itive	-3195
▁aver	-3196
▁बच्चे	-3197
▁विदेश	-3198
▁समिति	-3199
▁indust	-3200
▁न्याया	-3201
खिल	-3202
ूबर	-3203
▁36	-3204
ript	-3205
▁पेट	-3206
▁goal	-3207
▁शराब	-3208
▁begin	-3209
▁नरेंद्र	-3210
चे	-3211
▁A	-3212
बाइल	-3213
▁लिख	-3214
▁साह	-3215
field	-3216
▁2015	-3217
▁देखते	-3218
▁मार्च	-3219
ूब	-3220
ोस	-3221
हाय	-3222
हाल	-3223
▁ce	-3224
▁ft	-3225
▁टै	-3226
किंग	-3227
antic	-3228
▁look	-3229
▁trav	-3230
▁देखा	-3231
▁अमेरिका	-3232
cut	-3233
mit	-3234
▁तरी	-3235
▁यदि	-3236
▁fall	-3237
▁need	-3238
▁read	-3239
▁critics	-3240
▁writing	-3241
▁significant	-3242
दु	-3243
धन	-3244
्ता	-3245
▁ide	-3246
▁sil	-3247
▁vir	-3248
▁suff	-3249
▁जागर	-3250
▁चाहते	-3251
▁america	-3252
▁mc	-3253
▁ज्	-3254
aren	-3255
most	-3256
▁गयी	-3257
▁mich	-3258
ध्यक्ष	-3259
▁अंतिम	-3260
▁kingdom	-3261
ंख	-3262
ीक	-3263
▁ve	-3264
▁रु	-3265
utes	-3266
ानीय	-3267
▁मूल	-3268
ूर्ति	-3269
▁lond	-3270
▁अवसर	-3271
▁कानून	-3272
▁बल्कि	-3273
▁समर्थ	-3274
▁formed	-3275
ूक	-3276
▁45	-3277
▁189	-3278
▁tro	-3279
▁अंत	-3280
▁site	-3281
▁occur	-3282
▁लगाने	-3283
▁engine	-3284
▁london	-3285
▁नेताओं	-3286
▁ly	-3287
▁body	-3288
चारियों	-3289
▁started	-3290
▁कार्यालय	-3291
lo	-3292
ges	-3293
▁शो	-3294
ploy	-3295
rent	-3296
▁ड्र	-3297
▁दिल	-3298
▁rese	-3299
▁देवी	-3300
▁himself	-3301
▁various	-3302
▁गुरुवार	-3303
चर	-3304
तृ	-3305
जाब	-3306
▁आठ	-3307
ably	-3308
▁cam	-3309
▁dev	-3310
ither	-3311
▁फोटो	-3312
▁माना	-3313
▁सीमा	-3314
▁squad	-3315
▁modern	-3316
गल	-3317
जि	-3318
धर	-3319
work	-3320
पक्ष	-3321
▁साफ	-3322
▁ताकि	-3323
▁पीछे	-3324
▁मुद्	-3325
▁roman	-3326
▁मंत्रालय	-3327
fic	-3328
जें	-3329
िंद	-3330
▁तम	-3331
▁mix	-3332
▁base	-3333
▁surv	-3334
▁जिसे	-3335
▁women	-3336
▁father	-3337
▁thought	-3338
▁प्रभावित	-3339
ंगी	-3340
ज्ञान	-3341
▁died	-3342
▁felt	-3343
▁peak	-3344
▁खरीद	-3345
▁पीड़	-3346
▁मोबाइल	-3347
▁सम्मान	-3348
▁स्थानीय	-3349
ik	-3350
to	-3351
▁aud	-3352
▁civ	-3353
▁put	-3354
▁केस	-3355
▁हास	-3356
▁upon	-3357
▁हमें	-3358
▁quest	-3359
▁बेहतर	-3360
▁center	-3361
शनल	-3362
aves	-3363
ened	-3364
▁cou	-3365
▁pra	-3366
▁नार	-3367
▁announced	-3368
▁successful	-3369
30	-3370
गार	-3371
▁जून	-3372
ument	-3373
▁meet	-3374
▁आतंक	-3375
▁using	-3376
▁official	-3377
▁remained	-3378
भव	-3379
▁आख	-3380
fall	-3381
▁नुक	-3382
isted	-3383
lished	-3384
▁areas	-3385
▁noted	-3386
▁special	-3387
ठी	-3388
रिया	-3389
लीवुड	-3390
▁निकल	-3391
▁fleet	-3392
▁कार्ड	-3393
▁street	-3394
▁profess	-3395
▁political	-3396
▁उम्मीदवार	-3397
▁performance	-3398
टन	-3399
दम	-3400
▁ol	-3401
ग्री	-3402
▁कर्	-3403
▁देव	-3404
▁मेड	-3405
▁fund	-3406
▁खत्म	-3407
▁stars	-3408
▁बल्ले	-3409
▁पहुंची	-3410
▁completed	-3411
फ्	-3412
ray	-3413
हास	-3414
alth	-3415
▁अंक	-3416
▁test	-3417
▁जन्म	-3418
▁पहुंचा	-3419
▁originally	-3420
ws	-3421
▁नया	-3422
▁know	-3423
▁उच्च	-3424
▁हासिल	-3425
▁मरीजों	-3426
▁australian	-3427
ष्ण	-3428
▁det	-3429
▁sen	-3430
▁typ	-3431
▁ठीक	-3432
▁prem	-3433
▁उत्पा	-3434
▁निकाल	-3435
ax	-3436
ल्स	-3437
apan	-3438
चारी	-3439
▁fig	-3440
मार्ट	-3441
स्थित	-3442
▁जमीन	-3443
▁relations	-3444
▁eventually	-3445
▁राष्ट्रपति	-3446
▁बल	-3447
त्ता	-3448
▁पर्	-3449
▁सहाय	-3450
▁mccain	-3451
▁months	-3452
▁छात्रों	-3453
श्च	-3454
िटी	-3455
ries	-3456
▁गुप	-3457
▁news	-3458
▁सर्व	-3459
wh	-3460
िकी	-3461
्यो	-3462
▁vo	-3463
▁मश	-3464
▁hon	-3465
▁सैन	-3466
▁range	-3467
▁weeks	-3468
▁caused	-3469
▁established	-3470
▁कर्मचारियों	-3471
sc	-3472
जिट	-3473
▁fac	-3474
▁बदल	-3475
asing	-3476
▁2003	-3477
▁able	-3478
▁phil	-3479
▁निजी	-3480
▁भारी	-3481
▁मजबू	-3482
▁महत्व	-3483
▁produc	-3484
▁नुकसान	-3485
ील	-3486
ald	-3487
irc	-3488
▁pen	-3489
▁behind	-3490
▁depart	-3491
▁promot	-3492
सत	-3493
▁“	-3494
िशा	-3495
क्षित	-3496
▁wall	-3497
▁civil	-3498
▁front	-3499
▁प्रभारी	-3500
फर	-3501
▁ha	-3502
▁fav	-3503
▁sea	-3504
▁पाए	-3505
▁सेना	-3506
▁earli	-3507
▁awards	-3508
▁points	-3509
अल	-3510
▁bur	-3511
iting	-3512
▁james	-3513
▁japan	-3514
▁decided	-3515
▁C	-3516
तरी	-3517
रात	-3518
▁आइ	-3519
प्री	-3520
▁does	-3521
▁विजय	-3522
▁जरूरी	-3523
▁मार्ग	-3524
क्षि	-3525
▁निश	-3526
▁बचा	-3527
▁यही	-3528
▁hill	-3529
▁loss	-3530
▁quar	-3531
▁becom	-3532
▁mother	-3533
मर	-3534
▁’	-3535
▁sn	-3536
क्ता	-3537
▁son	-3538
▁अपरा	-3539
▁कैसे	-3540
▁वक्त	-3541
▁added	-3542
▁उपयोग	-3543
▁पहचान	-3544
▁संक्रमित	-3545
ief	-3546
▁ब्ल	-3547
▁poem	-3548
▁अदाल	-3549
▁एक्ट	-3550
▁थाने	-3551
▁commit	-3552
▁fourth	-3553
▁परिजनों	-3554
▁coll	-3555
▁अच्छा	-3556
▁सितंबर	-3557
▁inn	-3558
▁let	-3559
▁पंजाब	-3560
▁performed	-3561
ogn	-3562
▁अस	-3563
▁hit	-3564
▁2016	-3565
▁धर्म	-3566
▁ट्रेन	-3567
▁भगवान	-3568
▁विचार	-3569
▁संवाद	-3570
▁वैक्सी	-3571
▁important	-3572
▁od	-3573
▁bri	-3574
▁hot	-3575
▁गौर	-3576
▁अगस्त	-3577
▁जिम्मे	-3578
धे	-3579
ूह	-3580
cil	-3581
ush	-3582
्ले	-3583
ones	-3584
▁वरि	-3585
▁देकर	-3586
▁सांसद	-3587
▁region	-3588
केश	-3589
गंज	-3590
aint	-3591
less	-3592
▁vol	-3593
▁help	-3594
▁hold	-3595
▁होकर	-3596
▁impro	-3597
▁entire	-3598
ago	-3599
ंडी	-3600
्मू	-3601
▁एयर	-3602
तिहास	-3603
▁sele	-3604
▁least	-3605
▁round	-3606
▁लोकसभा	-3607
विद्यालय	-3608
▁manager	-3609
▁characters	-3610
▁depression	-3611
▁P	-3612
दीप	-3613
नगर	-3614
▁cop	-3615
▁flor	-3616
▁कृषि	-3617
▁सूत्र	-3618
▁शुरुआत	-3619
▁followed	-3620
झा	-3621
रु	-3622
ida	-3623
▁मॉ	-3624
श्यक	-3625
▁mot	-3626
▁क्ल	-3627
▁लिये	-3628
▁हमला	-3629
idence	-3630
▁राज्यों	-3631
▁finished	-3632
▁ति	-3633
▁फ़	-3634
▁non	-3635
▁बाव	-3636
▁कहीं	-3637
▁novel	-3638
aur	-3639
मति	-3640
ुओं	-3641
▁gal	-3642
▁संत	-3643
स्ताव	-3644
▁कारो	-3645
▁बेहद	-3646
▁मेरे	-3647
ficult	-3648
▁colon	-3649
▁heavy	-3650
▁include	-3651
▁difficult	-3652
साद	-3653
▁du	-3654
▁hy	-3655
▁मई	-3656
enth	-3657
दाता	-3658
▁hol	-3659
▁हार	-3660
▁agre	-3661
▁cost	-3662
▁pred	-3663
▁stri	-3664
▁accom	-3665
▁विद्य	-3666
▁territ	-3667
▁वरिष्ठ	-3668
पू	-3669
rew	-3670
ताह	-3671
▁38	-3672
▁चा	-3673
ully	-3674
िक्ष	-3675
▁मिन	-3676
▁circ	-3677
▁works	-3678
▁events	-3679
▁interv	-3680
▁परेशान	-3681
ape	-3682
oin	-3683
omb	-3684
▁fa	-3685
▁भो	-3686
ream	-3687
ship	-3688
yard	-3689
▁188	-3690
▁voc	-3691
▁भाव	-3692
▁hall	-3693
▁fight	-3694
▁संगठन	-3695
▁killed	-3696
लू	-3697
▁S	-3698
mar	-3699
त्ति	-3700
▁hen	-3701
▁hom	-3702
▁यून	-3703
▁समी	-3704
▁mean	-3705
▁redu	-3706
▁अक्ट	-3707
▁पड़े	-3708
▁style	-3709
▁yards	-3710
▁माध्यम	-3711
▁comment	-3712
किल	-3713
▁चुन	-3714
▁छोट	-3715
▁वोट	-3716
▁शरी	-3717
▁हाद	-3718
antry	-3719
board	-3720
▁viet	-3721
▁अदालत	-3722
▁others	-3723
▁located	-3724
▁बॉलीवुड	-3725
▁प्रस्ताव	-3726
▁राजस्थान	-3727
ung	-3728
wer	-3729
जीत	-3730
▁एड	-3731
्हें	-3732
▁mph	-3733
▁चरण	-3734
▁प्ल	-3735
श्वास	-3736
▁लागू	-3737
▁court	-3738
▁हरिया	-3739
▁प्रकार	-3740
▁कर्मचारी	-3741
go	-3742
▁ठा	-3743
धानी	-3744
▁sex	-3745
▁गति	-3746
▁लखन	-3747
ष्ट्र	-3748
▁परिष	-3749
क्रिया	-3750
▁स्थाप	-3751
ination	-3752
▁leading	-3753
▁अक्टूबर	-3754
टने	-3755
लाव	-3756
iers	-3757
rict	-3758
वादी	-3759
▁san	-3760
▁साइ	-3761
▁rank	-3762
▁मुला	-3763
▁parli	-3764
▁जुलाई	-3765
कल	-3766
ंकर	-3767
orts	-3768
west	-3769
ांति	-3770
िकों	-3771
▁mer	-3772
▁saw	-3773
▁cond	-3774
gether	-3775
▁france	-3776
▁डॉक्टर	-3777
▁victory	-3778
▁together	-3779
ंव	-3780
ुम	-3781
करी	-3782
पास	-3783
▁cru	-3784
▁बनी	-3785
▁chic	-3786
▁तैयारी	-3787
▁हिस्सा	-3788
▁director	-3789
▁प्रक्रिया	-3790
ित्र	-3791
▁ben	-3792
▁जता	-3793
▁बंग	-3794
oring	-3795
▁conn	-3796
▁doll	-3797
▁तेजी	-3798
ressed	-3799
rought	-3800
▁close	-3801
▁आवश्यक	-3802
ael	-3803
tim	-3804
स्व	-3805
▁घा	-3806
king	-3807
▁sal	-3808
▁गृह	-3809
▁टिक	-3810
▁दीप	-3811
igned	-3812
▁bird	-3813
▁अगले	-3814
▁कंपन	-3815
olution	-3816
▁republ	-3817
▁अप्रैल	-3818
▁प्रकाश	-3819
▁subsequ	-3820
खी	-3821
ara	-3822
reg	-3823
वें	-3824
▁enc	-3825
▁लॉक	-3826
तृत्व	-3827
▁निरी	-3828
▁जनवरी	-3829
▁जम्मू	-3830
▁served	-3831
su	-3832
▁bi	-3833
▁ऑन	-3834
▁भु	-3835
ivid	-3836
डाउन	-3837
▁फ्र	-3838
▁2019	-3839
ington	-3840
▁carey	-3841
▁अभिने	-3842
▁towards	-3843
▁appeared	-3844
▁M	-3845
emy	-3846
ष्टि	-3847
▁bir	-3848
▁cer	-3849
▁meas	-3850
▁परिव	-3851
▁बेटी	-3852
▁दक्षि	-3853
▁features	-3854
ैक	-3855
दाय	-3856
मता	-3857
▁70	-3858
▁लो	-3859
▁rap	-3860
▁anim	-3861
▁grow	-3862
▁दुर्	-3863
ounted	-3864
▁party	-3865
▁मैंने	-3866
▁almost	-3867
▁commerc	-3868
▁business	-3869
▁parliament	-3870
▁नव	-3871
▁दिस	-3872
ample	-3873
▁2020	-3874
▁तैना	-3875
aching	-3876
ctions	-3877
▁winds	-3878
▁इलाके	-3879
▁मामलों	-3880
▁created	-3881
▁records	-3882
▁working	-3883
-2	-3884
टल	-3885
den	-3886
▁फॉ	-3887
▁रण	-3888
▁सल	-3889
▁hard	-3890
▁लाइन	-3891
icated	-3892
▁रहेगा	-3893
▁inform	-3894
▁सुनवाई	-3895
▁discover	-3896
▁transport	-3897
रल	-3898
ese	-3899
▁पॉ	-3900
▁reb	-3901
▁ज्ञ	-3902
ators	-3903
▁2000	-3904
▁2001	-3905
▁rose	-3906
▁भेजा	-3907
▁देशों	-3908
▁बावजूद	-3909
थि	-3910
पन	-3911
rest	-3912
▁ach	-3913
▁आंक	-3914
▁लाइ	-3915
▁jour	-3916
▁टीका	-3917
ements	-3918
▁condom	-3919
▁damage	-3920
अप	-3921
▁ny	-3922
▁आश	-3923
▁खो	-3924
hest	-3925
द्धि	-3926
ार्म	-3927
▁mex	-3928
▁estim	-3929
▁पढ़ें	-3930
▁forest	-3931
ological	-3932
▁नेतृत्व	-3933
▁republic	-3934
ino	-3935
▁पस	-3936
▁तेल	-3937
ality	-3938
enced	-3939
▁mach	-3940
▁खर्च	-3941
▁ट्वी	-3942
▁goals	-3943
▁union	-3944
▁wales	-3945
▁florida	-3946
▁relationship	-3947
हित	-3948
ृति	-3949
▁foc	-3950
▁समु	-3951
▁soon	-3952
▁चोरी	-3953
▁नागर	-3954
▁brown	-3955
▁horse	-3956
▁राजनीतिक	-3957
चल	-3958
nes	-3959
रों	-3960
cast	-3961
थमिक	-3962
▁nar	-3963
▁कित	-3964
▁वार	-3965
▁stop	-3966
▁wife	-3967
▁गिरा	-3968
▁लखनऊ	-3969
▁लगाए	-3970
ड़ियों	-3971
▁जुड़े	-3972
▁individ	-3973
▁playing	-3974
▁recording	-3975
▁?	-3976
वंबर	-3977
▁den	-3978
▁दोप	-3979
▁अग्र	-3980
▁खुला	-3981
▁पाया	-3982
▁निर्ण	-3983
ization	-3984
▁quarter	-3985
▁संबंधित	-3986
▁हरियाणा	-3987
▁independ	-3988
▁infantry	-3989
फ़	-3990
हान	-3991
▁di	-3992
▁एल	-3993
▁हॉ	-3994
year	-3995
▁mad	-3996
▁किस	-3997
▁किलो	-3998
▁पूजा	-3999
iction	-4000
▁relig	-4001
▁recogn	-4002
▁process	-4003
▁tradition	-4004
eler	-4005
▁bay	-4006
▁खूब	-4007
iated	-4008
▁2021	-4009
▁draw	-4010
▁rail	-4011
▁जवान	-4012
ference	-4013
▁action	-4014
▁george	-4015
चीत	-4016
▁दस	-4017
cher	-4018
▁bey	-4019
▁big	-4020
▁रंग	-4021
▁past	-4022
▁david	-4023
▁earth	-4024
▁पुत्र	-4025
▁मैदान	-4026
▁wanted	-4027
डल	-4028
।'	-4029
▁सत	-4030
▁wid	-4031
▁host	-4032
▁कहते	-4033
▁स्वी	-4034
▁नवंबर	-4035
▁opened	-4036
▁प्राथमिक	-4037
▁initially	-4038
िप	-4039
arn	-4040
जों	-4041
▁case	-4042
▁happ	-4043
▁अंदर	-4044
▁nomin	-4045
▁taken	-4046
▁संभाव	-4047
▁proble	-4048
▁बातचीत	-4049
▁atlantic	-4050
my	-4051
po	-4052
dle	-4053
for	-4054
ंता	-4055
ष्य	-4056
ways	-4057
▁nat	-4058
▁उल्	-4059
तियों	-4060
▁navy	-4061
▁राहत	-4062
▁परिषद	-4063
▁पूछता	-4064
▁federer	-4065
घा	-4066
ड़ने	-4067
▁त्र	-4068
▁cycl	-4069
▁flood	-4070
▁quick	-4071
▁accept	-4072
▁खिलाड़ी	-4073
▁संयुक्त	-4074
een	-4075
▁भू	-4076
▁मं	-4077
head	-4078
reng	-4079
▁इंग	-4080
▁कदम	-4081
▁laun	-4082
▁stay	-4083
▁सूची	-4084
▁achie	-4085
▁robert	-4086
▁regular	-4087
▁क्षेत्रों	-4088
▁appearance	-4089
ेक	-4090
▁B	-4091
केट	-4092
फ्ट	-4093
▁32	-4094
ceed	-4095
oney	-4096
ected	-4097
▁born	-4098
▁पार्	-4099
▁magaz	-4100
ष्ट्रीय	-4101
▁वर्षीय	-4102
▁council	-4103
▁प्रतिनि	-4104
pec	-4105
ौती	-4106
▁ze	-4107
▁धो	-4108
▁मल	-4109
anch	-4110
▁sat	-4111
▁सिल	-4112
▁lack	-4113
▁पालन	-4114
▁मौसम	-4115
elling	-4116
▁अच्छी	-4117
▁regard	-4118
▁छात्रा	-4119
▁outside	-4120
▁respect	-4121
▁operations	-4122
चन	-4123
ota	-4124
भार	-4125
▁exc	-4126
▁असर	-4127
▁तत्	-4128
▁संस	-4129
▁mary	-4130
▁बेटे	-4131
▁ट्वीट	-4132
▁भूमिका	-4133
▁aircraft	-4134
▁elements	-4135
क्‍	-4136
▁33	-4137
ency	-4138
▁pac	-4139
▁पदा	-4140
ordan	-4141
▁देना	-4142
▁treat	-4143
▁इनमें	-4144
▁पूछताछ	-4145
▁स्टेशन	-4146
aly	-4147
hic	-4148
र्न	-4149
व्य	-4150
down	-4151
▁tal	-4152
▁मुक	-4153
▁condu	-4154
▁either	-4155
▁कश्मीर	-4156
▁generally	-4157
▁commission	-4158
▁particularly	-4159
▁गण	-4160
▁छो	-4161
▁कही	-4162
▁विष	-4163
धियों	-4164
▁room	-4165
▁पहला	-4166
▁रहते	-4167
▁महारा	-4168
▁jordan	-4169
▁summer	-4170
▁मेडिकल	-4171
▁ग्रामीणों	-4172
pr	-4173
फे	-4174
ोलन	-4175
▁आन	-4176
reek	-4177
wood	-4178
▁ath	-4179
▁exe	-4180
ought	-4181
▁rain	-4182
▁carol	-4183
ॉक	-4184
ica	-4185
जाम	-4186
निक	-4187
िरी	-4188
▁पौ	-4189
▁esc	-4190
▁बोल	-4191
▁deal	-4192
▁oliv	-4193
▁भीड़	-4194
▁वार्ड	-4195
▁secret	-4196
▁streng	-4197
70	-4198
ण्ड	-4199
medi	-4200
▁beg	-4201
▁गये	-4202
▁शान	-4203
स्कार	-4204
▁feel	-4205
▁तरीके	-4206
▁दोपहर	-4207
▁न्याय	-4208
▁flight	-4209
▁ऑनलाइन	-4210
▁मिलेगा	-4211
▁सप्ताह	-4212
▁average	-4213
▁designed	-4214
▁provided	-4215
ौल	-4216
irl	-4217
ेटी	-4218
▁90	-4219
चिका	-4220
त्ती	-4221
ित्य	-4222
▁आंद	-4223
▁मजद	-4224
▁2002	-4225
▁acad	-4226
▁move	-4227
▁thom	-4228
▁आत्म	-4229
ential	-4230
▁करेगी	-4231
▁saying	-4232
▁वैक्सीन	-4233
▁believed	-4234
▁contract	-4235
▁european	-4236
▁association	-4237
men	-4238
ब्ल	-4239
▁00	-4240
▁ru	-4241
here	-4242
▁key	-4243
▁nav	-4244
▁इंद	-4245
▁कला	-4246
conom	-4247
▁sour	-4248
▁बनने	-4249
▁जिलों	-4250
▁भोपाल	-4251
▁invest	-4252
▁प्रसाद	-4253
▁brought	-4254
▁featured	-4255
ze	-4256
िग	-4257
umb	-4258
xas	-4259
त्स	-4260
ेशा	-4261
▁75	-4262
एसपी	-4263
▁वर्ग	-4264
▁शरीर	-4265
▁vietn	-4266
▁female	-4267
▁forced	-4268
▁office	-4269
▁scient	-4270
▁श्रद्ध	-4271
▁allowed	-4272
▁college	-4273
ंसा	-4274
असल	-4275
देव	-4276
back	-4277
वाली	-4278
▁neg	-4279
▁इंत	-4280
▁गुज	-4281
▁यानी	-4282
▁गुप्ता	-4283
▁राजनीति	-4284
▁directed	-4285
▁विद्यालय	-4286
sel	-4287
uck	-4288
ानि	-4289
ouri	-4290
▁कब्	-4291
▁फाय	-4292
▁बिक	-4293
ville	-4294
▁मिनट	-4295
▁creat	-4296
▁वायरल	-4297
▁सामना	-4298
▁archae	-4299
▁example	-4300
▁respons	-4301
▁station	-4302
▁buildings	-4303
▁interview	-4304
▁commercial	-4305
tr	-4306
bor	-4307
pan	-4308
ाइम	-4309
्‍य	-4310
▁1.	-4311
क्कर	-4312
▁आयु	-4313
▁लें	-4314
ption	-4315
श्चिम	-4316
▁reve	-4317
▁sequ	-4318
▁इतना	-4319
▁पसंद	-4320
▁घोषित	-4321
▁दरअसल	-4322
▁econom	-4323
▁intens	-4324
▁chicago	-4325
▁percent	-4326
▁लॉकडाउन	-4327
▁missouri	-4328
▁additional	-4329
ude	-4330
▁फी	-4331
ctor	-4332
▁ber	-4333
▁आते	-4334
▁come	-4335
▁आर्थ	-4336
action	-4337
▁troops	-4338
ंघ	-4339
▁I	-4340
ियल	-4341
aker	-4342
▁परिस	-4343
▁हिंद	-4344
▁minor	-4345
▁प्रवेश	-4346
▁महाराष्ट्र	-4347
of	-4348
ugh	-4349
▁cut	-4350
▁समा	-4351
▁जाकर	-4352
▁दावा	-4353
cutive	-4354
▁दिसंबर	-4355
▁याचिका	-4356
▁सुप्री	-4357
▁earlier	-4358
,5	-4359
तक	-4360
urb	-4361
ंदा	-4362
िक्	-4363
▁ul	-4364
▁mur	-4365
▁हमने	-4366
▁मतदान	-4367
▁rather	-4368
▁निर्णय	-4369
▁राजधानी	-4370
▁replaced	-4371
वट	-4372
acy	-4373
oid	-4374
ांक	-4375
▁ey	-4376
ming	-4377
quar	-4378
बीआई	-4379
▁bal	-4380
aland	-4381
erous	-4382
▁1970	-4383
▁priv	-4384
▁जरिए	-4385
▁दिवस	-4386
▁मुश्	-4387
▁लगता	-4388
ishing	-4389
ointed	-4390
▁change	-4391
▁passed	-4392
oss	-4393
स्ती	-4394
ॉर्ड	-4395
▁एंड	-4396
▁बजट	-4397
▁anti	-4398
▁fell	-4399
▁girl	-4400
▁grad	-4401
▁heav	-4402
▁trib	-4403
▁कराई	-4404
▁domin	-4405
▁stage	-4406
ibility	-4407
▁instit	-4408
▁object	-4409
▁समर्थन	-4410
▁महामारी	-4411
▁N	-4412
ask	-4413
gen	-4414
्रो	-4415
ितों	-4416
▁jer	-4417
▁ven	-4418
▁बिल	-4419
▁card	-4420
▁race	-4421
▁हमले	-4422
▁hours	-4423
▁mater	-4424
▁separ	-4425
▁मजबूत	-4426
▁अधिकार	-4427
▁opening	-4428
▁increased	-4429
ॉय	-4430
bar	-4431
्यु	-4432
▁चै	-4433
▁cho	-4434
ength	-4435
▁बराम	-4436
▁हालत	-4437
▁इंग्ल	-4438
▁highest	-4439
▁previously	-4440
tt	-4441
लाह	-4442
imes	-4443
▁500	-4444
▁सभा	-4445
▁diss	-4446
▁prior	-4447
▁दिखाई	-4448
▁सुधार	-4449
▁reason	-4450
▁आर्थिक	-4451
▁industry	-4452
▁question	-4453
ana	-4454
bit	-4455
ापन	-4456
▁uk	-4457
▁mac	-4458
▁pay	-4459
▁mont	-4460
▁poor	-4461
▁word	-4462
▁प्ले	-4463
▁deter	-4464
▁सीरीज	-4465
▁canada	-4466
▁signed	-4467
▁दक्षिण	-4468
▁involved	-4469
gg	-4470
aps	-4471
िक्र	-4472
▁saf	-4473
▁educ	-4474
▁plat	-4475
▁viol	-4476
▁संजय	-4477
▁above	-4478
▁subst	-4479
▁करेगा	-4480
▁हमेशा	-4481
▁possible	-4482
▁विश्वविद्यालय	-4483
iff	-4484
▁गठ	-4485
read	-4486
tery	-4487
वाही	-4488
▁ऊपर	-4489
▁ओवर	-4490
तंत्र	-4491
श्चित	-4492
▁जाये	-4493
▁जैसी	-4494
▁योगी	-4495
ession	-4496
▁resul	-4497
▁study	-4498
▁threat	-4499
▁उत्तरा	-4500
▁olivier	-4501
▁पेट्रोल	-4502
▁squadron	-4503
▁beginning	-4504
yn	-4505
ड्ड	-4506
वरण	-4507
aper	-4508
▁inj	-4509
▁must	-4510
▁अपील	-4511
▁रिली	-4512
▁assist	-4513
▁आंदोलन	-4514
▁संस्थान	-4515
▁उद	-4516
▁लै	-4517
▁कले	-4518
▁दबा	-4519
▁साब	-4520
erson	-4521
ेलिया	-4522
▁norm	-4523
▁अमित	-4524
▁दिशा	-4525
▁सफाई	-4526
▁प्रदान	-4527
▁current	-4528
▁increasing	-4529
▁महत्वपूर्ण	-4530
धु	-4531
ूड	-4532
।’	-4533
उंट	-4534
▁ख़	-4535
▁गे	-4536
▁थो	-4537
▁wil	-4538
▁बर्	-4539
heast	-4540
▁paul	-4541
▁कपूर	-4542
▁प्रव	-4543
▁दोस्त	-4544
▁बरामद	-4545
▁joined	-4546
▁regiment	-4547
▁conference	-4548
60	-4549
नो	-4550
्न	-4551
▁अश	-4552
ique	-4553
स्टर	-4554
्तान	-4555
▁fly	-4556
▁pot	-4557
▁sus	-4558
▁बिग	-4559
stand	-4560
▁ident	-4561
▁pract	-4562
▁score	-4563
▁बदलाव	-4564
▁immedi	-4565
▁middle	-4566
▁michael	-4567
▁mounted	-4568
▁billboard	-4569
ंटी	-4570
जरी	-4571
▁गौ	-4572
स्ते	-4573
▁गाय	-4574
▁लंब	-4575
aring	-4576
जेंसी	-4577
▁mult	-4578
▁उत्स	-4579
▁एसडी	-4580
▁lower	-4581
▁अतिरिक	-4582
▁पश्चिम	-4583
▁reviews	-4584
▁स्कूलों	-4585
▁न्यायालय	-4586
gl	-4587
रीब	-4588
ैया	-4589
▁अली	-4590
▁वेब	-4591
▁बंगाल	-4592
▁member	-4593
▁mexico	-4594
▁richard	-4595
▁society	-4596
40	-4597
सन	-4598
धरी	-4599
▁तह	-4600
कारों	-4601
▁lang	-4602
▁shot	-4603
▁money	-4604
▁theat	-4605
▁pacific	-4606
▁संभावना	-4607
▁approxim	-4608
ंकी	-4609
लिम	-4610
साय	-4611
ucle	-4612
uter	-4613
▁rul	-4614
▁चले	-4615
ching	-4616
istic	-4617
▁1990	-4618
▁blue	-4619
▁situ	-4620
▁एसपी	-4621
▁माता	-4622
▁रहता	-4623
▁parts	-4624
▁think	-4625
▁उपस्थित	-4626
▁required	-4627
▁transfer	-4628
बाल	-4629
हरे	-4630
▁उपा	-4631
▁चयन	-4632
▁झार	-4633
▁give	-4634
▁insp	-4635
▁phys	-4636
▁उम्र	-4637
▁debut	-4638
▁going	-4639
▁media	-4640
▁सेंटर	-4641
▁हमारी	-4642
▁इतिहास	-4643
▁community	-4644
▁H	-4645
उंड	-4646
band	-4647
like	-4648
ving	-4649
▁185	-4650
▁fut	-4651
▁ren	-4652
▁उद्	-4653
▁डाय	-4654
asion	-4655
▁hosp	-4656
▁उनसे	-4657
ipated	-4658
▁angel	-4659
▁exist	-4660
▁space	-4661
▁athlet	-4662
▁employ	-4663
▁उद्योग	-4664
▁विपक्ष	-4665
्वर	-4666
ateg	-4667
▁आवा	-4668
▁asse	-4669
▁chap	-4670
▁clos	-4671
▁गर्म	-4672
▁शासन	-4673
▁staff	-4674
▁travel	-4675
▁turned	-4676
▁worked	-4677
▁मिश्रा	-4678
▁contest	-4679
▁zealand	-4680
▁मुश्किल	-4681
▁remaining	-4682
ox	-4683
रम	-4684
ाइड	-4685
ires	-4686
▁रखी	-4687
rated	-4688
▁scre	-4689
▁तलाश	-4690
▁दिला	-4691
▁scene	-4692
▁social	-4693
▁फिलहाल	-4694
▁claimed	-4695
▁magazine	-4696
▁अतिरिक्त	-4697
▁operation	-4698
oon	-4699
onst	-4700
▁दवा	-4701
▁नदी	-4702
▁खराब	-4703
▁मंडल	-4704
▁fifth	-4705
▁except	-4706
▁proper	-4707
▁subject	-4708
स्ट्रेलिया	-4709
▁introduced	-4710
ेन	-4711
कात	-4712
बोध	-4713
▁गलत	-4714
▁भवन	-4715
▁1960	-4716
▁appl	-4717
▁लगाई	-4718
▁heart	-4719
▁remov	-4720
▁चौधरी	-4721
▁फरवरी	-4722
▁indian	-4723
▁placed	-4724
▁temper	-4725
▁section	-4726
▁इंग्लैंड	-4727
itz	-4728
ulf	-4729
wor	-4730
iser	-4731
vert	-4732
देशक	-4733
▁bab	-4734
▁lake	-4735
▁उससे	-4736
▁गोली	-4737
▁रिश्	-4738
▁maint	-4739
▁units	-4740
▁withd	-4741
ailable	-4742
▁studio	-4743
▁शानदार	-4744
▁कंपनियों	-4745
दर	-4746
mon	-4747
तमान	-4748
▁nix	-4749
▁समूह	-4750
▁rapid	-4751
▁spent	-4752
▁teams	-4753
▁आसपास	-4754
▁तैनात	-4755
▁length	-4756
▁virgin	-4757
▁बढ़ाने	-4758
▁brother	-4759
▁सुप्रीम	-4760
▁approximately	-4761
ॉट	-4762
val	-4763
कृत	-4764
नीय	-4765
ania	-4766
face	-4767
ground	-4768
▁defend	-4769
▁व्यक्त	-4770
▁आरोपियों	-4771
▁broadcast	-4772
▁commander	-4773
onc	-4774
म्प	-4775
सों	-4776
▁टा	-4777
▁jew	-4778
▁अवै	-4779
arily	-4780
iforn	-4781
▁seem	-4782
▁told	-4783
▁whom	-4784
▁admin	-4785
▁रक्षा	-4786
▁taking	-4787
▁अनुमति	-4788
▁captain	-4789
▁nations	-4790
▁overall	-4791
▁material	-4792
ett	-4793
▁कोल	-4794
anned	-4795
aries	-4796
▁rang	-4797
ियोजना	-4798
▁chall	-4799
▁obser	-4800
▁twent	-4801
▁एक्सप	-4802
▁पर्या	-4803
▁प्लान	-4804
▁failed	-4805
▁शिक्षक	-4806
▁सदस्यों	-4807
▁californ	-4808
ma	-4809
कम	-4810
ump	-4811
अलग	-4812
ानों	-4813
▁upp	-4814
▁स्‍	-4815
▁face	-4816
▁मेरी	-4817
ulated	-4818
▁board	-4819
▁कमेटी	-4820
▁पूर्ण	-4821
▁complet	-4822
▁forward	-4823
▁shortly	-4824
▁मुकाबले	-4825
▁सूत्रों	-4826
▁becoming	-4827
▁positive	-4828
▁pressure	-4829
▁परियोजना	-4830
▁नो	-4831
▁‘‘	-4832
ties	-4833
▁aut	-4834
▁tou	-4835
▁खोल	-4836
rison	-4837
▁crew	-4838
▁muse	-4839
▁nash	-4840
▁nine	-4841
▁टिकट	-4842
▁देता	-4843
▁प्री	-4844
▁संकट	-4845
pected	-4846
▁गाड़ी	-4847
▁निवेश	-4848
▁बताते	-4849
▁बनाकर	-4850
▁enough	-4851
▁praised	-4852
▁मुलाकात	-4853
▁episodes	-4854
▁research	-4855
)।	-4856
ih	-4857
लाल	-4858
▁धर	-4859
पुरा	-4860
ियोग	-4861
▁dro	-4862
▁lik	-4863
▁oce	-4864
▁rac	-4865
▁vot	-4866
▁काल	-4867
▁किश	-4868
▁जोर	-4869
iding	-4870
▁jenn	-4871
▁male	-4872
▁अवैध	-4873
▁आपकी	-4874
▁पटेल	-4875
▁बिल्	-4876
▁henry	-4877
▁nucle	-4878
▁somet	-4879
▁visit	-4880
▁thomas	-4881
▁wheeler	-4882
▁training	-4883
.5	-4884
rd	-4885
ोजन	-4886
aled	-4887
विंद	-4888
▁ran	-4889
▁अंग	-4890
▁तुल	-4891
▁फ्ल	-4892
▁मोह	-4893
elled	-4894
tered	-4895
▁bowl	-4896
▁dead	-4897
▁lord	-4898
▁आईपी	-4899
▁जमकर	-4900
▁नीचे	-4901
▁पैसे	-4902
▁creek	-4903
▁shows	-4904
▁लक्ष्य	-4905
▁evidence	-4906
▁christian	-4907
▁estimated	-4908
inal	-4909
▁dig	-4910
▁चौक	-4911
▁2018	-4912
▁deep	-4913
▁tons	-4914
▁तारी	-4915
▁grant	-4916
▁green	-4917
▁nixon	-4918
▁police	-4919
▁गुजरात	-4920
▁झारखंड	-4921
▁वृद्धि	-4922
▁largest	-4923
▁available	-4924
zz	-4925
खे	-4926
ट्ट	-4927
णाम	-4928
दिन	-4929
साथ	-4930
▁34	-4931
▁42	-4932
▁nb	-4933
▁घु	-4934
ases	-4935
clus	-4936
vest	-4937
्यार	-4938
▁tom	-4939
▁सम्	-4940
▁सोन	-4941
▁सुपर	-4942
▁break	-4943
▁फैसले	-4944
▁मिलकर	-4945
▁remain	-4946
▁silver	-4947
▁britain	-4948
▁running	-4949
▁canadian	-4950
▁establish	-4951
99	-4952
सब	-4953
ker	-4954
ores	-4955
pped	-4956
▁187	-4957
▁nin	-4958
▁sem	-4959
▁पहल	-4960
▁prob	-4961
▁पैदा	-4962
▁बीते	-4963
▁मौका	-4964
▁सत्र	-4965
▁irish	-4966
ributed	-4967
▁contem	-4968
▁health	-4969
▁museum	-4970
▁स्पष्ट	-4971
▁अग्रवाल	-4972
राष्ट्रीय	-4973
▁intended	-4974
▁surround	-4975
▁department	-4976
22	-4977
उट	-4978
amb	-4979
वनी	-4980
▁kh	-4981
pool	-4982
time	-4983
राने	-4984
▁imm	-4985
▁rob	-4986
▁cell	-4987
▁dark	-4988
▁roll	-4989
▁टीवी	-4990
▁लेते	-4991
▁lines	-4992
▁tourn	-4993
▁प्रयोग	-4994
ार्थियों	-4995
▁complete	-4996
▁उत्तराखंड	-4997
▁california	-4998
▁कार्यकर्ताओं	-4999
),	-5000
टो	-5001
सु	-5002
anna	-5003
thod	-5004
नियर	-5005
वाना	-5006
▁era	-5007
▁कोत	-5008
▁बेच	-5009
▁भवि	-5010
▁सजा	-5011
under	-5012
▁hous	-5013
▁slow	-5014
▁अखिल	-5015
▁खड़े	-5016
▁liver	-5017
▁upper	-5018
▁मजदूर	-5019
▁रिलीज	-5020
▁हादसे	-5021
▁africa	-5022
▁writer	-5023
▁network	-5024
▁चिकित्स	-5025
▁decision	-5026
▁प्रशिक्ष	-5027
▁appointed	-5028
खर	-5029
पद	-5030
ams	-5031
▁39	-5032
▁ox	-5033
▁pu	-5034
lymp	-5035
सगढ़	-5036
▁doc	-5037
▁gar	-5038
▁उसी	-5039
▁मुह	-5040
▁बनाई	-5041
▁सलाह	-5042
mitted	-5043
▁lyric	-5044
▁olymp	-5045
▁चंद्र	-5046
▁नौकरी	-5047
▁nearly	-5048
▁भविष्य	-5049
▁primary	-5050
▁winning	-5051
▁वर्तमान	-5052
▁headquar	-5053
कुर	-5054
न्द	-5055
फिक	-5056
ियार	-5057
▁bra	-5058
▁fer	-5059
ready	-5060
▁छोटे	-5061
▁डॉलर	-5062
▁रहती	-5063
▁radio	-5064
▁woman	-5065
▁अच्छे	-5066
▁विस्त	-5067
▁limited	-5068
▁critical	-5069
▁professional	-5070
aph	-5071
bur	-5072
edy	-5073
lor	-5074
ows	-5075
हली	-5076
tles	-5077
▁hop	-5078
▁lif	-5079
using	-5080
▁1995	-5081
▁wild	-5082
▁चालक	-5083
▁मुस्	-5084
▁espec	-5085
▁villa	-5086
▁नोटिस	-5087
▁सफलता	-5088
ication	-5089
osition	-5090
▁changes	-5091
▁subsequently	-5092
oo	-5093
इस	-5094
पे	-5095
मि	-5096
oke	-5097
तीश	-5098
राह	-5099
रासत	-5100
वानी	-5101
िवार	-5102
▁our	-5103
▁किन	-5104
atory	-5105
▁1999	-5106
▁type	-5107
▁कड़ी	-5108
▁भुगत	-5109
▁सुनी	-5110
porary	-5111
▁stone	-5112
▁तीनों	-5113
ography	-5114
▁तत्काल	-5115
▁damaged	-5116
▁ordered	-5117
▁सामान्य	-5118
▁निरीक्षण	-5119
▁especially	-5120
uel	-5121
▁ali	-5122
▁boy	-5123
▁mos	-5124
▁अभि	-5125
▁रोग	-5126
▁pain	-5127
▁जिंद	-5128
▁ट्रै	-5129
▁india	-5130
▁issue	-5131
▁जिसका	-5132
▁परिसर	-5133
▁वित्त	-5134
▁पीड़ित	-5135
▁already	-5136
▁awarded	-5137
▁finally	-5138
▁स्मार्ट	-5139
▁students	-5140
▁बल्लेबाज	-5141
क़	-5142
यं	-5143
माश	-5144
लेट	-5145
▁48	-5146
▁फा	-5147
fect	-5148
्रीन	-5149
light	-5150
▁तहसी	-5151
▁पर्य	-5152
▁सवार	-5153
▁tower	-5154
▁उपचार	-5155
▁प्रता	-5156
▁सिद्ध	-5157
▁सीटों	-5158
▁moving	-5159
▁मिलेगी	-5160
▁minutes	-5161
▁science	-5162
ीत	-5163
nal	-5164
नेट	-5165
प्त	-5166
वेज	-5167
▁2,	-5168
▁हट	-5169
iter	-5170
स्तव	-5171
ाजिक	-5172
▁dut	-5173
▁mom	-5174
▁pan	-5175
▁कैम	-5176
▁जित	-5177
▁1980	-5178
▁poet	-5179
▁thus	-5180
▁brief	-5181
▁शांति	-5182
▁assemb	-5183
▁defeat	-5184
त्तीसगढ़	-5185
▁sometimes	-5186
▁structure	-5187
de	-5188
थम	-5189
the	-5190
ंडा	-5191
फोन	-5192
वर्	-5193
▁emp	-5194
▁exh	-5195
▁खुल	-5196
▁fans	-5197
▁निभा	-5198
स्ट्री	-5199
▁ocean	-5200
▁जिसकी	-5201
▁दूसरा	-5202
▁प्रिय	-5203
▁रोकने	-5204
▁better	-5205
▁परिणाम	-5206
▁arrived	-5207
▁cyclone	-5208
▁friends	-5209
▁अमेरिकी	-5210
▁नियंत्र	-5211
▁प्रत्या	-5212
▁territory	-5213
▁experience	-5214
सिक	-5215
ाले	-5216
gypt	-5217
न्ना	-5218
सेना	-5219
ार्ज	-5220
▁got	-5221
▁lou	-5222
▁mel	-5223
▁पां	-5224
orial	-5225
▁fail	-5226
▁फाइन	-5227
▁बाकी	-5228
▁voice	-5229
▁साबित	-5230
ilities	-5231
▁future	-5232
▁larger	-5233
▁संस्था	-5234
▁singles	-5235
▁committe	-5236
▁defeated	-5237
उस	-5238
▁पल	-5239
uals	-5240
त्मक	-5241
र्गत	-5242
्यता	-5243
ining	-5244
▁disp	-5245
▁धारा	-5246
▁श्रे	-5247
▁daugh	-5248
▁egypt	-5249
▁might	-5250
▁mixed	-5251
▁paren	-5252
▁latter	-5253
▁musical	-5254
▁परेशानी	-5255
▁liverpool	-5256
ula	-5257
▁आल	-5258
बारी	-5259
▁150	-5260
▁der	-5261
▁fow	-5262
▁tar	-5263
▁अका	-5264
▁आता	-5265
▁गोल	-5266
▁फसल	-5267
▁सोच	-5268
▁larg	-5269
▁vers	-5270
▁आवास	-5271
▁किये	-5272
▁speed	-5273
▁touch	-5274
▁मास्क	-5275
▁always	-5276
▁oldham	-5277
▁quickly	-5278
▁increase	-5279
key	-5280
hens	-5281
oman	-5282
ेंडर	-5283
▁amb	-5284
▁pow	-5285
▁कौन	-5286
▁मगर	-5287
धिकार	-5288
▁प्ला	-5289
▁विषय	-5290
▁bring	-5291
▁coach	-5292
▁compl	-5293
▁ended	-5294
▁films	-5295
▁traff	-5296
▁ठाकुर	-5297
▁प्रेम	-5298
▁certain	-5299
▁village	-5300
नल	-5301
ste	-5302
पीट	-5303
well	-5304
हम्म	-5305
▁अमर	-5306
▁वकी	-5307
▁संभ	-5308
riage	-5309
▁1950	-5310
▁penn	-5311
▁अफसर	-5312
▁मुकद	-5313
▁asked	-5314
▁clear	-5315
▁scott	-5316
▁texas	-5317
▁today	-5318
▁लड़की	-5319
▁itself	-5320
▁airport	-5321
▁stories	-5322
▁specific	-5323
▁छत्तीसगढ़	-5324
▁competition	-5325
▁headquarters	-5326
ume	-5327
▁mr	-5328
▁धी	-5329
lect	-5330
वधान	-5331
▁abs	-5332
▁bad	-5333
▁खुश	-5334
▁चली	-5335
▁तिव	-5336
▁संर	-5337
▁सुना	-5338
▁स्थल	-5339
▁peter	-5340
▁इंस्ट	-5341
▁सलमान	-5342
itation	-5343
▁bridge	-5344
▁native	-5345
▁display	-5346
▁entered	-5347
▁leaving	-5348
▁provide	-5349
शु	-5350
att	-5351
▁बू	-5352
▁शौ	-5353
ुरुष	-5354
▁400	-5355
▁कॉल	-5356
▁तभी	-5357
alled	-5358
ग्राम	-5359
▁food	-5360
▁idea	-5361
▁अर्थ	-5362
▁खाने	-5363
▁चुना	-5364
▁ट्रक	-5365
▁लगने	-5366
▁लाने	-5367
▁समार	-5368
▁गतिवि	-5369
▁तहसील	-5370
▁पुरुष	-5371
▁fowler	-5372
▁square	-5373
▁तिवारी	-5374
▁प्रचार	-5375
▁concern	-5376
-20	-5377
यात	-5378
▁cm	-5379
aded	-5380
olic	-5381
▁गर्	-5382
▁चां	-5383
▁mart	-5384
▁जरूर	-5385
▁तोड़	-5386
▁पारी	-5387
▁बुला	-5388
▁liter	-5389
▁रहेगी	-5390
▁जिनमें	-5391
▁समारोह	-5392
▁discuss	-5393
▁आपूर्ति	-5394
▁proposed	-5395
▁शिक्षकों	-5396
je	-5397
gar	-5398
ket	-5399
फ्र	-5400
▁37	-5401
▁एफ	-5402
िक्स	-5403
▁गुर	-5404
ेश्वर	-5405
▁tenn	-5406
▁wide	-5407
selves	-5408
▁favor	-5409
▁trade	-5410
▁कोहली	-5411
▁नाराज	-5412
▁डिग्री	-5413
▁कारोबार	-5414
▁administ	-5415
▁supported	-5416
ॉन	-5417
।"	-5418
▁एच	-5419
abor	-5420
teen	-5421
▁ban	-5422
▁deg	-5423
▁pie	-5424
▁जाय	-5425
दारों	-5426
▁अक्ष	-5427
▁सार्	-5428
illery	-5429
▁frequ	-5430
▁langu	-5431
▁occup	-5432
▁arrang	-5433
▁observ	-5434
▁machine	-5435
▁prevent	-5436
▁carolina	-5437
▁artillery	-5438
▁suggested	-5439
पण	-5440
unt	-5441
कुल	-5442
वां	-5443
ायण	-5444
▁उत	-5445
मीटर	-5446
सीसी	-5447
▁186	-5448
▁300	-5449
▁adm	-5450
▁jud	-5451
▁हरा	-5452
▁डीएम	-5453
▁दौरे	-5454
▁देंगे	-5455
▁ranked	-5456
▁serious	-5457
▁केन्द्र	-5458
▁रिकॉर्ड	-5459
▁district	-5460
▁greatest	-5461
▁सुरक्षित	-5462
▁education	-5463
ंडल	-5464
त्त	-5465
राम	-5466
्टर	-5467
▁लं	-5468
▁सख	-5469
ging	-5470
outh	-5471
▁iii	-5472
▁pet	-5473
▁छूट	-5474
▁ताप	-5475
हम्मद	-5476
▁1996	-5477
▁bord	-5478
▁उपाय	-5479
▁करनी	-5480
▁तमाम	-5481
▁दबाव	-5482
▁shoot	-5483
▁whole	-5484
▁उसमें	-5485
▁financ	-5486
▁इंतजार	-5487
▁कप्तान	-5488
▁capital	-5489
▁charles	-5490
▁largely	-5491
▁numbers	-5492
▁सामाजिक	-5493
10	-5494
ds	-5495
मै	-5496
रेट	-5497
▁डर	-5498
▁हथ	-5499
▁dom	-5500
▁lay	-5501
▁tay	-5502
▁लौट	-5503
▁1998	-5504
▁cele	-5505
▁date	-5506
▁ऑफिस	-5507
▁भूमि	-5508
्होंने	-5509
▁method	-5510
▁waters	-5511
▁protest	-5512
▁smaller	-5513
▁मुस्लिम	-5514
▁election	-5515
▁movement	-5516
▁committee	-5517
▁D	-5518
ror	-5519
वती	-5520
greg	-5521
ners	-5522
▁cad	-5523
▁corn	-5524
▁घरों	-5525
▁लॉन्	-5526
▁guard	-5527
▁meant	-5528
▁अपराध	-5529
▁स्वयं	-5530
▁really	-5531
▁खुलासा	-5532
▁captured	-5533
▁starting	-5534
▁कार्यकर्ता	-5535
▁44	-5536
iami	-5537
ises	-5538
ध्या	-5539
साइट	-5540
▁fit	-5541
▁mal	-5542
▁1993	-5543
▁brad	-5544
▁cann	-5545
▁iron	-5546
▁mort	-5547
▁runs	-5548
▁sand	-5549
▁size	-5550
▁लंबे	-5551
▁shell	-5552
▁विमान	-5553
▁संबोध	-5554
▁agreed	-5555
▁thunder	-5556
▁officers	-5557
▁themselves	-5558
▁खिलाड़ियों	-5559
▁ऑस्ट्रेलिया	-5560
▁अंतरराष्ट्रीय	-5561
ेय	-5562
▁अय	-5563
▁जू	-5564
onse	-5565
▁pil	-5566
▁sam	-5567
acted	-5568
andon	-5569
स्त्र	-5570
▁1930	-5571
▁attr	-5572
▁beat	-5573
▁keep	-5574
▁दुष्	-5575
▁संसद	-5576
▁बदमाश	-5577
▁centre	-5578
▁living	-5579
▁market	-5580
▁taylor	-5581
▁गिरावट	-5582
▁निर्वा	-5583
▁युवाओं	-5584
▁conclud	-5585
▁conserv	-5586
▁morning	-5587
▁टीकाकरण	-5588
▁संवाददाता	-5589
▁जिम्मेदारी	-5590
वै	-5591
isc	-5592
omm	-5593
ysc	-5594
▁दम	-5595
▁bod	-5596
▁inh	-5597
▁van	-5598
▁wit	-5599
▁चोट	-5600
▁हटा	-5601
▁हल्	-5602
icted	-5603
track	-5604
▁self	-5605
▁your	-5606
▁क्रम	-5607
▁नीति	-5608
▁पटना	-5609
yscrap	-5610
▁breed	-5611
▁whose	-5612
▁ग्राह	-5613
▁चिंता	-5614
▁सत्ता	-5615
▁सार्व	-5616
▁listed	-5617
▁things	-5618
▁twenty	-5619
▁पुष्टि	-5620
▁married	-5621
▁whether	-5622
▁services	-5623
▁skyscrap	-5624
▁standard	-5625
▁something	-5626
19	-5627
शक	-5628
कीय	-5629
मैन	-5630
ites	-5631
जनिक	-5632
ेंशन	-5633
▁कमल	-5634
veston	-5635
▁miami	-5636
▁नागरिक	-5637
▁मुद्दे	-5638
▁counter	-5639
▁private	-5640
▁consider	-5641
▁launched	-5642
▁problems	-5643
▁galveston	-5644
ठा	-5645
ken	-5646
sen	-5647
uses	-5648
▁box	-5649
▁gro	-5650
▁जाम	-5651
▁शूट	-5652
चार्य	-5653
▁cred	-5654
▁kick	-5655
▁pair	-5656
▁sett	-5657
▁birth	-5658
▁leave	-5659
▁plans	-5660
▁polic	-5661
▁देखकर	-5662
▁हालात	-5663
▁रायपुर	-5664
▁changed	-5665
▁natural	-5666
▁scoring	-5667
▁usually	-5668
▁assigned	-5669
▁includes	-5670
▁majority	-5671
-4	-5672
ीव	-5673
apt	-5674
रान	-5675
▁49	-5676
्राम	-5677
▁जैन	-5678
▁दाम	-5679
▁सब्	-5680
force	-5681
ortun	-5682
▁2017	-5683
▁cand	-5684
▁pick	-5685
▁मकान	-5686
idents	-5687
प्रदेश	-5688
▁confl	-5689
▁saint	-5690
▁चौहान	-5691
▁unable	-5692
▁वाहनों	-5693
▁greater	-5694
▁request	-5695
▁extended	-5696
▁response	-5697
▁constructed	-5698
oor	-5699
raf	-5700
लेख	-5701
शील	-5702
सित	-5703
▁55	-5704
aire	-5705
लैंड	-5706
िएशन	-5707
▁env	-5708
▁rat	-5709
▁sav	-5710
▁काउ	-5711
▁गोर	-5712
ander	-5713
ctive	-5714
ronic	-5715
कोर्ट	-5716
▁sched	-5717
▁shown	-5718
▁thick	-5719
▁कक्षा	-5720
▁पॉजिट	-5721
▁राजेश	-5722
▁स्टार	-5723
ability	-5724
▁albums	-5725
▁mostly	-5726
▁nature	-5727
▁status	-5728
▁स्थानों	-5729
▁jennings	-5730
▁virginia	-5731
▁सार्वजनिक	-5732
गु	-5733
aut	-5734
ट्स	-5735
तलब	-5736
न्स	-5737
सूस	-5738
▁haw	-5739
▁sev	-5740
▁निर	-5741
▁रेड	-5742
lands	-5743
stein	-5744
▁baby	-5745
isions	-5746
▁frank	-5747
▁purch	-5748
▁बीमार	-5749
▁higher	-5750
▁एजेंसी	-5751
▁effects	-5752
▁वेबसाइट	-5753
▁religious	-5754
sey	-5755
िनी	-5756
▁41	-5757
▁rh	-5758
enon	-5759
वाने	-5760
्याम	-5761
▁इका	-5762
▁कोच	-5763
▁गैस	-5764
▁चढ़	-5765
▁सपा	-5766
▁acqu	-5767
▁cold	-5768
▁lear	-5769
▁crown	-5770
▁sixth	-5771
▁terms	-5772
atively	-5773
त्रियों	-5774
▁archit	-5775
▁create	-5776
▁earned	-5777
▁helped	-5778
▁valley	-5779
▁जागरूक	-5780
▁संपर्क	-5781
▁carried	-5782
▁traffic	-5783
▁companies	-5784
▁discovered	-5785
▁revolution	-5786
ius	-5787
ails	-5788
चानक	-5789
्यास	-5790
▁ott	-5791
▁und	-5792
▁आंख	-5793
▁दोष	-5794
▁निप	-5795
▁फुट	-5796
▁लेख	-5797
ounts	-5798
▁emer	-5799
▁rear	-5800
▁tell	-5801
▁उनको	-5802
▁cause	-5803
▁makes	-5804
▁somer	-5805
▁ultim	-5806
▁double	-5807
▁इलाकों	-5808
▁क्षमता	-5809
▁सीबीआई	-5810
▁mountain	-5811
▁occurred	-5812
▁architect	-5813
▁प्रशिक्षण	-5814
ky	-5815
ids	-5816
vey	-5817
तौर	-5818
्सा	-5819
▁धम	-5820
cing	-5821
writ	-5822
▁anc	-5823
▁dum	-5824
▁अजय	-5825
▁नही	-5826
▁पाई	-5827
▁सिर	-5828
house	-5829
▁imag	-5830
▁kind	-5831
▁rein	-5832
▁इनके	-5833
▁गरीब	-5834
▁वार्	-5835
▁alice	-5836
▁maxim	-5837
▁notes	-5838
▁अचानक	-5839
▁फर्जी	-5840
▁वर्मा	-5841
▁सहायक	-5842
▁groups	-5843
▁निदेशक	-5844
▁consist	-5845
▁feature	-5846
▁surface	-5847
▁पॉजिटिव	-5848
▁congress	-5849
▁fighting	-5850
▁appearances	-5851
ki	-5852
ny	-5853
ाफ	-5854
ata	-5855
abit	-5856
ault	-5857
ping	-5858
ंदाज	-5859
कारा	-5860
जर्स	-5861
वाले	-5862
्याण	-5863
▁पाठ	-5864
▁बाग	-5865
▁वीर	-5866
▁शही	-5867
anced	-5868
▁here	-5869
▁rare	-5870
▁अनिल	-5871
▁बचाव	-5872
▁मशीन	-5873
▁रखते	-5874
▁enter	-5875
▁नेशनल	-5876
▁attend	-5877
▁lyrics	-5878
▁peaked	-5879
▁victor	-5880
▁connect	-5881
▁निर्धार	-5882
▁probably	-5883
▁somerset	-5884
▁प्रतियोग	-5885
▁conducted	-5886
▁immediately	-5887
25	-5888
यम	-5889
ios	-5890
lim	-5891
्मा	-5892
ergy	-5893
mann	-5894
ocks	-5895
oncé	-5896
umed	-5897
स्टम	-5898
▁bon	-5899
▁ple	-5900
▁घरे	-5901
ously	-5902
▁done	-5903
▁phot	-5904
▁आनंद	-5905
▁फरार	-5906
▁बैठे	-5907
▁लेना	-5908
▁तीसरे	-5909
▁प्रथम	-5910
▁राकेश	-5911
▁annual	-5912
▁celebr	-5913
▁longer	-5914
▁भुगतान	-5915
▁मारपीट	-5916
▁beyoncé	-5917
▁concept	-5918
▁constit	-5919
▁federal	-5920
▁कोतवाली	-5921
▁japanese	-5922
▁suffered	-5923
kn	-5924
एक	-5925
छा	-5926
डि	-5927
nel	-5928
▁2.	-5929
▁ठे	-5930
▁log	-5931
▁अरब	-5932
▁शुभ	-5933
▁adop	-5934
▁scot	-5935
▁आपका	-5936
uments	-5937
▁equip	-5938
▁wound	-5939
▁महसूस	-5940
▁determ	-5941
▁weaken	-5942
▁आदित्य	-5943
▁गौरतलब	-5944
▁रास्ते	-5945
▁matches	-5946
▁attempts	-5947
▁location	-5948
▁progress	-5949
fl	-5950
ुण	-5951
रोज	-5952
हाँ	-5953
र्तन	-5954
श्वर	-5955
▁184	-5956
▁पुन	-5957
aches	-5958
▁1940	-5959
▁canc	-5960
▁cath	-5961
▁ross	-5962
▁आखिर	-5963
▁मीटर	-5964
▁crick	-5965
▁princ	-5966
▁queen	-5967
▁पड़ता	-5968
▁conver	-5969
▁issued	-5970
▁master	-5971
▁कानपुर	-5972
▁तापमान	-5973
▁प्रस्त	-5974
▁समाप्त	-5975
▁initial	-5976
▁उत्पादन	-5977
▁फिल्मों	-5978
▁स्थापित	-5979
▁numerous	-5980
▁producer	-5981
▁अध्यक्षता	-5982
▁information	-5983
कू	-5984
ैर	-5985
mas	-5986
▁गि	-5987
rael	-5988
क्सर	-5989
वाला	-5990
▁bob	-5991
▁sir	-5992
▁unc	-5993
▁इले	-5994
▁गेट	-5995
▁चंद	-5996
क्ट्र	-5997
दाबाद	-5998
▁lady	-5999
▁wave	-6000
▁wing	-6001
▁अभिय	-6002
▁बाबा	-6003
▁reach	-6004
▁जानते	-6005
▁शिकार	-6006
▁copies	-6007
▁inside	-6008
▁चुनौती	-6009
▁ट्रांस	-6010
▁प्रखंड	-6011
▁बिक्री	-6012
▁premier	-6013
▁remains	-6014
▁मोहम्मद	-6015
▁चिकित्सा	-6016
80	-6017
ee	-6018
ोश	-6019
cts	-6020
ायी	-6021
शाला	-6022
ेंगी	-6023
ेक्ट	-6024
▁aer	-6025
▁ign	-6026
▁yet	-6027
▁चोर	-6028
▁बहन	-6029
▁मेट	-6030
▁लूट	-6031
ening	-6032
▁dism	-6033
▁fant	-6034
▁simp	-6035
▁अशोक	-6036
▁खाते	-6037
▁बांग	-6038
▁हाउस	-6039
▁incor	-6040
▁घरेलू	-6041
▁टक्कर	-6042
▁फायदा	-6043
▁वितरण	-6044
▁likely	-6045
▁spring	-6046
▁condoms	-6047
▁प्रबंधन	-6048
▁marriage	-6049
▁tournament	-6050
ाब	-6051
ंतर	-6052
ट्र	-6053
नेस	-6054
वेद	-6055
शिप	-6056
▁md	-6057
▁दब	-6058
▁वॉ	-6059
agon	-6060
▁dan	-6061
▁अंब	-6062
▁आजा	-6063
▁कंट	-6064
▁बहा	-6065
anded	-6066
urity	-6067
▁जनपद	-6068
▁रैली	-6069
change	-6070
▁bound	-6071
▁corps	-6072
▁takes	-6073
▁जागरण	-6074
▁शीर्ष	-6075
▁casual	-6076
▁ending	-6077
▁बीमारी	-6078
▁रोजगार	-6079
▁हिरासत	-6080
▁germany	-6081
▁offered	-6082
▁controll	-6083
▁hospital	-6084
▁investig	-6085
▁commented	-6086
▁presented	-6087
isl	-6088
rat	-6089
देन	-6090
सेज	-6091
▁51	-6092
▁री	-6093
room	-6094
▁bud	-6095
▁mic	-6096
▁swe	-6097
▁पहन	-6098
▁stad	-6099
▁मॉडल	-6100
▁वैसे	-6101
▁हिन्	-6102
undred	-6103
▁beach	-6104
▁honor	-6105
▁schol	-6106
▁ग्रुप	-6107
▁ड्राइ	-6108
▁पांडे	-6109
▁शक्ति	-6110
▁script	-6111
▁अकाउंट	-6112
▁आईपीएल	-6113
▁कल्याण	-6114
standing	-6115
▁recover	-6116
ification	-6117
धिकारियों	-6118
िद	-6119
बीर	-6120
▁43	-6121
▁sr	-6122
▁नम	-6123
erve	-6124
pedo	-6125
घटना	-6126
▁अधी	-6127
▁unit	-6128
▁तकनी	-6129
▁दूरी	-6130
▁राजा	-6131
▁शुक्	-6132
▁actor	-6133
▁birds	-6134
▁naval	-6135
▁जयपुर	-6136
▁बचाने	-6137
▁मूल्य	-6138
▁संदेश	-6139
▁सालों	-6140
▁combat	-6141
▁inches	-6142
▁रहेंगे	-6143
▁स्वागत	-6144
▁leaders	-6145
▁meeting	-6146
▁seasons	-6147
▁समीक्षा	-6148
▁constant	-6149
▁soldiers	-6150
▁किलोमीटर	-6151
▁countries	-6152
▁influence	-6153
सं	-6154
िड	-6155
hem	-6156
yer	-6157
लोड	-6158
▁wr	-6159
▁सप	-6160
▁rif	-6161
▁आती	-6162
▁खंड	-6163
▁छाप	-6164
▁जला	-6165
▁डेट	-6166
▁मंच	-6167
▁सां	-6168
▁1992	-6169
▁bomb	-6170
▁elev	-6171
▁magn	-6172
▁step	-6173
▁tall	-6174
▁अवधि	-6175
▁दिग्	-6176
▁निरा	-6177
▁पदों	-6178
▁होटल	-6179
usband	-6180
▁books	-6181
▁आखिरी	-6182
▁metres	-6183
▁slight	-6184
▁गांवों	-6185
▁हिस्से	-6186
▁academy	-6187
▁vietnam	-6188
▁अंतर्गत	-6189
▁पहुंचने	-6190
▁विश्वास	-6191
▁संबोधित	-6192
▁प्रवक्ता	-6193
▁collection	-6194
▁independent	-6195
ii	-6196
फल	-6197
्क	-6198
▁T	-6199
नेश	-6200
पेट	-6201
लान	-6202
▁64	-6203
▁dj	-6204
▁lb	-6205
▁शै	-6206
सबुक	-6207
▁खेत	-6208
▁वही	-6209
▁हंग	-6210
▁cert	-6211
▁ital	-6212
▁एसोस	-6213
▁रहीं	-6214
▁sales	-6215
▁कृष्ण	-6216
▁मैचों	-6217
▁लगाकर	-6218
▁access	-6219
▁candid	-6220
▁nation	-6221
▁वर्षों	-6222
▁concert	-6223
▁torpedo	-6224
▁accompan	-6225
▁selected	-6226
▁contemporary	-6227
sp	-6228
ंजन	-6229
वाइ	-6230
▁ut	-6231
▁कौ	-6232
▁नक	-6233
▁रम	-6234
bery	-6235
द्दी	-6236
माचल	-6237
▁183	-6238
▁एटी	-6239
▁होम	-6240
inese	-6241
osaur	-6242
कुमार	-6243
▁raid	-6244
▁true	-6245
▁wash	-6246
▁दर्द	-6247
▁मंडी	-6248
▁मेरा	-6249
▁वकील	-6250
कश्मीर	-6251
दुनिया	-6252
▁categ	-6253
▁names	-6254
▁rough	-6255
▁आतंकी	-6256
▁प्रदू	-6257
▁giving	-6258
▁marked	-6259
▁reject	-6260
▁target	-6261
▁सहायता	-6262
▁advance	-6263
▁chinese	-6264
▁culture	-6265
▁journal	-6266
▁combined	-6267
▁compared	-6268
▁daughter	-6269
▁मुख्यालय	-6270
leg	-6271
▁65	-6272
inch	-6273
iron	-6274
सिंह	-6275
▁मेर	-6276
▁हड़	-6277
▁हवा	-6278
acing	-6279
itude	-6280
▁1986	-6281
▁crow	-6282
▁hair	-6283
▁jane	-6284
▁path	-6285
▁sout	-6286
▁sust	-6287
▁आदमी	-6288
▁चलने	-6289
▁जाएं	-6290
▁ट्वि	-6291
▁मानव	-6292
vement	-6293
▁blood	-6294
▁chann	-6295
▁conse	-6296
▁theme	-6297
▁जुड़ी	-6298
▁पार्ट	-6299
▁प्रभा	-6300
▁लॉन्च	-6301
▁active	-6302
▁begins	-6303
▁legisl	-6304
▁mosley	-6305
▁raised	-6306
▁जवानों	-6307
▁प्रत्य	-6308
▁hundred	-6309
▁planned	-6310
▁schools	-6311
▁viewers	-6312
▁audience	-6313
▁directly	-6314
▁दुर्घटना	-6315
▁प्रियंका	-6316
▁destroyed	-6317
▁associated	-6318
आइ	-6319
pre	-6320
rie	-6321
win	-6322
राट	-6323
▁47	-6324
▁52	-6325
▁tv	-6326
▁एश	-6327
▁मच	-6328
काता	-6329
र्जा	-6330
▁pul	-6331
▁आकर	-6332
▁fair	-6333
▁flow	-6334
▁पर्व	-6335
nesota	-6336
▁color	-6337
▁प्रेर	-6338
▁लाखों	-6339
▁israel	-6340
▁issues	-6341
▁necess	-6342
▁scenes	-6343
▁settle	-6344
▁sexual	-6345
▁प्रताप	-6346
▁appears	-6347
▁removed	-6348
▁कलेक्टर	-6349
▁personal	-6350
▁strength	-6351
▁कर्मियों	-6352
▁minnesota	-6353
▁touchdown	-6354
.’	-6355
तु	-6356
भू	-6357
ria	-6358
धीश	-6359
▁gi	-6360
▁मू	-6361
alty	-6362
star	-6363
ित्व	-6364
▁row	-6365
▁sov	-6366
▁कां	-6367
▁मास	-6368
inent	-6369
तालों	-6370
▁1991	-6371
▁exam	-6372
▁कैंप	-6373
▁पढ़े	-6374
▁मंजू	-6375
▁सुनि	-6376
▁xenon	-6377
▁नेपाल	-6378
▁बढ़कर	-6379
▁रोहित	-6380
▁आरक्षण	-6381
▁एसडीएम	-6382
▁सकेंगे	-6383
▁हिमाचल	-6384
▁perfect	-6385
▁variety	-6386
▁opportun	-6387
▁management	-6388
ex	-6389
दो	-6390
यल	-6391
विर	-6392
▁अख	-6393
▁चम	-6394
pted	-6395
wick	-6396
जूदा	-6397
्रिय	-6398
▁bid	-6399
▁चौथ	-6400
aging	-6401
▁clim	-6402
▁gall	-6403
▁prec	-6404
▁qual	-6405
▁span	-6406
▁पड़ी	-6407
▁पूछा	-6408
▁मृतक	-6409
▁सारे	-6410
icient	-6411
▁offer	-6412
▁vocal	-6413
▁तुलना	-6414
▁मिलता	-6415
▁मिलती	-6416
▁सर्वे	-6417
▁amount	-6418
▁closed	-6419
▁empire	-6420
▁multip	-6421
▁needed	-6422
▁tracks	-6423
▁फेसबुक	-6424
▁freeway	-6425
▁reduced	-6426
▁हाईकोर्ट	-6427
▁christmas	-6428
▁offensive	-6429
▁positions	-6430
▁soundtrack	-6431
nh	-6432
zy	-6433
ita	-6434
▁aw	-6435
▁os	-6436
▁तु	-6437
▁पृ	-6438
ruit	-6439
uing	-6440
▁ale	-6441
▁नाग	-6442
▁रिज	-6443
▁fest	-6444
▁term	-6445
▁कानू	-6446
▁खाना	-6447
▁गंगा	-6448
▁पूर्	-6449
▁भाषा	-6450
▁संभव	-6451
▁block	-6452
▁burns	-6453
▁chris	-6454
▁प्रार	-6455
▁मनाया	-6456
▁वापसी	-6457
▁experi	-6458
▁screen	-6459
▁vocals	-6460
▁मौजूदा	-6461
▁समुदाय	-6462
▁battery	-6463
▁battles	-6464
▁figures	-6465
▁व्यापार	-6466
▁प्रतिबंध	-6467
▁प्रतिनिधि	-6468
▁controvers	-6469
ga	-6470
दल	-6471
ado	-6472
eth	-6473
हिर	-6474
िले	-6475
▁53	-6476
▁कू	-6477
▁खी	-6478
▁हल	-6479
गांव	-6480
▁bul	-6481
▁ded	-6482
▁hun	-6483
▁उड़	-6484
▁उतर	-6485
▁कैब	-6486
▁छुट	-6487
▁तुम	-6488
athan	-6489
▁rule	-6490
▁जताई	-6491
▁मतलब	-6492
▁chief	-6493
▁indic	-6494
▁metal	-6495
▁throw	-6496
▁हिंदू	-6497
▁altern	-6498
▁confir	-6499
▁jewish	-6500
▁levels	-6501
▁रिश्ते	-6502
▁cricket	-6503
▁defence	-6504
▁maximum	-6505
▁princip	-6506
▁weather	-6507
▁कोलकाता	-6508
▁विस्तार	-6509
▁allowing	-6510
▁assembly	-6511
▁continue	-6512
▁declared	-6513
▁resulted	-6514
▁एक्सप्रेस	-6515
▁traditional	-6516
▁respectively	-6517
इट	-6518
नु	-6519
tic	-6520
बान	-6521
ब्र	-6522
वीन	-6523
▁54	-6524
▁ow	-6525
बादी	-6526
ांसी	-6527
▁bor	-6528
▁die	-6529
▁ess	-6530
▁nba	-6531
▁syn	-6532
▁via	-6533
▁भ्र	-6534
▁रिस	-6535
white	-6536
▁Read	-6537
▁fill	-6538
▁nico	-6539
▁resc	-6540
▁खतरा	-6541
▁खेती	-6542
▁दलों	-6543
▁फैंस	-6544
▁होनी	-6545
▁liber	-6546
▁sense	-6547
▁पढ़ाई	-6548
▁फाइनल	-6549
▁height	-6550
▁singer	-6551
▁आरोपित	-6552
▁उल्लेख	-6553
▁पुरानी	-6554
▁abandon	-6555
▁angeles	-6556
▁environ	-6557
▁portray	-6558
▁stadium	-6559
▁theatre	-6560
▁गेंदबाज	-6561
▁अस्पतालों	-6562
▁यात्रियों	-6563
▁सुनिश्चित	-6564
,3	-6565
use	-6566
जोर	-6567
प्प	-6568
श्न	-6569
▁ga	-6570
▁घट	-6571
▁दृ	-6572
bird	-6573
itor	-6574
ांकन	-6575
▁jim	-6576
▁lin	-6577
▁किर	-6578
▁गईं	-6579
▁दास	-6580
▁फूल	-6581
▁मेह	-6582
▁वाय	-6583
▁सुख	-6584
▁1997	-6585
▁plot	-6586
▁उर्फ	-6587
▁खाली	-6588
▁पकड़	-6589
▁फायर	-6590
▁बोले	-6591
▁सिटी	-6592
▁सोने	-6593
▁charl	-6594
▁dream	-6595
▁ridge	-6596
▁इंदौर	-6597
▁किशोर	-6598
▁ट्रंप	-6599
▁नीतीश	-6600
▁लिस्ट	-6601
▁स्टाफ	-6602
▁हिंसा	-6603
▁coming	-6604
▁मात्रा	-6605
▁account	-6606
▁jackson	-6607
▁respond	-6608
▁governor	-6609
▁एसोसिएशन	-6610
▁निर्धारित	-6611
,4	-6612
ोप	-6613
ays	-6614
bod	-6615
ift	-6616
rol	-6617
ज्ज	-6618
थित	-6619
रीन	-6620
▁फो	-6621
anes	-6622
anta	-6623
क्का	-6624
्रमण	-6625
▁eye	-6626
▁fox	-6627
▁rug	-6628
▁spl	-6629
▁उधर	-6630
▁गठन	-6631
▁रजि	-6632
▁शाय	-6633
▁सड़	-6634
inals	-6635
rical	-6636
▁alab	-6637
▁russ	-6638
▁पैसा	-6639
▁भीतर	-6640
क्सीजन	-6641
▁image	-6642
▁peace	-6643
▁plays	-6644
वासियों	-6645
▁artist	-6646
▁depend	-6647
▁search	-6648
▁struck	-6649
▁गठबंधन	-6650
▁वार्ता	-6651
▁सक्रिय	-6652
▁attacks	-6653
▁ottoman	-6654
▁parents	-6655
▁विज्ञान	-6656
▁contains	-6657
▁attempted	-6658
▁entertain	-6659
▁पदाधिकारी	-6660
▁designated	-6661
-3	-6662
90	-6663
ca	-6664
गज	-6665
चु	-6666
ेद	-6667
met	-6668
ग्ध	-6669
दरा	-6670
पान	-6671
विल	-6672
ेड़	-6673
्‍ह	-6674
▁कन	-6675
▁खि	-6676
▁मर	-6677
road	-6678
म्बर	-6679
्‍या	-6680
▁sha	-6681
▁फैल	-6682
▁रिट	-6683
▁सदर	-6684
known	-6685
कर्मी	-6686
▁thir	-6687
▁इंजी	-6688
▁गोरख	-6689
▁पाने	-6690
▁समझौ	-6691
▁below	-6692
▁extre	-6693
▁sport	-6694
▁trees	-6695
▁निकले	-6696
▁मिलते	-6697
▁युद्ध	-6698
▁comedy	-6699
▁अखिलेश	-6700
▁जिंदगी	-6701
▁राजस्व	-6702
▁edition	-6703
▁husband	-6704
▁johnson	-6705
▁officer	-6706
▁अधीक्षक	-6707
▁बांग्ला	-6708
▁attacked	-6709
▁powerful	-6710
ंथ	-6711
ech	-6712
ify	-6713
ढ़ी	-6714
ेंज	-6715
▁ur	-6716
▁ens	-6717
▁lie	-6718
▁ris	-6719
▁इन्	-6720
▁मनी	-6721
▁मिस	-6722
▁सका	-6723
▁हरि	-6724
rance	-6725
▁bank	-6726
▁drum	-6727
▁spir	-6728
▁अनुर	-6729
▁गुजर	-6730
▁चेता	-6731
▁जाति	-6732
▁दीपक	-6733
▁avoid	-6734
▁graph	-6735
▁उठाया	-6736
▁केजरी	-6737
▁दर्शन	-6738
▁ब्रिट	-6739
▁विराट	-6740
essions	-6741
▁dollar	-6742
▁relief	-6743
▁source	-6744
▁आयुक्त	-6745
▁इन्हें	-6746
▁नियमों	-6747
▁मुकदमा	-6748
▁संबंधी	-6749
▁african	-6750
▁alabama	-6751
▁stating	-6752
▁जिन्हें	-6753
▁referred	-6754
▁financial	-6755
▁individual	-6756
▁responsible	-6757
hl	-6758
uf	-6759
bre	-6760
ocr	-6761
ylv	-6762
ज़र	-6763
सीय	-6764
ands	-6765
बारा	-6766
▁180	-6767
▁lot	-6768
▁अफग	-6769
class	-6770
cript	-6771
▁purp	-6772
▁ऐलान	-6773
▁मनोज	-6774
▁वेतन	-6775
▁drive	-6776
▁movie	-6777
▁अंदाज	-6778
▁करियर	-6779
▁चाहता	-6780
▁course	-6781
▁edward	-6782
▁illino	-6783
▁losing	-6784
▁places	-6785
▁reform	-6786
▁foreign	-6787
▁heavily	-6788
▁पत्रकार	-6789
▁स्थापना	-6790
▁तस्वीरें	-6791
▁नियंत्रण	-6792
▁featuring	-6793
▁intensity	-6794
▁conditions	-6795
▁प्रतियोगिता	-6796
गन	-6797
ंची	-6798
र्त	-6799
वित	-6800
▁57	-6801
▁85	-6802
▁इज	-6803
र्डर	-6804
ुल्क	-6805
▁ast	-6806
▁cab	-6807
▁job	-6808
▁तुर	-6809
▁बंध	-6810
aught	-6811
ellig	-6812
ishop	-6813
िवर्स	-6814
्यूटी	-6815
▁bass	-6816
▁edge	-6817
▁gard	-6818
▁prep	-6819
▁पंजी	-6820
▁extra	-6821
▁twice	-6822
▁आगामी	-6823
▁खाद्य	-6824
▁दाखिल	-6825
▁मुक्त	-6826
▁लड़ाई	-6827
▁advant	-6828
▁barrow	-6829
▁strugg	-6830
▁widely	-6831
▁प्रबंध	-6832
▁मंजूरी	-6833
▁विकसित	-6834
▁विदेशी	-6835
ानिस्तान	-6836
▁studies	-6837
▁writers	-6838
▁स्वीकार	-6839
▁anderson	-6840
▁approach	-6841
▁baseball	-6842
▁cultural	-6843
▁language	-6844
▁minister	-6845
▁केजरीवाल	-6846
▁निर्वाचन	-6847
▁सम्मानित	-6848
▁defensive	-6849
▁situation	-6850
▁जिन्होंने	-6851
▁casualties	-6852
tv	-6853
बत	-6854
सो	-6855
ॉम	-6856
bed	-6857
ipp	-6858
umn	-6859
द्द	-6860
वेट	-6861
▁56	-6862
▁ती	-6863
aily	-6864
iber	-6865
wide	-6866
कल्प	-6867
लोनी	-6868
्याज	-6869
▁pun	-6870
▁घाट	-6871
▁भरो	-6872
ellow	-6873
uries	-6874
ुक्ति	-6875
▁मिशन	-6876
▁मैने	-6877
▁संवि	-6878
दाताओं	-6879
▁आशंका	-6880
▁देखें	-6881
▁प्यार	-6882
▁भावना	-6883
▁मानना	-6884
▁सूर्य	-6885
chester	-6886
ruction	-6887
▁encour	-6888
▁figure	-6889
▁perman	-6890
▁termin	-6891
▁winter	-6892
▁ट्विटर	-6893
▁निशाना	-6894
▁पुराने	-6895
▁वर्ल्ड	-6896
▁हथियार	-6897
▁actions	-6898
▁channel	-6899
▁efforts	-6900
▁managed	-6901
▁लक्ष्मी	-6902
▁document	-6903
▁पुरस्कार	-6904
▁प्रत्येक	-6905
▁typically	-6906
,6	-6907
,8	-6908
-5	-6909
.1	-6910
डर	-6911
भो	-6912
war	-6913
नाक	-6914
ारण	-6915
▁झा	-6916
▁लु	-6917
,500	-6918
भाषा	-6919
वारी	-6920
▁thr	-6921
▁कने	-6922
▁काट	-6923
▁माइ	-6924
▁शास	-6925
nding	-6926
umber	-6927
▁bond	-6928
▁pict	-6929
▁rate	-6930
▁जोशी	-6931
▁महास	-6932
▁aired	-6933
▁hands	-6934
▁लगाते	-6935
▁विवाह	-6936
▁toward	-6937
▁परिवहन	-6938
▁अभिनेता	-6939
▁आतंकवाद	-6940
▁प्रदूषण	-6941
▁महिलाएं	-6942
▁catholic	-6943
▁rosebery	-6944
▁अभिनेत्री	-6945
▁प्रत्याशी	-6946
▁completely	-6947
▁बांग्लादेश	-6948
,7	-6949
नाम	-6950
▁अत	-6951
▁एप	-6952
▁रज	-6953
oper	-6954
ovic	-6955
sylv	-6956
िलास	-6957
▁bed	-6958
▁cra	-6959
▁dyn	-6960
▁जोन	-6961
▁टूट	-6962
▁मिट	-6963
▁bull	-6964
▁dang	-6965
▁gods	-6966
▁jose	-6967
▁इतनी	-6968
▁खड़ा	-6969
▁जैसा	-6970
▁बढ़े	-6971
▁महार	-6972
▁रखना	-6973
▁लिहा	-6974
▁सीधे	-6975
ceeded	-6976
utions	-6977
ेन्द्र	-6978
▁daily	-6979
▁forms	-6980
▁helms	-6981
▁newsp	-6982
▁अक्षय	-6983
▁कहानी	-6984
▁चाहती	-6985
▁हाथों	-6986
▁sister	-6987
▁इंडियन	-6988
▁सेक्टर	-6989
▁defense	-6990
▁fiction	-6991
▁interse	-6992
▁looking	-6993
▁नामांकन	-6994
▁achieved	-6995
▁inspired	-6996
▁intellig	-6997
▁pennsylv	-6998
▁उपाध्यक्ष	-6999
▁performances	-7000
bl	-7001
कृ	-7002
▁E	-7003
ari	-7004
ंटर	-7005
ढ़े	-7006
बूर	-7007
्हा	-7008
▁सन	-7009
adel	-7010
onna	-7011
pole	-7012
डिंग	-7013
▁jun	-7014
▁गैर	-7015
▁पेय	-7016
▁रखे	-7017
स्कृत	-7018
ार्थी	-7019
▁hope	-7020
▁repe	-7021
▁safe	-7022
▁आवाज	-7023
▁परंप	-7024
▁लापर	-7025
▁विवे	-7026
▁हवाई	-7027
ension	-7028
▁doing	-7029
▁franc	-7030
▁guest	-7031
▁धार्म	-7032
▁सुनील	-7033
▁sports	-7034
▁निर्मा	-7035
▁actress	-7036
▁assault	-7037
▁complex	-7038
▁composed	-7039
▁expected	-7040
▁scotland	-7041
▁श्रद्धाल	-7042
▁technology	-7043
▁washington	-7044
▁गतिविधियों	-7045
▁environment	-7046
▁scientology	-7047
पत	-7048
jam	-7049
ram	-7050
rey	-7051
कोर	-7052
म्ब	-7053
वाय	-7054
ेलन	-7055
▁om	-7056
▁इम	-7057
chan	-7058
hold	-7059
rawn	-7060
नाटक	-7061
बंदी	-7062
मानत	-7063
िनेट	-7064
▁mas	-7065
▁oil	-7066
▁आउट	-7067
▁घुस	-7068
▁पहा	-7069
▁1994	-7070
▁chem	-7071
▁farm	-7072
▁दिक्	-7073
atives	-7074
▁lived	-7075
▁thous	-7076
▁चेहरे	-7077
▁तुरंत	-7078
▁पार्क	-7079
▁बातें	-7080
▁border	-7081
▁compos	-7082
▁nearby	-7083
▁नियमित	-7084
▁शूटिंग	-7085
▁संघर्ष	-7086
▁संचालन	-7087
▁सड़कों	-7088
▁स्वच्छ	-7089
ulations	-7090
▁कार्यों	-7091
▁धार्मिक	-7092
▁योजनाओं	-7093
▁संपत्ति	-7094
▁illinois	-7095
▁incorpor	-7096
▁concluded	-7097
▁consecutive	-7098
▁thunderbird	-7099
गण	-7100
तल	-7101
arp	-7102
ंती	-7103
टका	-7104
ियत	-7105
▁76	-7106
▁wa	-7107
ruct	-7108
पत्र	-7109
▁dur	-7110
▁suc	-7111
▁अब्	-7112
▁पीठ	-7113
वस्था	-7114
▁sens	-7115
▁आसान	-7116
▁कराए	-7117
▁छोटी	-7118
▁तनाव	-7119
▁भोजन	-7120
▁शायद	-7121
▁apple	-7122
▁armed	-7123
▁clubs	-7124
▁energy	-7125
▁impact	-7126
▁rights	-7127
▁soviet	-7128
▁आधारित	-7129
▁debuted	-7130
▁accepted	-7131
▁distance	-7132
▁economic	-7133
▁revealed	-7134
▁दुष्कर्म	-7135
▁expressed	-7136
▁returning	-7137
24	-7138
uff	-7139
ंदन	-7140
लाब	-7141
ौली	-7142
्रह	-7143
▁इधर	-7144
▁गुण	-7145
▁चैन	-7146
▁दूध	-7147
▁पैर	-7148
▁बहु	-7149
▁सौं	-7150
isher	-7151
दियों	-7152
▁core	-7153
▁text	-7154
▁अनुप	-7155
▁खेले	-7156
▁ग्रह	-7157
▁चौकी	-7158
▁तहरी	-7159
▁फैला	-7160
▁लड़क	-7161
hedral	-7162
▁carry	-7163
▁happy	-7164
▁rugby	-7165
▁trial	-7166
▁आबादी	-7167
▁उन्‍ह	-7168
▁माहौल	-7169
▁शिविर	-7170
▁moment	-7171
▁nicole	-7172
▁recomm	-7173
▁उत्साह	-7174
▁चुनावी	-7175
कर्मियों	-7176
▁islands	-7177
▁mission	-7178
▁nuclear	-7179
▁quality	-7180
▁seconds	-7181
▁singing	-7182
▁ऑक्सीजन	-7183
▁observed	-7184
▁इंजीनियर	-7185
▁एक्ट्रेस	-7186
▁उम्मीदवारों	-7187
.4	-7188
फॉ	-7189
ंपल	-7190
▁टि	-7191
bury	-7192
ican	-7193
pass	-7194
rate	-7195
पुरी	-7196
ल्ला	-7197
imony	-7198
while	-7199
फ्तार	-7200
▁alex	-7201
▁anth	-7202
▁अयोध	-7203
▁जोड़	-7204
▁त्रि	-7205
▁बढ़ो	-7206
▁ब्रे	-7207
▁मोहन	-7208
▁रखें	-7209
▁स्कू	-7210
▁oppon	-7211
▁vehic	-7212
▁कब्जे	-7213
▁दस्ता	-7214
▁न्यूज	-7215
▁मिश्र	-7216
▁advent	-7217
▁cannot	-7218
▁highly	-7219
▁prison	-7220
▁अनिवार	-7221
▁उत्पाद	-7222
▁दोबारा	-7223
▁परंपरा	-7224
▁express	-7225
▁refused	-7226
▁reports	-7227
▁कर्नाटक	-7228
▁चुनावों	-7229
▁संचालित	-7230
▁contrast	-7231
▁historic	-7232
▁reaching	-7233
▁potential	-7234
▁historical	-7235
गो	-7236
joy	-7237
oph	-7238
rel	-7239
▁कठ	-7240
ding	-7241
essa	-7242
एसटी	-7243
शकों	-7244
▁rhy	-7245
▁विश	-7246
▁arts	-7247
▁emot	-7248
▁देती	-7249
▁धमकी	-7250
▁बीएस	-7251
▁apart	-7252
▁chair	-7253
▁latin	-7254
▁males	-7255
▁paper	-7256
▁smith	-7257
▁टैक्स	-7258
▁प्रोज	-7259
oration	-7260
▁aspect	-7261
▁hamels	-7262
▁murder	-7263
▁जायेगा	-7264
▁ज्ञापन	-7265
▁सिस्टम	-7266
▁journey	-7267
▁चेतावनी	-7268
▁मुकाबला	-7269
▁affected	-7270
▁withdraw	-7271
▁नियुक्ति	-7272
▁primarily	-7273
▁pennsylvania	-7274
हल	-7275
gal	-7276
kel	-7277
नान	-7278
मित	-7279
▁46	-7280
▁क़	-7281
roll	-7282
ष्टा	-7283
▁असम	-7284
▁जंग	-7285
▁नती	-7286
▁रेट	-7287
▁शब्	-7288
▁साध	-7289
urban	-7290
▁1984	-7291
▁else	-7292
▁trip	-7293
▁उपभो	-7294
▁तिथि	-7295
▁लागत	-7296
▁broke	-7297
▁dress	-7298
▁famil	-7299
▁focus	-7300
▁sides	-7301
▁चारों	-7302
▁तारीख	-7303
▁बढ़ने	-7304
▁मालिक	-7305
▁राजीव	-7306
▁वारदा	-7307
▁finals	-7308
▁narrow	-7309
▁recent	-7310
▁titles	-7311
▁अनुमान	-7312
▁दिक्कत	-7313
▁covered	-7314
▁measure	-7315
▁physical	-7316
▁sequence	-7317
▁resulting	-7318
▁न्यायाधीश	-7319
रत	-7320
ani	-7321
awn	-7322
lin	-7323
डीए	-7324
फान	-7325
शोध	-7326
▁ec	-7327
▁उल	-7328
aped	-7329
iate	-7330
igan	-7331
iven	-7332
mium	-7333
बद्ध	-7334
▁ans	-7335
▁cit	-7336
▁rih	-7337
▁इमर	-7338
▁कमा	-7339
▁पंड	-7340
▁हिस	-7341
श्विक	-7342
▁doub	-7343
▁weap	-7344
▁आक्र	-7345
▁उक्त	-7346
▁कथित	-7347
▁ज्यो	-7348
▁निधन	-7349
▁लंबी	-7350
▁draft	-7351
▁hawai	-7352
▁पेंशन	-7353
▁प्रमाण	-7354
▁concent	-7355
▁demonst	-7356
▁mention	-7357
▁rihanna	-7358
▁slightly	-7359
▁विशेषज्ञ	-7360
▁meanwhile	-7361
▁secretary	-7362
▁जिलाधिकारी	-7363
▁पदाधिकारियों	-7364
,1	-7365
ifa	-7366
nds	-7367
ris	-7368
काम	-7369
षित	-7370
▁id	-7371
▁एज	-7372
▁टू	-7373
टिंग	-7374
लपुर	-7375
▁mun	-7376
▁tun	-7377
▁धान	-7378
ushed	-7379
▁1964	-7380
▁1988	-7381
▁खुशी	-7382
▁रावत	-7383
▁शहीद	-7384
▁सीसी	-7385
स्तानी	-7386
▁admir	-7387
▁अनुभव	-7388
▁गर्मी	-7389
▁तहरीर	-7390
▁पेयजल	-7391
▁मात्र	-7392
▁विकल्प	-7393
▁हंगामा	-7394
▁walpole	-7395
▁कंट्रोल	-7396
▁परीक्षण	-7397
▁occasion	-7398
▁particip	-7399
▁projects	-7400
▁security	-7401
▁cathedral	-7402
▁northeast	-7403
▁organized	-7404
▁ultimately	-7405
▁individuals	-7406
▁organization	-7407
▁entertainment	-7408
▁विद्यार्थियों	-7409
ode	-7410
ole	-7411
ona	-7412
▁72	-7413
▁मस	-7414
स्पे	-7415
ैनिक	-7416
▁250	-7417
▁fat	-7418
▁mob	-7419
▁ton	-7420
▁जुट	-7421
▁डिप	-7422
▁फें	-7423
▁bott	-7424
▁flag	-7425
▁mess	-7426
▁stra	-7427
▁केरल	-7428
▁चीनी	-7429
▁चेयर	-7430
▁जब्त	-7431
▁डेढ़	-7432
▁प्रि	-7433
▁मेरठ	-7434
▁सीजन	-7435
astern	-7436
मार्टम	-7437
▁clean	-7438
▁innis	-7439
▁काउंस	-7440
▁पकड़ा	-7441
▁सुरेश	-7442
century	-7443
▁advert	-7444
▁flying	-7445
▁mainly	-7446
▁prince	-7447
▁सहयोगी	-7448
▁studios	-7449
▁workers	-7450
▁अयोध्या	-7451
▁दुकानों	-7452
▁वैज्ञान	-7453
▁वैश्विक	-7454
▁सामग्री	-7455
▁festival	-7456
▁आवश्यकता	-7457
▁authority	-7458
▁direction	-7459
▁residents	-7460
gn	-7461
asy	-7462
rid	-7463
पित	-7464
▁kg	-7465
फ्ते	-7466
▁sle	-7467
▁कस्	-7468
▁बरा	-7469
▁राव	-7470
▁हिम	-7471
eller	-7472
enant	-7473
isers	-7474
ounds	-7475
िनियम	-7476
▁eich	-7477
▁fast	-7478
▁horn	-7479
▁pian	-7480
▁sets	-7481
▁skin	-7482
▁symb	-7483
▁आगरा	-7484
▁उतार	-7485
▁कर्ज	-7486
▁किरा	-7487
▁कॉन्	-7488
▁नक्स	-7489
▁पेड़	-7490
▁विभा	-7491
▁समान	-7492
▁aston	-7493
▁cerem	-7494
▁paris	-7495
▁spain	-7496
▁प्राइ	-7497
▁फॉर्म	-7498
▁mccall	-7499
▁orders	-7500
▁proved	-7501
▁रफ्तार	-7502
▁हड़ताल	-7503
▁eichmann	-7504
▁entrance	-7505
▁flooding	-7506
▁attention	-7507
▁relatively	-7508
▁surrounding	-7509
▁पोस्टमार्टम	-7510
iny	-7511
ope	-7512
urs	-7513
दुल	-7514
▁95	-7515
ancy	-7516
imin	-7517
omet	-7518
वाया	-7519
▁tax	-7520
▁ऑटो	-7521
▁बें	-7522
arent	-7523
ental	-7524
izing	-7525
कर्ता	-7526
ाइयों	-7527
▁bats	-7528
▁spot	-7529
▁stan	-7530
▁अहमद	-7531
▁इच्छ	-7532
▁क्ला	-7533
▁खेला	-7534
▁जस्ट	-7535
▁डीजल	-7536
▁तमिल	-7537
▁भक्त	-7538
▁संके	-7539
▁सेवन	-7540
lement	-7541
▁enjoy	-7542
▁fully	-7543
▁label	-7544
▁legal	-7545
▁louis	-7546
▁steam	-7547
▁एटीएम	-7548
▁रवाना	-7549
isation	-7550
▁charge	-7551
▁dumont	-7552
▁effort	-7553
▁हजारों	-7554
▁cadmium	-7555
▁calling	-7556
▁digital	-7557
▁olympic	-7558
▁proteins	-7559
▁northwest	-7560
▁बल्लेबाजी	-7561
▁activities	-7562
▁bb	-7563
▁छि	-7564
▁नग	-7565
emic	-7566
iana	-7567
ibly	-7568
mond	-7569
oint	-7570
uled	-7571
एमसी	-7572
▁120	-7573
▁adj	-7574
▁ari	-7575
▁dun	-7576
▁kil	-7577
▁tan	-7578
▁wed	-7579
▁घूम	-7580
▁जबर	-7581
where	-7582
▁drop	-7583
▁emph	-7584
▁neut	-7585
▁opin	-7586
▁snow	-7587
▁tree	-7588
▁trou	-7589
▁इनकी	-7590
▁चलता	-7591
▁नारे	-7592
▁बांध	-7593
▁बाढ़	-7594
ोग्राम	-7595
▁croat	-7596
▁instr	-7597
▁labor	-7598
▁write	-7599
▁उनमें	-7600
▁क्वार	-7601
▁gained	-7602
▁किनारे	-7603
▁समाधान	-7604
▁contrib	-7605
▁elected	-7606
▁अधिनियम	-7607
▁कैबिनेट	-7608
▁नियुक्त	-7609
▁landfall	-7610
▁presence	-7611
▁यूनिवर्स	-7612
▁alongside	-7613
▁describes	-7614
▁sustained	-7615
▁प्रोजेक्ट	-7616
▁background	-7617
▁foundation	-7618
▁transferred	-7619
▁administration	-7620
.0	-7621
gu	-7622
ems	-7623
era	-7624
रीय	-7625
ुरा	-7626
▁नै	-7627
aine	-7628
osen	-7629
phia	-7630
▁bol	-7631
▁cub	-7632
▁दान	-7633
▁लहर	-7634
▁1947	-7635
▁shel	-7636
▁सिया	-7637
▁basis	-7638
▁means	-7639
▁model	-7640
▁remix	-7641
▁spect	-7642
▁stock	-7643
▁types	-7644
▁words	-7645
▁कालेज	-7646
▁चलाने	-7647
▁डिजिट	-7648
▁तीसरी	-7649
धिकारिक	-7650
▁branch	-7651
▁broken	-7652
▁castle	-7653
▁houses	-7654
▁minute	-7655
▁prepar	-7656
▁रास्ता	-7657
▁वास्तव	-7658
adelphia	-7659
▁italian	-7660
▁letters	-7661
▁opposed	-7662
▁मजदूरों	-7663
▁सम्मेलन	-7664
▁attended	-7665
▁rainfall	-7666
▁advantage	-7667
▁recommend	-7668
▁गिरफ्तारी	-7669
▁जिम्मेदार	-7670
▁स्मार्टफोन	-7671
."	-7672
23	-7673
इन	-7674
िब	-7675
olk	-7676
दीय	-7677
मंद	-7678
मैं	-7679
राव	-7680
▁58	-7681
▁71	-7682
▁dv	-7683
rect	-7684
send	-7685
मार्	-7686
सीबी	-7687
▁fey	-7688
▁sac	-7689
▁wol	-7690
▁नेट	-7691
▁पुण	-7692
inary	-7693
stone	-7694
गरानी	-7695
हाबाद	-7696
▁1985	-7697
▁fish	-7698
▁nest	-7699
▁slam	-7700
▁vess	-7701
▁wear	-7702
▁गाने	-7703
▁बेहत	-7704
▁महान	-7705
▁लाया	-7706
▁संदि	-7707
▁साझा	-7708
▁सिलस	-7709
▁सौंप	-7710
▁roles	-7711
▁गोपाल	-7712
▁डायरे	-7713
▁पोर्ट	-7714
▁बढ़ते	-7715
▁मजबूर	-7716
▁मांगी	-7717
▁श्याम	-7718
▁संतोष	-7719
▁हटाने	-7720
▁हमारा	-7721
ologist	-7722
station	-7723
▁colony	-7724
▁senior	-7725
▁उद्देश	-7726
▁मेट्रो	-7727
▁शुक्ला	-7728
▁artists	-7729
▁capture	-7730
▁गोरखपुर	-7731
▁निगरानी	-7732
▁पीड़िता	-7733
▁activity	-7734
▁property	-7735
▁आधिकारिक	-7736
▁पर्यावरण	-7737
▁लापरवाही	-7738
▁executive	-7739
,9	-7740
दुर	-7741
मेल	-7742
▁फल	-7743
gian	-7744
hood	-7745
load	-7746
ples	-7747
rial	-7748
▁hav	-7749
▁hyd	-7750
▁obt	-7751
▁कवि	-7752
▁घंट	-7753
▁टॉप	-7754
▁तिर	-7755
▁फंड	-7756
ufact	-7757
वाड़ा	-7758
▁1972	-7759
▁coal	-7760
▁fred	-7761
▁kent	-7762
▁lock	-7763
▁onto	-7764
▁कहां	-7765
▁धोनी	-7766
▁शाखा	-7767
▁सुझा	-7768
▁सेंट	-7769
bridge	-7770
ricult	-7771
▁ahead	-7772
▁ceres	-7773
▁dance	-7774
▁minim	-7775
▁tessa	-7776
▁tried	-7777
▁अंजाम	-7778
▁निर्म	-7779
▁मुकेश	-7780
▁युवती	-7781
▁शहरों	-7782
▁हफ्ते	-7783
acement	-7784
▁emphas	-7785
▁propos	-7786
▁spirit	-7787
▁torres	-7788
▁yellow	-7789
▁अरविंद	-7790
▁ड्यूटी	-7791
▁यूजर्स	-7792
▁rapidly	-7793
▁retired	-7794
▁wounded	-7795
▁संरक्षण	-7796
▁स्क्रीन	-7797
▁agricult	-7798
▁collabor	-7799
▁separate	-7800
▁गेंदबाजी	-7801
▁समस्याओं	-7802
▁nominated	-7803
▁promotion	-7804
▁applewhite	-7805
▁philadelphia	-7806
gs	-7807
घर	-7808
डु	-7809
न्व	-7810
▁kr	-7811
▁अक	-7812
▁शख	-7813
acts	-7814
helm	-7815
र्या	-7816
शांत	-7817
स्थल	-7818
▁alt	-7819
▁dog	-7820
▁hip	-7821
▁luc	-7822
▁कैप	-7823
▁सफर	-7824
acher	-7825
usion	-7826
▁fres	-7827
▁gulf	-7828
▁kept	-7829
▁आकर्	-7830
▁दौरा	-7831
▁बजाय	-7832
▁मोटर	-7833
▁शंकर	-7834
▁संगठ	-7835
▁benef	-7836
▁haifa	-7837
▁आसानी	-7838
▁कपड़े	-7839
▁जीतने	-7840
▁न्यून	-7841
▁basket	-7842
▁golden	-7843
▁themes	-7844
▁महाराज	-7845
▁ancient	-7846
▁females	-7847
▁follows	-7848
▁passing	-7849
▁संदिग्ध	-7850
▁townsend	-7851
▁प्रस्तुत	-7852
▁स्वतंत्र	-7853
▁continues	-7854
▁officials	-7855
,0	-7856
75	-7857
चक	-7858
aha	-7859
करा	-7860
▁डो	-7861
▁फि	-7862
आरपी	-7863
दर्श	-7864
द्या	-7865
प्शन	-7866
▁try	-7867
▁लुक	-7868
▁विन	-7869
बालिग	-7870
▁1920	-7871
▁anal	-7872
▁arab	-7873
▁cook	-7874
▁cool	-7875
▁cust	-7876
▁dise	-7877
▁gain	-7878
▁hait	-7879
▁hind	-7880
▁nick	-7881
▁खूबस	-7882
▁देगा	-7883
▁रहें	-7884
▁सकें	-7885
ograph	-7886
timore	-7887
▁lives	-7888
▁plant	-7889
▁share	-7890
▁ऊर्जा	-7891
▁खेलने	-7892
▁जमानत	-7893
▁वेस्ट	-7894
▁columb	-7895
▁finkel	-7896
▁leader	-7897
▁planet	-7898
▁policy	-7899
▁डिजिटल	-7900
▁ability	-7901
▁becomes	-7902
▁distrib	-7903
▁dropped	-7904
▁growing	-7905
▁portion	-7906
▁require	-7907
▁न्यूनतम	-7908
▁actually	-7909
▁improved	-7910
▁practice	-7911
▁डॉक्टरों	-7912
▁परिवर्तन	-7913
▁formation	-7914
▁battleship	-7915
▁republican	-7916
▁supporting	-7917
▁finkelstein	-7918
▁playstation	-7919
▁अफगानिस्तान	-7920
पट	-7921
uge	-7922
vin	-7923
ांश	-7924
ोषण	-7925
▁ps	-7926
aust	-7927
ills	-7928
िलंब	-7929
▁sis	-7930
▁मनो	-7931
▁महज	-7932
▁रूम	-7933
iring	-7934
ब्लिक	-7935
▁1987	-7936
▁Home	-7937
▁grew	-7938
▁join	-7939
▁mole	-7940
▁note	-7941
▁says	-7942
▁उचित	-7943
▁उठाए	-7944
▁कंटे	-7945
▁कमरे	-7946
▁राशन	-7947
▁सचिन	-7948
दराबाद	-7949
▁1,000	-7950
▁faced	-7951
▁fired	-7952
▁habit	-7953
▁medal	-7954
▁trust	-7955
▁इस्ती	-7956
▁कमजोर	-7957
▁चित्र	-7958
▁सीटें	-7959
▁beyond	-7960
▁cities	-7961
▁distin	-7962
▁poetry	-7963
▁spread	-7964
▁survey	-7965
▁temple	-7966
▁मानसिक	-7967
▁योगदान	-7968
ications	-7969
▁cruiser	-7970
▁dismiss	-7971
▁student	-7972
▁व्यवसाय	-7973
▁manufact	-7974
▁memorial	-7975
▁राज्यपाल	-7976
▁हैदराबाद	-7977
▁इंडस्ट्री	-7978
▁मध्यप्रदेश	-7979
▁authorities	-7980
पथ	-7981
kan	-7982
गीय	-7983
श्त	-7984
▁कब	-7985
airs	-7986
fort	-7987
iles	-7988
त्रि	-7989
फिया	-7990
▁aid	-7991
▁bbc	-7992
▁nes	-7993
▁आना	-7994
▁आशी	-7995
▁फिट	-7996
▁भरा	-7997
▁रूस	-7998
▁शोध	-7999
▁सैक	-8000
orter	-8001
ulate	-8002
त्कार	-8003
िमंडल	-8004
▁1989	-8005
▁mike	-8006
▁tact	-8007
▁uses	-8008
▁इतने	-8009
▁खुले	-8010
▁प्रण	-8011
▁बुजु	-8012
▁बेटा	-8013
▁मेहन	-8014
▁सारी	-8015
istics	-8016
▁chose	-8017
▁imper	-8018
▁older	-8019
▁surre	-8020
▁towns	-8021
▁एशिया	-8022
▁कितना	-8023
▁जगहों	-8024
▁दर्जन	-8025
▁परिजन	-8026
▁पार्ष	-8027
▁ब्याज	-8028
▁सिविल	-8029
▁सैन्य	-8030
▁chosen	-8031
▁democr	-8032
▁images	-8033
▁showed	-8034
▁निकाला	-8035
▁वारदात	-8036
▁स्वामी	-8037
▁causing	-8038
▁challen	-8039
▁नाबालिग	-8040
▁पहुंचकर	-8041
▁संविधान	-8042
▁apparent	-8043
▁rejected	-8044
▁battalions	-8045
▁manchester	-8046
▁structures	-8047
35	-8048
aj	-8049
ड्	-8050
चिव	-8051
णसी	-8052
राग	-8053
▁66	-8054
▁iv	-8055
▁अथ	-8056
game	-8057
onym	-8058
व्यू	-8059
▁130	-8060
▁eva	-8061
▁fan	-8062
▁jul	-8063
▁चेक	-8064
▁डिज	-8065
▁शौच	-8066
athus	-8067
ledge	-8068
▁1944	-8069
▁bell	-8070
▁chel	-8071
▁jeff	-8072
▁paid	-8073
▁poly	-8074
▁rise	-8075
▁आपने	-8076
▁जनरल	-8077
▁सारा	-8078
▁fruit	-8079
▁mario	-8080
▁newly	-8081
▁thing	-8082
▁अक्सर	-8083
▁टीमों	-8084
▁बच्ची	-8085
▁campus	-8086
▁surviv	-8087
▁treaty	-8088
▁unlike	-8089
▁खरीदने	-8090
▁ज्योति	-8091
▁पालिका	-8092
व्यवस्था	-8093
स्पेक्टर	-8094
▁adopted	-8095
▁consequ	-8096
▁dollars	-8097
▁medical	-8098
▁related	-8099
▁बढ़ोतरी	-8100
▁बुजुर्ग	-8101
▁engineer	-8102
▁multiple	-8103
▁versions	-8104
▁अनिवार्य	-8105
▁पहुंचाने	-8106
▁आदित्यनाथ	-8107
▁criticized	-8108
▁temperature	-8109
▁यूनिवर्सिटी	-8110
▁increasingly	-8111
18	-8112
दय	-8113
जिद	-8114
डि़	-8115
दास	-8116
वली	-8117
।’’	-8118
▁बध	-8119
oted	-8120
▁bit	-8121
▁dvd	-8122
▁lis	-8123
▁बुल	-8124
▁मुज	-8125
▁सुल	-8126
estic	-8127
ायकों	-8128
▁1918	-8129
▁arms	-8130
▁data	-8131
▁hour	-8132
▁mind	-8133
▁poll	-8134
▁अध्य	-8135
▁रहना	-8136
▁वनडे	-8137
▁साथी	-8138
▁glass	-8139
▁grass	-8140
▁react	-8141
▁sites	-8142
▁आएंगे	-8143
▁साढ़े	-8144
▁सुंदर	-8145
▁सैंपल	-8146
▁स्टेट	-8147
▁argent	-8148
▁arrest	-8149
▁budget	-8150
▁buried	-8151
▁strike	-8152
▁अंग्रे	-8153
▁करवाया	-8154
▁कोरिया	-8155
▁दिखाया	-8156
▁पदार्थ	-8157
▁प्रसार	-8158
▁landing	-8159
▁sources	-8160
▁बेहतरीन	-8161
▁antimony	-8162
▁category	-8163
▁प्रावधान	-8164
▁americans	-8165
▁baltimore	-8166
▁gradually	-8167
▁institute	-8168
▁represented	-8169
▁independence	-8170
ha	-8171
ano	-8172
ros	-8173
sea	-8174
thy	-8175
जित	-8176
जीव	-8177
मती	-8178
मेट	-8179
bitt	-8180
bour	-8181
burg	-8182
lers	-8183
mosp	-8184
wers	-8185
कृति	-8186
▁bru	-8187
▁emb	-8188
▁hms	-8189
▁kit	-8190
▁mis	-8191
▁ode	-8192
▁ram	-8193
▁sor	-8194
▁इंस	-8195
▁खार	-8196
▁चिन	-8197
▁लीग	-8198
▁सकी	-8199
▁सदन	-8200
▁सौर	-8201
water	-8202
प्रिय	-8203
▁1941	-8204
▁1942	-8205
▁aven	-8206
▁cham	-8207
▁गाइड	-8208
▁छापे	-8209
▁डाउन	-8210
▁ममता	-8211
▁मारे	-8212
▁वारा	-8213
▁सख्त	-8214
rative	-8215
क्ताओं	-8216
फ्रेंस	-8217
▁alone	-8218
▁crazy	-8219
▁keats	-8220
▁piano	-8221
▁थोड़ा	-8222
▁encoun	-8223
▁injury	-8224
▁portug	-8225
▁weekly	-8226
▁छोड़कर	-8227
▁जस्टिस	-8228
▁मृत्यु	-8229
▁यात्री	-8230
igration	-8231
▁content	-8232
▁divided	-8233
▁filming	-8234
▁francis	-8235
▁wilhelm	-8236
▁भ्रष्टा	-8237
▁वाराणसी	-8238
▁advanced	-8239
▁computer	-8240
▁scholars	-8241
▁williams	-8242
▁determined	-8243
▁importance	-8244
azz	-8245
ils	-8246
ंटन	-8247
रुख	-8248
वंत	-8249
▁टॉ	-8250
outs	-8251
umes	-8252
न्नई	-8253
▁fix	-8254
▁lew	-8255
▁sky	-8256
▁vic	-8257
▁अके	-8258
▁वसू	-8259
▁हेत	-8260
amese	-8261
istry	-8262
prise	-8263
ेडियम	-8264
▁scul	-8265
▁weak	-8266
▁करार	-8267
▁क्लब	-8268
▁चपेट	-8269
▁बताई	-8270
▁शख्स	-8271
▁संसा	-8272
▁braat	-8273
▁enemy	-8274
▁reign	-8275
▁value	-8276
▁अध्या	-8277
▁एकत्र	-8278
▁जिसने	-8279
▁ज्ञान	-8280
▁प्लेट	-8281
▁सुझाव	-8282
▁स्ट्र	-8283
▁स्पेश	-8284
िक्रिया	-8285
▁atmosp	-8286
▁decade	-8287
▁extend	-8288
▁joseph	-8289
▁simply	-8290
▁अफसरों	-8291
▁शाहरुख	-8292
▁granted	-8293
▁nesbitt	-8294
▁produce	-8295
▁spanish	-8296
▁चेयरमैन	-8297
▁प्रदर्श	-8298
▁मार्केट	-8299
▁संस्कार	-8300
▁conflict	-8301
▁promoted	-8302
▁standing	-8303
▁उद्देश्य	-8304
▁ग्राहकों	-8305
▁consisted	-8306
▁prominent	-8307
▁therefore	-8308
▁dissipated	-8309
▁thunderbirds	-8310
27	-8311
oen	-8312
see	-8313
ंडे	-8314
एडा	-8315
डेट	-8316
राय	-8317
रेज	-8318
र्श	-8319
▁67	-8320
▁गत	-8321
▁पथ	-8322
▁सॉ	-8323
berg	-8324
izes	-8325
वरों	-8326
्यूट	-8327
▁aim	-8328
▁arc	-8329
▁eag	-8330
▁rid	-8331
▁seg	-8332
▁इरा	-8333
▁गुल	-8334
▁नवा	-8335
▁पॉल	-8336
▁भंड	-8337
based	-8338
oured	-8339
परेशन	-8340
▁dram	-8341
▁fame	-8342
▁kang	-8343
▁semi	-8344
▁tint	-8345
▁अधिव	-8346
▁आईटी	-8347
▁खींच	-8348
▁टाइम	-8349
▁डाला	-8350
▁दौड़	-8351
▁हेतु	-8352
heless	-8353
▁compr	-8354
▁delay	-8355
▁depth	-8356
▁excav	-8357
▁ideas	-8358
▁oppos	-8359
▁premi	-8360
▁roads	-8361
▁serve	-8362
▁गार्ड	-8363
▁संशोध	-8364
▁argued	-8365
▁bodies	-8366
▁bottom	-8367
▁सर्विस	-8368
▁element	-8369
▁संगठनों	-8370
▁declined	-8371
▁monument	-8372
▁केंद्रों	-8373
▁secondary	-8374
▁officially	-8375
▁vietnamese	-8376
▁प्रतिक्रिया	-8377
96	-8378
नन	-8379
ene	-8380
mun	-8381
rec	-8382
sec	-8383
ंघन	-8384
ंजी	-8385
ंतु	-8386
खार	-8387
गाह	-8388
जुन	-8389
र्द	-8390
ल्ल	-8391
हूर	-8392
▁73	-8393
appe	-8394
kins	-8395
wise	-8396
▁ash	-8397
▁naz	-8398
▁आये	-8399
aling	-8400
cting	-8401
द्वार	-8402
सिद्ध	-8403
▁1939	-8404
▁boat	-8405
▁crim	-8406
▁crus	-8407
▁hart	-8408
▁jump	-8409
▁unsu	-8410
▁wick	-8411
▁इकाई	-8412
▁इस्ल	-8413
▁रद्द	-8414
▁वस्त	-8415
▁विजे	-8416
▁drama	-8417
▁omaha	-8418
▁अफ्री	-8419
▁भरोसा	-8420
▁मेहनत	-8421
▁संकेत	-8422
▁स्टूड	-8423
▁cambod	-8424
▁choice	-8425
▁escape	-8426
▁filmed	-8427
▁mechan	-8428
▁passes	-8429
▁tintin	-8430
▁weight	-8431
▁reserve	-8432
▁दर्शकों	-8433
▁बदमाशों	-8434
▁सैकड़ों	-8435
▁scottish	-8436
▁weakened	-8437
▁इलेक्ट्र	-8438
▁विधायकों	-8439
▁braathens	-8440
▁उल्लेखनीय	-8441
ँच	-8442
रज	-8443
रू	-8444
।”	-8445
▁q	-8446
ees	-8447
mal	-8448
▁ऐप	-8449
▁ग्	-8450
hire	-8451
ingu	-8452
ogue	-8453
जल्ट	-8454
द्रा	-8455
निर्	-8456
▁110	-8457
▁160	-8458
▁hat	-8459
▁jup	-8460
▁rub	-8461
▁अना	-8462
▁आधा	-8463
▁पोल	-8464
▁रोम	-8465
▁रोल	-8466
ansas	-8467
asure	-8468
fully	-8469
ूर्ना	-8470
▁1969	-8471
▁andy	-8472
▁cart	-8473
▁hell	-8474
▁rush	-8475
▁solo	-8476
▁subs	-8477
▁vice	-8478
▁webs	-8479
▁उल्ल	-8480
▁कहने	-8481
▁चक्र	-8482
▁डांस	-8483
▁बीमा	-8484
▁माया	-8485
▁exhib	-8486
▁gradu	-8487
▁shape	-8488
▁steve	-8489
▁urban	-8490
▁जाहिर	-8491
▁नोएडा	-8492
▁लक्षण	-8493
▁actors	-8494
▁illust	-8495
▁oxford	-8496
▁rating	-8497
▁reserv	-8498
▁टूर्ना	-8499
▁दिग्गज	-8500
▁नारायण	-8501
▁मतदाता	-8502
▁रिजल्ट	-8503
▁विरोधी	-8504
▁herself	-8505
▁problem	-8506
▁agreement	-8507
▁confirmed	-8508
▁scheduled	-8509
▁worldwide	-8510
▁frequently	-8511
▁influenced	-8512
▁टूर्नामेंट	-8513
▁पाकिस्तानी	-8514
पक	-8515
्प	-8516
iro	-8517
lso	-8518
ura	-8519
यां	-8520
याब	-8521
सुर	-8522
्ति	-8523
▁79	-8524
▁गह	-8525
▁धु	-8526
etic	-8527
illa	-8528
uous	-8529
त्मा	-8530
वरूप	-8531
▁700	-8532
▁cin	-8533
▁मद्	-8534
▁शेर	-8535
ented	-8536
▁1965	-8537
▁clou	-8538
▁gang	-8539
▁laid	-8540
▁pine	-8541
▁risk	-8542
▁wins	-8543
▁अरुण	-8544
▁इनका	-8545
▁चंडी	-8546
▁दिये	-8547
जीलैंड	-8548
▁europ	-8549
▁जल्दी	-8550
▁जानिए	-8551
▁जुड़ा	-8552
▁acting	-8553
▁andrew	-8554
▁claims	-8555
▁निकाली	-8556
▁पर्यटन	-8557
▁engaged	-8558
▁funding	-8559
▁jupiter	-8560
▁systems	-8561
▁व्यवहार	-8562
▁invasion	-8563
▁आतंकियों	-8564
▁ज्यादातर	-8565
▁राज्यसभा	-8566
▁इंस्पेक्टर	-8567
▁intelligence	-8568
-0	-8569
ev	-8570
ew	-8571
pa	-8572
tw	-8573
थर	-8574
aen	-8575
करे	-8576
फोट	-8577
▁77	-8578
▁ओल	-8579
▁झू	-8580
agan	-8581
एंगे	-8582
घाटन	-8583
पिता	-8584
स्तक	-8585
▁jon	-8586
▁rot	-8587
▁गीत	-8588
▁नशे	-8589
▁महो	-8590
level	-8591
ज्ञात	-8592
युक्त	-8593
▁1917	-8594
▁1971	-8595
▁deck	-8596
▁चाहे	-8597
▁पावर	-8598
▁सोना	-8599
श्वासन	-8600
▁behav	-8601
▁china	-8602
▁knots	-8603
▁prime	-8604
▁train	-8605
▁wrest	-8606
▁उठाने	-8607
▁जयंती	-8608
▁जिनके	-8609
▁जोड़ी	-8610
▁दैनिक	-8611
▁भारती	-8612
▁मारने	-8613
▁लेंगे	-8614
▁होंगी	-8615
▁allied	-8616
▁अध्ययन	-8617
▁चेन्नई	-8618
▁तकनीकी	-8619
▁पड़ेगा	-8620
▁मद्देन	-8621
▁मिलाकर	-8622
▁रिजर्व	-8623
▁सोनिया	-8624
heastern	-8625
कारात्मक	-8626
▁fantasy	-8627
▁visited	-8628
▁इंटरनेट	-8629
▁बिल्कुल	-8630
▁महासचिव	-8631
▁विद्युत	-8632
▁creation	-8633
▁इंटरव्यू	-8634
▁पर्याप्त	-8635
▁स्टेडियम	-8636
▁abandoned	-8637
▁certified	-8638
▁explained	-8639
▁producers	-8640
▁protection	-8641
▁भ्रष्टाचार	-8642
.3	-8643
14	-8644
uk	-8645
जब	-8646
ike	-8647
जान	-8648
त्‍	-8649
ाये	-8650
ियस	-8651
ुति	-8652
▁gh	-8653
▁अट	-8654
▁खत	-8655
▁छु	-8656
▁नज	-8657
elsh	-8658
eral	-8659
icts	-8660
rain	-8661
then	-8662
क्षर	-8663
टीवी	-8664
डिया	-8665
त्सव	-8666
माने	-8667
▁ell	-8668
▁खोज	-8669
▁गोद	-8670
▁धार	-8671
▁बाय	-8672
▁स्म	-8673
▁barb	-8674
▁clar	-8675
▁gram	-8676
▁seat	-8677
▁vert	-8678
▁काली	-8679
▁ठेके	-8680
▁यहाँ	-8681
▁समीप	-8682
▁स्टी	-8683
itable	-8684
stream	-8685
▁artic	-8686
▁boise	-8687
▁crowd	-8688
▁gross	-8689
▁holly	-8690
▁lieut	-8691
▁mouth	-8692
▁odaen	-8693
▁outer	-8694
▁welsh	-8695
▁एक्टर	-8696
▁खोलने	-8697
▁समक्ष	-8698
osaurus	-8699
▁chains	-8700
▁visual	-8701
▁अज्ञात	-8702
▁किरदार	-8703
▁दिवसीय	-8704
▁बैंकों	-8705
▁contain	-8706
▁failure	-8707
▁meaning	-8708
▁nothing	-8709
▁protein	-8710
▁restaur	-8711
▁stopped	-8712
▁domestic	-8713
▁michigan	-8714
▁planning	-8715
▁highlight	-8716
▁necessary	-8717
▁basketball	-8718
▁odaenathus	-8719
▁skyscrapers	-8720
▁व्यापारियों	-8721
▁श्रद्धालुओं	-8722
▁conservation	-8723
45	-8724
तू	-8725
िफ	-8726
-10	-8727
oys	-8728
pro	-8729
पूत	-8730
ल्‍	-8731
षेक	-8732
ाइप	-8733
ेलर	-8734
▁et	-8735
▁ml	-8736
bean	-8737
स्तर	-8738
िताभ	-8739
▁gas	-8740
▁एके	-8741
▁दुख	-8742
▁बड़	-8743
▁शेष	-8744
▁सेल	-8745
orses	-8746
ेंट्स	-8747
▁bart	-8748
▁carl	-8749
▁chor	-8750
▁prin	-8751
▁अभ्य	-8752
▁इंजन	-8753
▁एंटी	-8754
▁तत्व	-8755
▁पीने	-8756
▁फ्री	-8757
▁बधाई	-8758
▁रणनी	-8759
glades	-8760
ounder	-8761
मूर्ति	-8762
▁adams	-8763
▁faith	-8764
▁flank	-8765
▁gully	-8766
▁motor	-8767
▁stret	-8768
▁youth	-8769
▁चलाया	-8770
▁प्रोड	-8771
▁ब्लॉक	-8772
▁boston	-8773
▁degree	-8774
▁lasted	-8775
▁letter	-8776
▁martin	-8777
▁matter	-8778
▁निपटने	-8779
▁animals	-8780
▁briefly	-8781
▁cardiff	-8782
▁founded	-8783
▁killing	-8784
▁roughly	-8785
▁आश्वासन	-8786
▁विभागों	-8787
▁breeding	-8788
▁families	-8789
▁function	-8790
▁reaction	-8791
▁straight	-8792
▁एयरपोर्ट	-8793
▁knowledge	-8794
▁archaeological	-8795
15	-8796
बो	-8797
car	-8798
don	-8799
ety	-8800
च्‍	-8801
▁कस	-8802
▁जि	-8803
icip	-8804
ंगना	-8805
ंपिक	-8806
िटेड	-8807
▁eth	-8808
▁guy	-8809
▁rit	-8810
▁rod	-8811
▁ron	-8812
▁why	-8813
▁आलो	-8814
▁बेड	-8815
▁रकम	-8816
पूर्व	-8817
▁zone	-8818
▁अतिक	-8819
▁अभिन	-8820
▁गैंग	-8821
▁घाटी	-8822
▁टाटा	-8823
▁तालि	-8824
▁दावे	-8825
▁प्रस	-8826
▁भेजे	-8827
▁लाइट	-8828
▁लीटर	-8829
▁समझा	-8830
ibbean	-8831
▁brian	-8832
▁gives	-8833
▁neigh	-8834
▁trail	-8835
▁आजादी	-8836
▁इनकार	-8837
▁कब्जा	-8838
▁खबरें	-8839
▁जिक्र	-8840
▁निशान	-8841
▁मैसेज	-8842
▁horses	-8843
▁motion	-8844
▁starts	-8845
▁symbol	-8846
▁turner	-8847
▁अमिताभ	-8848
▁जीएसटी	-8849
▁निकलने	-8850
▁प्लांट	-8851
▁मिट्टी	-8852
▁श्रमिक	-8853
ographer	-8854
▁results	-8855
▁प्रारंभ	-8856
▁creating	-8857
▁maryland	-8858
▁programs	-8859
▁register	-8860
▁छात्राओं	-8861
▁caribbean	-8862
▁condition	-8863
▁equipment	-8864
▁regarding	-8865
▁everglades	-8866
▁participated	-8867
▁championships	-8868
ीर	-8869
acu	-8870
ips	-8871
ंसर	-8872
रिए	-8873
ानु	-8874
▁59	-8875
▁61	-8876
▁87	-8877
▁98	-8878
▁दह	-8879
▁फस	-8880
....	-8881
more	-8882
offs	-8883
rian	-8884
unte	-8885
ंचाई	-8886
एसएस	-8887
ड्डा	-8888
हारी	-8889
्रेड	-8890
▁jur	-8891
▁lib	-8892
▁lov	-8893
▁tru	-8894
▁vul	-8895
▁अदा	-8896
▁दशक	-8897
▁भले	-8898
▁शिम	-8899
▁सेन	-8900
astic	-8901
िन्हा	-8902
ुलेंस	-8903
▁1914	-8904
▁1946	-8905
▁1968	-8906
▁dock	-8907
▁feed	-8908
▁link	-8909
▁save	-8910
▁चैंप	-8911
▁जंगल	-8912
▁दुबे	-8913
▁रमेश	-8914
▁शारी	-8915
▁सागर	-8916
▁स्पी	-8917
ifying	-8918
▁girls	-8919
▁occas	-8920
▁rival	-8921
▁कितने	-8922
▁खारिज	-8923
▁मशहूर	-8924
▁हस्ता	-8925
▁हिसाब	-8926
▁column	-8927
▁deaths	-8928
▁nathan	-8929
▁polish	-8930
▁powers	-8931
▁sculpt	-8932
▁इंस्टा	-8933
▁पार्षद	-8934
▁बनर्जी	-8935
▁मांगों	-8936
▁pitched	-8937
▁railway	-8938
▁volunte	-8939
▁उल्लंघन	-8940
▁निकालने	-8941
▁शारीरिक	-8942
▁electric	-8943
▁negative	-8944
▁religion	-8945
▁stations	-8946
▁suggests	-8947
▁चिकित्सक	-8948
▁नागरिकों	-8949
▁प्रतिनिध	-8950
▁dedicated	-8951
▁household	-8952
▁surrender	-8953
▁unsuccess	-8954
▁settlement	-8955
▁opportunity	-8956
.'	-8957
.6	-8958
obe	-8959
ंडर	-8960
नेक	-8961
म्स	-8962
र्ज	-8963
श्म	-8964
साइ	-8965
▁62	-8966
▁टन	-8967
▁तृ	-8968
▁मक	-8969
ayer	-8970
ella	-8971
ysis	-8972
स्कर	-8973
ाहरण	-8974
▁jam	-8975
▁unf	-8976
▁गाँ	-8977
▁ताल	-8978
▁रॉय	-8979
▁लोन	-8980
▁सिक	-8981
▁हरी	-8982
iance	-8983
inity	-8984
rence	-8985
shire	-8986
हत्या	-8987
▁1916	-8988
▁1952	-8989
▁1973	-8990
▁bath	-8991
▁didn	-8992
▁earn	-8993
▁eyes	-8994
▁indu	-8995
▁lege	-8996
▁mile	-8997
▁virt	-8998
▁इसको	-8999
▁धरना	-9000
▁बुरा	-9001
▁माने	-9002
▁श्रृ	-9003
ancing	-9004
iments	-9005
orious	-9006
season	-9007
▁beaut	-9008
▁boats	-9009
▁emper	-9010
▁homes	-9011
▁italy	-9012
▁phill	-9013
▁piece	-9014
▁walls	-9015
▁किताब	-9016
▁विधेय	-9017
▁विशाल	-9018
issance	-9019
▁bishop	-9020
▁compar	-9021
▁deploy	-9022
▁romani	-9023
▁senate	-9024
▁supply	-9025
▁अब्दुल	-9026
▁श्रेणी	-9027
▁स्पेशल	-9028
▁applied	-9029
▁believe	-9030
▁chronic	-9031
▁reasons	-9032
▁serving	-9033
▁unknown	-9034
▁शिवसेना	-9035
▁सैनिकों	-9036
▁champion	-9037
▁regarded	-9038
▁परिवारों	-9039
▁मद्देनजर	-9040
▁historian	-9041
▁receiving	-9042
▁reference	-9043
▁maintained	-9044
▁subsequent	-9045
-6	-9046
ek	-9047
hi	-9048
ईओ	-9049
ero	-9050
han	-9051
oms	-9052
जलि	-9053
ष्‍	-9054
हूं	-9055
िटल	-9056
्मण	-9057
▁94	-9058
▁शर	-9059
aret	-9060
body	-9061
lyss	-9062
एससी	-9063
शाली	-9064
▁mul	-9065
▁कथा	-9066
▁कोर	-9067
▁गड़	-9068
▁घोट	-9069
▁मस्	-9070
▁मुआ	-9071
▁लिम	-9072
▁शेख	-9073
ivity	-9074
uting	-9075
worth	-9076
ड़िया	-9077
द्दीन	-9078
▁1936	-9079
▁1967	-9080
▁bush	-9081
▁dete	-9082
▁fuel	-9083
▁sund	-9084
▁गौतम	-9085
▁जीता	-9086
▁ताकत	-9087
▁मुंह	-9088
▁रक्त	-9089
▁रनों	-9090
▁वायु	-9091
▁विरु	-9092
▁होली	-9093
minute	-9094
स्कृति	-9095
▁alkan	-9096
▁basin	-9097
▁conve	-9098
▁finds	-9099
▁fount	-9100
▁fresh	-9101
▁meyer	-9102
▁pilot	-9103
▁watch	-9104
▁चीजों	-9105
▁बढ़ती	-9106
▁संभाल	-9107
borough	-9108
▁adding	-9109
▁couple	-9110
▁favour	-9111
▁franch	-9112
▁losses	-9113
▁sector	-9114
▁sought	-9115
▁आंकड़ा	-9116
▁प्रकरण	-9117
▁शौचालय	-9118
▁सिन्हा	-9119
▁deliver	-9120
▁reconst	-9121
▁seventh	-9122
▁अधिकांश	-9123
▁अभ्यर्थ	-9124
▁मुद्दों	-9125
▁download	-9126
▁अतिक्रमण	-9127
▁प्रतिदिन	-9128
▁प्राइवेट	-9129
▁लड़कियों	-9130
▁लोकप्रिय	-9131
▁reviewers	-9132
▁containing	-9133
▁facilities	-9134
fe	-9135
ux	-9136
vo	-9137
चि	-9138
▁”	-9139
200	-9140
bri	-9141
iqu	-9142
rin	-9143
पंच	-9144
स्म	-9145
्टन	-9146
▁93	-9147
▁97	-9148
▁99	-9149
▁ka	-9150
▁ry	-9151
ette	-9152
icks	-9153
odes	-9154
rete	-9155
yson	-9156
स्टे	-9157
▁gab	-9158
▁jin	-9159
▁lee	-9160
▁ray	-9161
▁roc	-9162
▁पिट	-9163
▁बूथ	-9164
▁सेट	-9165
▁हित	-9166
aming	-9167
तायात	-9168
्यूटर	-9169
▁1974	-9170
▁duke	-9171
▁folk	-9172
▁glob	-9173
▁अमरी	-9174
▁अल्प	-9175
▁अस्थ	-9176
▁आर्ट	-9177
▁गुना	-9178
▁बढ़ी	-9179
▁बरसा	-9180
▁बुरी	-9181
▁लालू	-9182
▁शांत	-9183
▁शिखर	-9184
प्रकाश	-9185
▁adapt	-9186
▁haven	-9187
▁lands	-9188
▁phoen	-9189
▁अतिथि	-9190
▁जापान	-9191
▁दिनेश	-9192
▁पिछली	-9193
▁प्रेस	-9194
▁बालों	-9195
▁बेचने	-9196
▁शुरूआ	-9197
▁सहमति	-9198
द्योगिक	-9199
▁appeal	-9200
▁avenue	-9201
▁belong	-9202
▁growth	-9203
▁palest	-9204
▁rachel	-9205
▁transl	-9206
▁कॉलोनी	-9207
▁पांडेय	-9208
▁बढ़ावा	-9209
▁महीनों	-9210
▁regions	-9211
▁substit	-9212
▁weapons	-9213
▁windows	-9214
▁यातायात	-9215
▁इलाहाबाद	-9216
▁effective	-9217
▁extensive	-9218
▁reception	-9219
▁treatment	-9220
▁lieutenant	-9221
▁possibility	-9222
▁commissioned	-9223
▁अर्थव्यवस्था	-9224
.8	-9225
ेप	-9226
aug	-9227
ipl	-9228
irt	-9229
mod	-9230
pty	-9231
टरी	-9232
रोध	-9233
हीन	-9234
िसी	-9235
▁69	-9236
▁96	-9237
▁रॉ	-9238
aser	-9239
iled	-9240
lies	-9241
oses	-9242
आईआर	-9243
फ्फर	-9244
लंका	-9245
शंकर	-9246
ांतर	-9247
▁fal	-9248
▁kir	-9249
▁utc	-9250
▁पदक	-9251
▁भरे	-9252
▁भूल	-9253
▁मंज	-9254
▁माय	-9255
▁सेक	-9256
imens	-9257
lings	-9258
▁pack	-9259
▁rome	-9260
▁warm	-9261
▁आएगा	-9262
▁जेएन	-9263
▁देखी	-9264
▁बढ़त	-9265
▁बसपा	-9266
▁बसों	-9267
▁मुसल	-9268
▁रेफर	-9269
▁लाइफ	-9270
▁सत्य	-9271
lysses	-9272
▁brook	-9273
▁cases	-9274
▁comes	-9275
▁decre	-9276
▁defin	-9277
▁grade	-9278
▁homer	-9279
▁plate	-9280
▁steel	-9281
▁अपडेट	-9282
▁कटौती	-9283
▁ग्वाल	-9284
▁चोरों	-9285
▁विज्ञ	-9286
clusion	-9287
iations	-9288
▁charts	-9289
▁corpor	-9290
▁missed	-9291
▁अधिकतम	-9292
▁ऑपरेशन	-9293
▁दिलाने	-9294
▁संकल्प	-9295
▁chelsea	-9296
▁decades	-9297
▁finding	-9298
▁focused	-9299
▁massive	-9300
▁penalty	-9301
▁turning	-9302
▁ulysses	-9303
▁website	-9304
▁प्रभावी	-9305
▁concrete	-9306
▁कारोबारी	-9307
▁निरीक्षक	-9308
▁पहुंचाया	-9309
▁मतदाताओं	-9310
▁संस्कृति	-9311
▁connected	-9312
▁newspaper	-9313
▁permanent	-9314
▁न्यूजीलैंड	-9315
▁व्यक्तियों	-9316
▁transportation	-9317
11	-9318
apo	-9319
isf	-9320
गेट	-9321
मेर	-9322
्वी	-9323
▁bh	-9324
▁कच	-9325
foot	-9326
kish	-9327
part	-9328
pton	-9329
गणना	-9330
मपुर	-9331
▁abu	-9332
▁eld	-9333
▁ice	-9334
▁joy	-9335
▁kes	-9336
▁liu	-9337
▁que	-9338
▁ros	-9339
▁rum	-9340
▁sin	-9341
▁जहा	-9342
▁फर्	-9343
▁विप	-9344
दायिक	-9345
फॉर्म	-9346
▁1919	-9347
▁1953	-9348
▁stew	-9349
▁yank	-9350
▁नज़र	-9351
▁पूजन	-9352
▁रेखा	-9353
insula	-9354
▁alien	-9355
▁canal	-9356
▁cited	-9357
▁items	-9358
▁opera	-9359
▁speak	-9360
▁कैमरा	-9361
▁गेहूं	-9362
▁जानें	-9363
▁जुर्म	-9364
▁निकला	-9365
▁प्रती	-9366
▁प्रमो	-9367
▁स्कोर	-9368
तिहासिक	-9369
▁concer	-9370
▁fellow	-9371
▁finish	-9372
▁fought	-9373
▁slowly	-9374
▁theory	-9375
▁volume	-9376
▁एसएसपी	-9377
▁कीमतों	-9378
▁तमिलना	-9379
▁पक्षों	-9380
▁पोस्टर	-9381
▁राजपूत	-9382
entially	-9383
▁justice	-9384
▁keswick	-9385
▁pattern	-9386
▁teacher	-9387
▁प्रतिभा	-9388
▁recently	-9389
▁violence	-9390
▁peninsula	-9391
▁southeast	-9392
▁कार्यवाही	-9393
▁activision	-9394
▁recognized	-9395
▁experienced	-9396
26	-9397
ey	-9398
ta	-9399
ims	-9400
unk	-9401
जनक	-9402
नोद	-9403
लील	-9404
सेस	-9405
▁3.	-9406
▁ओम	-9407
▁बग	-9408
लिंग	-9409
्तीय	-9410
▁600	-9411
▁ken	-9412
▁mtv	-9413
▁आइए	-9414
▁इंच	-9415
▁उन्	-9416
▁एंट	-9417
▁कमि	-9418
▁दाय	-9419
▁बैग	-9420
▁मचा	-9421
atops	-9422
ordin	-9423
स्थाप	-9424
्यूरो	-9425
▁1937	-9426
▁1966	-9427
▁1981	-9428
▁diam	-9429
▁extr	-9430
▁fict	-9431
▁gord	-9432
▁gray	-9433
▁marl	-9434
▁tail	-9435
▁tend	-9436
▁उड़ा	-9437
▁गणेश	-9438
▁जानी	-9439
▁डेटा	-9440
▁दोषी	-9441
▁द्वि	-9442
▁नवीन	-9443
▁बचने	-9444
▁मेगा	-9445
▁रिया	-9446
▁विधि	-9447
▁capac	-9448
▁citiz	-9449
▁hired	-9450
▁joint	-9451
▁lords	-9452
▁negot	-9453
▁sweet	-9454
▁table	-9455
▁आंखों	-9456
▁उपकरण	-9457
▁कैमरे	-9458
▁क्षति	-9459
▁चार्ज	-9460
▁फार्म	-9461
▁बिलास	-9462
▁मांगा	-9463
▁शिमला	-9464
western	-9465
स्कृतिक	-9466
▁chance	-9467
▁serves	-9468
▁simone	-9469
▁stages	-9470
▁writes	-9471
▁आक्रोश	-9472
▁उदाहरण	-9473
▁दीपिका	-9474
▁पहलवान	-9475
▁बहादुर	-9476
▁मुद्दा	-9477
▁संचालक	-9478
▁accompl	-9479
▁aspects	-9480
▁billion	-9481
▁disappe	-9482
▁reflect	-9483
▁चंडीगढ़	-9484
▁वित्तीय	-9485
▁accident	-9486
▁ceremony	-9487
▁entering	-9488
▁gameplay	-9489
▁possibly	-9490
▁substant	-9491
▁tennyson	-9492
▁yankovic	-9493
▁व्यापारी	-9494
▁श्रीलंका	-9495
▁उन्‍होंने	-9496
▁contributed	-9497
▁interchange	-9498
▁significantly	-9499
घु	-9500
जो	-9501
मस	-9502
ada	-9503
ads	-9504
gie	-9505
ote	-9506
ंगन	-9507
ज़ा	-9508
जात	-9509
राइ	-9510
‍ली	-9511
▁84	-9512
▁ll	-9513
▁oh	-9514
▁आह	-9515
▁पव	-9516
▁सश	-9517
illo	-9518
long	-9519
rets	-9520
town	-9521
usal	-9522
बीसी	-9523
▁bes	-9524
▁cry	-9525
▁max	-9526
▁mut	-9527
▁tie	-9528
▁एका	-9529
▁चीफ	-9530
▁धमा	-9531
▁रुक	-9532
▁हनु	-9533
त्साह	-9534
▁bern	-9535
▁lisa	-9536
▁remn	-9537
▁ring	-9538
▁अनेक	-9539
▁गायब	-9540
▁बांट	-9541
▁भरने	-9542
▁मनीष	-9543
iences	-9544
lected	-9545
orters	-9546
▁acres	-9547
▁seems	-9548
▁करवाई	-9549
▁कर्मी	-9550
▁गोल्ड	-9551
▁चांदी	-9552
▁जिनकी	-9553
▁डालने	-9554
▁नक्सल	-9555
▁फायदे	-9556
▁वसूली	-9557
▁विनोद	-9558
▁संगीत	-9559
▁affect	-9560
▁cougar	-9561
▁resour	-9562
▁secure	-9563
▁severe	-9564
▁अर्जुन	-9565
▁इंदिरा	-9566
▁व्यापक	-9567
▁समाचार	-9568
▁स्वस्थ	-9569
izations	-9570
▁charlie	-9571
▁disease	-9572
▁innings	-9573
▁learned	-9574
▁longest	-9575
▁monarch	-9576
▁receive	-9577
▁आंकड़ों	-9578
▁उद्घाटन	-9579
▁गंभीरता	-9580
▁जन्मदिन	-9581
▁ट्रैफिक	-9582
▁दोस्तों	-9583
▁विरुद्ध	-9584
▁athletic	-9585
▁existing	-9586
▁prepared	-9587
▁railroad	-9588
▁बिलासपुर	-9589
▁राजकुमार	-9590
▁criticism	-9591
▁questions	-9592
▁responded	-9593
▁southwest	-9594
▁strengthen	-9595
▁millionaire	-9596
▁इंस्टाग्राम	-9597
▁additionally	-9598
ns	-9599
igr	-9600
kin	-9601
घ्र	-9602
चीन	-9603
लीय	-9604
ोली	-9605
्मत	-9606
▁''	-9607
▁05	-9608
▁छठ	-9609
▁बट	-9610
▁शह	-9611
bled	-9612
bles	-9613
lane	-9614
mark	-9615
rupt	-9616
ंख्य	-9617
माही	-9618
िस्ट	-9619
▁lev	-9620
▁tra	-9621
▁करो	-9622
▁खून	-9623
▁गंद	-9624
▁सीओ	-9625
▁सीख	-9626
ading	-9627
olved	-9628
right	-9629
works	-9630
धुनिक	-9631
▁1943	-9632
▁chur	-9633
▁hits	-9634
▁purs	-9635
▁sail	-9636
▁soft	-9637
▁thin	-9638
▁unus	-9639
▁खड़ी	-9640
▁खतरे	-9641
▁खाता	-9642
▁धीरे	-9643
▁धोखा	-9644
▁राजन	-9645
▁लगते	-9646
▁शर्म	-9647
ocated	-9648
▁adult	-9649
▁arsen	-9650
▁dougl	-9651
▁evacu	-9652
▁floor	-9653
▁phase	-9654
▁quite	-9655
▁split	-9656
▁store	-9657
▁voted	-9658
▁कंगना	-9659
▁जानने	-9660
▁स्नान	-9661
▁हराया	-9662
onymous	-9663
▁allows	-9664
▁normal	-9665
▁simple	-9666
▁titled	-9667
▁trying	-9668
▁window	-9669
▁पोर्टल	-9670
▁arrival	-9671
▁emperor	-9672
▁signing	-9673
▁चैंपियन	-9674
▁तालिबान	-9675
▁निर्यात	-9676
▁प्रेरित	-9677
▁मान्यता	-9678
▁मुसलमान	-9679
▁incident	-9680
▁operated	-9681
▁repeated	-9682
▁settlers	-9683
▁आतंकवादी	-9684
▁कार्यकाल	-9685
▁ग्वालियर	-9686
▁प्रसिद्ध	-9687
▁purchased	-9688
▁succeeded	-9689
▁तैयारियां	-9690
▁destroyers	-9691
▁nomination	-9692
▁engineering	-9693
▁constitution	-9694
ez	-9695
ूत	-9696
oir	-9697
दून	-9698
विक	-9699
सून	-9700
ॉजी	-9701
▁ye	-9702
▁तू	-9703
▁बम	-9704
▁मथ	-9705
beer	-9706
come	-9707
thur	-9708
ंखला	-9709
ग्रह	-9710
डब्ल	-9711
डीपी	-9712
ल्ले	-9713
ूंगा	-9714
▁eat	-9715
▁fro	-9716
▁jay	-9717
▁sym	-9718
▁डाक	-9719
▁नित	-9720
▁भरी	-9721
▁मैन	-9722
▁वजन	-9723
▁हॉल	-9724
arian	-9725
ilton	-9726
ध्याय	-9727
स्टिक	-9728
▁1975	-9729
▁calc	-9730
▁cens	-9731
▁drew	-9732
▁fear	-9733
▁grav	-9734
▁sarn	-9735
▁sort	-9736
▁soul	-9737
▁अश्व	-9738
▁आएगी	-9739
▁किमी	-9740
▁गड़ब	-9741
▁छोटा	-9742
▁दायर	-9743
▁बदले	-9744
▁सच्च	-9745
▁सिने	-9746
▁सेहत	-9747
हरादून	-9748
▁attor	-9749
▁begun	-9750
▁comic	-9751
▁dated	-9752
▁exped	-9753
▁frame	-9754
▁heard	-9755
▁lewis	-9756
▁paint	-9757
▁releg	-9758
▁somal	-9759
▁डालकर	-9760
▁डेस्क	-9761
▁देखना	-9762
▁पात्र	-9763
▁animal	-9764
▁cooper	-9765
▁daniel	-9766
▁demand	-9767
▁gordon	-9768
▁pieces	-9769
▁prefer	-9770
▁speech	-9771
▁अभिषेक	-9772
▁करवाने	-9773
▁क्राइम	-9774
▁पाएंगे	-9775
▁प्रश्न	-9776
▁मोर्चा	-9777
▁सुशांत	-9778
ographic	-9779
▁attract	-9780
▁charges	-9781
▁opinion	-9782
▁passage	-9783
▁younger	-9784
▁अफ्रीका	-9785
▁खूबसूरत	-9786
▁arranged	-9787
▁athletes	-9788
▁brothers	-9789
▁commonly	-9790
▁imperial	-9791
▁politics	-9792
▁औद्योगिक	-9793
▁तमिलनाडु	-9794
▁सीसीटीवी	-9795
▁candidate	-9796
▁currently	-9797
▁reinforce	-9798
▁remainder	-9799
▁difficulty	-9800
▁everything	-9801
▁सांस्कृतिक	-9802
▁australians	-9803
▁competitions	-9804
पै	-9805
रस	-9806
inn	-9807
iva	-9808
ych	-9809
zac	-9810
खों	-9811
फार	-9812
भाष	-9813
्लो	-9814
▁63	-9815
▁89	-9816
▁wy	-9817
▁कं	-9818
▁यश	-9819
anas	-9820
erog	-9821
केशन	-9822
▁dry	-9823
▁hug	-9824
▁jes	-9825
▁jos	-9826
▁kak	-9827
▁kel	-9828
▁अपर	-9829
▁आशा	-9830
▁कुश	-9831
▁घाय	-9832
▁जगत	-9833
▁परम	-9834
▁रिल	-9835
▁विल	-9836
chers	-9837
ichol	-9838
कृष्ण	-9839
ांजलि	-9840
▁1915	-9841
▁1949	-9842
▁1963	-9843
▁1976	-9844
▁alan	-9845
▁belt	-9846
▁brid	-9847
▁flat	-9848
▁jews	-9849
▁mand	-9850
▁mist	-9851
▁pric	-9852
▁roof	-9853
▁tied	-9854
▁टेली	-9855
▁डीसी	-9856
▁बारी	-9857
▁ब्ला	-9858
▁लंदन	-9859
▁शिल्	-9860
▁शुरु	-9861
▁ससुर	-9862
वास्तव	-9863
▁agent	-9864
▁armor	-9865
▁entry	-9866
▁exerc	-9867
▁falls	-9868
▁funds	-9869
▁guide	-9870
▁hotel	-9871
▁jones	-9872
▁tells	-9873
▁जरिये	-9874
▁फसलों	-9875
▁बातों	-9876
▁बॉक्स	-9877
▁मालूम	-9878
▁शुल्क	-9879
▁सब्जी	-9880
pective	-9881
▁10,000	-9882
▁chapel	-9883
▁elimin	-9884
▁sarnia	-9885
▁unique	-9886
▁कुमारी	-9887
▁संसदीय	-9888
▁सप्लाई	-9889
▁correct	-9890
▁douglas	-9891
▁earthqu	-9892
▁economy	-9893
▁evening	-9894
▁protect	-9895
▁replace	-9896
▁transit	-9897
▁प्रतिमा	-9898
▁मुजफ्फर	-9899
▁chairman	-9900
▁platform	-9901
▁रजिस्ट्र	-9902
▁assistant	-9903
▁challenge	-9904
▁meyerbeer	-9905
▁आत्महत्या	-9906
▁approached	-9907
▁developing	-9908
▁popularity	-9909
▁sufficient	-9910
▁प्राथमिकता	-9911
28	-9912
नम	-9913
cer	-9914
mes	-9915
▁07	-9916
▁nc	-9917
▁अह	-9918
▁इश	-9919
▁गी	-9920
▁घे	-9921
▁जॉ	-9922
▁फं	-9923
aked	-9924
kare	-9925
mans	-9926
धारी	-9927
पाठी	-9928
▁dar	-9929
▁egg	-9930
▁les	-9931
▁mit	-9932
▁tel	-9933
▁upd	-9934
▁ओपन	-9935
▁खतर	-9936
▁बुक	-9937
▁मधु	-9938
▁लेन	-9939
▁हां	-9940
▁हाइ	-9941
brien	-9942
ighth	-9943
ishes	-9944
▁dial	-9945
▁heat	-9946
▁lenn	-9947
▁myth	-9948
▁ways	-9949
▁ईरान	-9950
▁एकता	-9951
▁कायम	-9952
▁चालू	-9953
▁निष्	-9954
▁पायल	-9955
▁फ़िल	-9956
▁बर्फ	-9957
▁बिंद	-9958
▁रखकर	-9959
▁लिंक	-9960
▁सोनू	-9961
atures	-9962
graded	-9963
ंत्रित	-9964
▁anzac	-9965
▁cinem	-9966
▁drawn	-9967
▁dutch	-9968
▁तारीफ	-9969
▁पंडित	-9970
▁मानें	-9971
▁यूनिट	-9972
▁रांची	-9973
▁विवेक	-9974
▁शीघ्र	-9975
▁हादसा	-9976
utation	-9977
रेन्द्र	-9978
▁famous	-9979
▁nether	-9980
▁owners	-9981
▁shared	-9982
▁submar	-9983
▁आंकड़े	-9984
▁घायलों	-9985
▁प्रयाग	-9986
▁मुहैया	-9987
▁रोजाना	-9988
▁विजेता	-9989
▁विद्या	-9990
▁विधेयक	-9991
▁शिवराज	-9992
▁स्वर्ण	-9993
▁appoint	-9994
▁decline	-9995
▁phoenix	-9996
▁senator	-9997
▁इस्तीफा	-9998
▁attorney	-9999
▁brigades	-10000
▁churches	-10001
▁concerns	-10002
▁distingu	-10003
▁earliest	-10004
▁fountain	-10005
▁छापेमारी	-10006
▁ट्रैक्टर	-10007
▁सुविधाओं	-10008
▁collected	-10009
▁contained	-10010
▁engineers	-10011
▁fictional	-10012
▁finishing	-10013
▁technical	-10014
▁प्रशासनिक	-10015
▁assistance	-10016
▁controlled	-10017
▁convention	-10018
▁outstanding	-10019
▁replacement	-10020
▁successfully	-10021
16	-10022
कै	-10023
ूँ	-10024
can	-10025
ेटर	-10026
▁68	-10027
▁ऑल	-10028
cend	-10029
haps	-10030
iday	-10031
rane	-10032
दिया	-10033
बीएस	-10034
भारत	-10035
▁usa	-10036
▁एग्	-10037
▁करण	-10038
▁कैश	-10039
▁गुम	-10040
▁धूम	-10041
▁पवन	-10042
▁पृथ	-10043
▁बॉस	-10044
lines	-10045
चंद्र	-10046
▁1954	-10047
▁bald	-10048
▁ends	-10049
▁marg	-10050
▁mine	-10051
▁ones	-10052
▁pope	-10053
▁sara	-10054
▁sole	-10055
▁किंग	-10056
▁गुस्	-10057
▁पुष्	-10058
▁बताए	-10059
▁माफी	-10060
▁रचना	-10061
▁विश्	-10062
▁व्हा	-10063
apping	-10064
ashion	-10065
ceived	-10066
iverse	-10067
▁aware	-10068
▁limit	-10069
▁pitch	-10070
▁rural	-10071
▁खबरों	-10072
▁जताया	-10073
▁ठाकरे	-10074
▁बताने	-10075
▁मथुरा	-10076
▁सकेगा	-10077
▁सुनाई	-10078
▁हवाले	-10079
▁caught	-10080
▁denied	-10081
▁expans	-10082
▁explos	-10083
▁kakapo	-10084
▁mortal	-10085
▁terror	-10086
▁छुट्टी	-10087
▁पूर्वी	-10088
▁बुलाया	-10089
▁स्टैंड	-10090
▁हनुमान	-10091
▁feeling	-10092
▁invited	-10093
▁methods	-10094
▁perhaps	-10095
▁turkish	-10096
▁watched	-10097
▁witness	-10098
▁कनेक्शन	-10099
▁काउंसिल	-10100
▁ज़्यादा	-10101
▁दिल्‍ली	-10102
▁नाराजगी	-10103
▁ब्रिटेन	-10104
▁विपक्षी	-10105
▁entirely	-10106
▁घटनास्थल	-10107
▁समाजवादी	-10108
▁converted	-10109
▁mountains	-10110
▁प्रोत्साह	-10111
▁performing	-10112
▁skyscraper	-10113
▁जिलाध्यक्ष	-10114
▁archaeology	-10115
▁न्यायमूर्ति	-10116
▁occasionally	-10117
्ब	-10118
ंगर	-10119
कोट	-10120
चंद	-10121
जुट	-10122
▁01	-10123
▁ai	-10124
▁नु	-10125
▁बढ	-10126
cont	-10127
iant	-10128
oked	-10129
ults	-10130
ंगाई	-10131
कांत	-10132
जारा	-10133
वर्क	-10134
वाड़	-10135
▁164	-10136
▁enl	-10137
▁gil	-10138
▁kat	-10139
▁opt	-10140
▁आईं	-10141
▁एंब	-10142
▁ओपी	-10143
▁नाथ	-10144
▁मुर	-10145
▁यमु	-10146
▁व्र	-10147
▁साव	-10148
▁हेड	-10149
break	-10150
psons	-10151
कृतिक	-10152
धिकरण	-10153
वर्धन	-10154
शियों	-10155
▁1000	-10156
▁1890	-10157
▁1955	-10158
▁1956	-10159
▁1978	-10160
▁djed	-10161
▁exec	-10162
▁firm	-10163
▁hear	-10164
▁jazz	-10165
▁अगली	-10166
▁चैनल	-10167
▁चौथे	-10168
▁ठहरा	-10169
▁नामक	-10170
▁नेहर	-10171
▁बलों	-10172
▁मनोर	-10173
▁वर्क	-10174
▁विवि	-10175
▁सपना	-10176
▁स्टो	-10177
▁हस्त	-10178
▁हेल्	-10179
ग्रस्त	-10180
▁freed	-10181
▁learn	-10182
▁lover	-10183
▁pregn	-10184
▁एकजुट	-10185
▁कमांड	-10186
▁कितनी	-10187
▁कैंसर	-10188
▁थोड़ी	-10189
▁निलंब	-10190
▁बदलने	-10191
▁बनाना	-10192
▁शुभार	-10193
▁courts	-10194
▁exclus	-10195
▁rifles	-10196
▁routes	-10197
▁safety	-10198
▁thirty	-10199
▁आरोपों	-10200
▁घटनाओं	-10201
▁जाएंगी	-10202
▁फ्रांस	-10203
▁ब्रांड	-10204
▁संशोधन	-10205
▁greatly	-10206
▁neither	-10207
▁analysis	-10208
▁capacity	-10209
▁djedkare	-10210
▁employed	-10211
▁simpsons	-10212
▁दस्तावेज	-10213
▁देहरादून	-10214
▁राजेंद्र	-10215
▁क्षेत्रीय	-10216
▁हस्ताक्षर	-10217
▁industrial	-10218
▁interested	-10219
▁opposition	-10220
▁श्रीवास्तव	-10221
▁स्वतंत्रता	-10222
-8	-10223
णि	-10224
ुन	-10225
cle	-10226
har	-10227
new	-10228
str	-10229
गति	-10230
बरा	-10231
भूम	-10232
शाह	-10233
साई	-10234
िको	-10235
्ती	-10236
्रल	-10237
▁भि	-10238
▁हक	-10239
इयों	-10240
क्षम	-10241
स्‍ट	-10242
▁lic	-10243
▁गाज	-10244
▁ढंग	-10245
▁नयी	-10246
▁नील	-10247
▁फाइ	-10248
▁बहस	-10249
▁भरप	-10250
▁शपथ	-10251
▁शोर	-10252
▁साज	-10253
▁होश	-10254
jamal	-10255
pread	-10256
वर्ती	-10257
▁1945	-10258
▁cole	-10259
▁frag	-10260
▁mode	-10261
▁pros	-10262
▁pupp	-10263
▁task	-10264
▁yard	-10265
▁गलती	-10266
▁पेपर	-10267
▁फीसद	-10268
▁मुआव	-10269
▁मेला	-10270
▁यूरो	-10271
▁रहकर	-10272
▁रानी	-10273
▁शहरी	-10274
▁साइक	-10275
▁हरकत	-10276
americ	-10277
फिकेशन	-10278
▁hoped	-10279
▁macle	-10280
▁owned	-10281
▁wides	-10282
▁आग्रह	-10283
▁दीवार	-10284
▁assass	-10285
▁bright	-10286
▁custom	-10287
▁format	-10288
▁philos	-10289
▁picked	-10290
▁एफआईआर	-10291
▁ओलंपिक	-10292
▁दुर्गा	-10293
▁पब्लिक	-10294
▁भक्तों	-10295
▁शुरूआत	-10296
▁colonel	-10297
▁municip	-10298
▁notable	-10299
▁offense	-10300
▁फायरिंग	-10301
▁मायावती	-10302
▁colonies	-10303
▁expanded	-10304
▁literary	-10305
▁morrison	-10306
▁shooting	-10307
▁survived	-10308
▁ऐतिहासिक	-10309
▁जुर्माना	-10310
▁storyline	-10311
▁contestant	-10312
▁experiment	-10313
▁identified	-10314
▁threatened	-10315
▁populations	-10316
▁establishment	-10317
17	-10318
29	-10319
jo	-10320
ka	-10321
तो	-10322
cru	-10323
ela	-10324
thm	-10325
ule	-10326
कॉम	-10327
डनी	-10328
देह	-10329
धीन	-10330
ह्न	-10331
िमा	-10332
क्की	-10333
क्षी	-10334
वाणी	-10335
वेयर	-10336
ष्णु	-10337
्योर	-10338
▁dub	-10339
▁lbw	-10340
▁loy	-10341
▁sed	-10342
▁जूझ	-10343
▁तिल	-10344
▁नये	-10345
▁बजा	-10346
▁यौन	-10347
essed	-10348
oking	-10349
ublin	-10350
▁1958	-10351
▁1961	-10352
▁coin	-10353
▁door	-10354
▁merc	-10355
▁neck	-10356
▁puzz	-10357
▁rand	-10358
▁sche	-10359
▁spin	-10360
▁कैला	-10361
▁गठित	-10362
▁तेंद	-10363
▁नजदी	-10364
▁पैदल	-10365
▁मेले	-10366
▁राणा	-10367
ritage	-10368
▁crime	-10369
▁hills	-10370
▁initi	-10371
▁prede	-10372
▁rooms	-10373
▁scrap	-10374
▁shore	-10375
▁आदर्श	-10376
▁प्रीम	-10377
▁फांसी	-10378
▁बच्चन	-10379
▁ब्रेक	-10380
▁भेजने	-10381
▁सक्षम	-10382
ception	-10383
▁belief	-10384
▁circum	-10385
▁dublin	-10386
▁estate	-10387
▁patrol	-10388
▁rivers	-10389
▁अनुरोध	-10390
▁कानूनी	-10391
▁डिजाइन	-10392
▁बढ़ाकर	-10393
▁युवकों	-10394
▁सिनेमा	-10395
▁charter	-10396
▁details	-10397
▁enjoyed	-10398
▁missing	-10399
▁rangers	-10400
▁ratings	-10401
▁reconna	-10402
▁chemical	-10403
▁columbia	-10404
▁heritage	-10405
▁interact	-10406
▁maintain	-10407
▁occupied	-10408
▁olympics	-10409
▁अधिवक्ता	-10410
▁पंचायतों	-10411
▁franchise	-10412
▁protected	-10413
▁classified	-10414
▁earthquake	-10415
▁encouraged	-10416
▁accompanied	-10417
▁controversy	-10418
▁designation	-10419
▁involvement	-10420
▁legislation	-10421
▁reconnaissance	-10422
95	-10423
ya	-10424
बु	-10425
वक	-10426
oty	-10427
ंबा	-10428
आईए	-10429
पंथ	-10430
्टा	-10431
▁06	-10432
▁Ne	-10433
▁बौ	-10434
▁लव	-10435
elli	-10436
inor	-10437
ione	-10438
jevo	-10439
okes	-10440
resp	-10441
rons	-10442
wich	-10443
अपने	-10444
एनएस	-10445
तरीय	-10446
वेदी	-10447
सवाल	-10448
▁flu	-10449
▁nom	-10450
▁अन्	-10451
▁अवि	-10452
▁आंध	-10453
▁ऑफर	-10454
▁गढ़	-10455
▁तार	-10456
▁भोज	-10457
etime	-10458
ffman	-10459
tendo	-10460
verse	-10461
संख्य	-10462
▁1948	-10463
▁boys	-10464
▁cris	-10465
▁fine	-10466
▁gone	-10467
▁knew	-10468
▁mint	-10469
▁plum	-10470
▁pole	-10471
▁vary	-10472
▁walk	-10473
▁काले	-10474
▁टेक्	-10475
▁दिली	-10476
▁निकट	-10477
▁पौधे	-10478
▁मारा	-10479
▁यहीं	-10480
▁हैंड	-10481
स्त्री	-10482
स्थिति	-10483
▁scale	-10484
▁इंसान	-10485
▁कामका	-10486
▁क्लिक	-10487
▁चक्कर	-10488
▁पकड़े	-10489
▁लड़ने	-10490
▁सौंपा	-10491
igation	-10492
▁colour	-10493
▁convoy	-10494
▁escort	-10495
▁global	-10496
▁hearts	-10497
▁humans	-10498
▁inspir	-10499
▁rescue	-10500
▁तिमाही	-10501
▁प्रगति	-10502
▁रणनीति	-10503
▁सीनियर	-10504
▁classic	-10505
▁coastal	-10506
▁crossed	-10507
▁holding	-10508
▁picture	-10509
▁rolling	-10510
▁ड्राइवर	-10511
▁academic	-10512
▁admitted	-10513
▁glorious	-10514
▁nintendo	-10515
▁sarajevo	-10516
▁sentence	-10517
▁उपाध्याय	-10518
▁त्रिपाठी	-10519
▁निर्माता	-10520
▁पार्किंग	-10521
▁श्रृंखला	-10522
▁destroyer	-10523
▁intention	-10524
▁locations	-10525
▁mentioned	-10526
▁principal	-10527
▁producing	-10528
▁watershed	-10529
▁डायरेक्टर	-10530
▁तैयारियों	-10531
▁atmosphere	-10532
▁electronic	-10533
▁generation	-10534
▁reputation	-10535
▁restaurant	-10536
▁विद्यार्थी	-10537
▁alternative	-10538
▁combination	-10539
पल	-10540
ैट	-10541
zer	-10542
ड़न	-10543
रोह	-10544
र्ख	-10545
हरण	-10546
▁अज	-10547
▁पश	-10548
abil	-10549
acks	-10550
apes	-10551
ardo	-10552
ares	-10553
iece	-10554
mble	-10555
zona	-10556
ैक्ट	-10557
▁140	-10558
▁fel	-10559
▁hud	-10560
▁pir	-10561
▁tas	-10562
▁uns	-10563
▁किल	-10564
▁कोय	-10565
▁जाल	-10566
▁निच	-10567
▁बेल	-10568
▁मेन	-10569
▁शरण	-10570
ctors	-10571
ights	-10572
ropri	-10573
कालीन	-10574
▁1880	-10575
▁1910	-10576
▁1911	-10577
▁1913	-10578
▁adap	-10579
▁goes	-10580
▁hang	-10581
▁heli	-10582
▁isol	-10583
▁stev	-10584
▁trop	-10585
▁अवगत	-10586
▁कौशल	-10587
▁गोवा	-10588
▁नर्स	-10589
▁म्यू	-10590
▁वादा	-10591
▁सोनी	-10592
▁हार्	-10593
aments	-10594
▁busch	-10595
▁clock	-10596
▁eagle	-10597
▁evita	-10598
▁hydro	-10599
▁kings	-10600
▁magic	-10601
▁molec	-10602
▁अखबार	-10603
▁कस्बे	-10604
▁ग्रहण	-10605
▁तरीका	-10606
▁प्रभु	-10607
▁प्राप	-10608
▁बराबर	-10609
▁बेंगल	-10610
▁सेल्स	-10611
theless	-10612
कर्ताओं	-10613
▁astron	-10614
▁chorus	-10615
▁expect	-10616
▁marine	-10617
▁regime	-10618
▁seeing	-10619
▁sunday	-10620
▁undert	-10621
▁आधुनिक	-10622
▁इंटरने	-10623
▁जबलपुर	-10624
▁प्रदीप	-10625
▁सेवाएं	-10626
▁arizona	-10627
▁contact	-10628
▁montana	-10629
▁reading	-10630
▁setting	-10631
▁श्रीनगर	-10632
▁acquired	-10633
▁egyptian	-10634
▁missions	-10635
▁terminus	-10636
▁victoria	-10637
▁opponents	-10638
▁providing	-10639
▁thousands	-10640
▁पत्रकारों	-10641
▁convection	-10642
▁instrument	-10643
▁literature	-10644
▁widespread	-10645
▁उपभोक्ताओं	-10646
▁प्रस्तावित	-10647
▁nevertheless	-10648
',	-10649
la	-10650
यह	-10651
ycl	-10652
तला	-10653
धित	-10654
रेन	-10655
ोजक	-10656
▁ic	-10657
▁sa	-10658
▁गू	-10659
▁मछ	-10660
agre	-10661
anda	-10662
aska	-10663
book	-10664
eper	-10665
real	-10666
ture	-10667
श्री	-10668
▁bom	-10669
▁mir	-10670
▁sud	-10671
▁tot	-10672
▁unp	-10673
▁आजम	-10674
▁इंट	-10675
▁चीज	-10676
▁झेल	-10677
▁ध्व	-10678
▁पंप	-10679
▁बीज	-10680
▁रुख	-10681
▁सूर	-10682
ieval	-10683
istan	-10684
state	-10685
दर्शन	-10686
स्टार	-10687
▁anne	-10688
▁glad	-10689
▁rebu	-10690
▁sher	-10691
▁shif	-10692
▁stef	-10693
▁swed	-10694
▁synd	-10695
▁wars	-10696
▁आयुष	-10697
▁आरपी	-10698
▁गाना	-10699
▁गोयल	-10700
▁गौरव	-10701
▁चांद	-10702
▁जाया	-10703
▁तलाक	-10704
▁दरवा	-10705
▁दिलच	-10706
▁देगी	-10707
▁देरी	-10708
▁फेंक	-10709
▁फ्ला	-10710
▁सिंध	-10711
coming	-10712
ivered	-10713
्योहार	-10714
▁poems	-10715
▁prize	-10716
▁reven	-10717
▁santa	-10718
▁tests	-10719
▁tries	-10720
▁truth	-10721
▁घंटों	-10722
▁चिन्ह	-10723
▁पिटाई	-10724
▁सुभाष	-10725
▁सुर्ख	-10726
mission	-10727
▁leaves	-10728
▁option	-10729
▁prerog	-10730
▁retire	-10731
▁towers	-10732
▁अनुराग	-10733
▁अभिभाव	-10734
▁एंट्री	-10735
▁डाक्टर	-10736
▁दिव्या	-10737
▁रिसर्च	-10738
▁सपोर्ट	-10739
▁address	-10740
▁batsman	-10741
▁croatia	-10742
▁typical	-10743
▁अभियंता	-10744
▁bringing	-10745
▁interior	-10746
▁measures	-10747
▁pleasure	-10748
▁resident	-10749
▁anonymous	-10750
▁professor	-10751
▁इंटरनेशनल	-10752
▁leadership	-10753
इड	-10754
एप	-10755
सद	-10756
ौत	-10757
’,	-10758
bon	-10759
hop	-10760
sch	-10761
कां	-10762
शिक	-10763
ोने	-10764
▁08	-10765
▁74	-10766
▁86	-10767
▁इट	-10768
alle	-10769
iced	-10770
nell	-10771
orer	-10772
uese	-10773
एचसी	-10774
पन्न	-10775
फेसर	-10776
भूमि	-10777
▁ble	-10778
▁bos	-10779
▁cov	-10780
▁ira	-10781
▁pap	-10782
▁riv	-10783
▁tub	-10784
▁डेब	-10785
▁पटा	-10786
▁मरा	-10787
▁रेप	-10788
▁सार	-10789
erted	-10790
hroom	-10791
iling	-10792
oming	-10793
point	-10794
प्रीत	-10795
▁1951	-10796
▁1982	-10797
▁asia	-10798
▁sang	-10799
▁vent	-10800
▁एम्स	-10801
▁क्ली	-10802
▁गहरा	-10803
▁छेड़	-10804
▁जुटा	-10805
▁दलित	-10806
▁पर्स	-10807
▁ब्रा	-10808
▁रोका	-10809
ranean	-10810
▁amate	-10811
▁brand	-10812
▁camps	-10813
▁coins	-10814
▁conne	-10815
▁dates	-10816
▁demol	-10817
▁embar	-10818
▁exact	-10819
▁recre	-10820
▁rocky	-10821
▁solid	-10822
▁turns	-10823
▁worst	-10824
▁wrong	-10825
▁इमरान	-10826
▁उत्सव	-10827
▁खासकर	-10828
▁फोर्स	-10829
▁बढ़ता	-10830
▁सैनिक	-10831
rations	-10832
ructure	-10833
▁desire	-10834
▁detail	-10835
▁gather	-10836
▁portra	-10837
▁preced	-10838
▁trials	-10839
▁vision	-10840
▁walter	-10841
▁आलोचना	-10842
▁ट्रेलर	-10843
▁तैनाती	-10844
▁बिजनेस	-10845
▁महंगाई	-10846
▁मुखिया	-10847
▁anthony	-10848
▁arsenal	-10849
▁capable	-10850
▁chapter	-10851
▁convers	-10852
▁driving	-10853
▁getting	-10854
▁improve	-10855
▁purpose	-10856
▁renamed	-10857
▁stephen	-10858
▁wedding	-10859
▁निश्चित	-10860
▁प्रबंधक	-10861
▁महात्मा	-10862
▁महोत्सव	-10863
▁लिमिटेड	-10864
▁accommod	-10865
▁bradford	-10866
▁hamilton	-10867
▁mushroom	-10868
▁nighting	-10869
▁township	-10870
▁उपायुक्त	-10871
▁नईदुनिया	-10872
▁appearing	-10873
▁cambridge	-10874
▁centuries	-10875
▁delivered	-10876
▁dismissed	-10877
▁dominated	-10878
▁exception	-10879
▁existence	-10880
▁resources	-10881
▁connection	-10882
▁portuguese	-10883
▁richardson	-10884
▁विद्यालयों	-10885
▁circulation	-10886
▁कार्यक्रमों	-10887
▁श्रद्धांजलि	-10888
▁agricultural	-10889
▁distribution	-10890
▁introduction	-10891
cy	-10892
za	-10893
मल	-10894
यत	-10895
सह	-10896
bro	-10897
gov	-10898
rus	-10899
ंचल	-10900
पता	-10901
पात	-10902
सास	-10903
सीन	-10904
▁02	-10905
▁03	-10906
▁78	-10907
▁आफ	-10908
▁तल	-10909
asty	-10910
graf	-10911
onso	-10912
आईटी	-10913
मोहन	-10914
▁gra	-10915
▁hob	-10916
▁hoc	-10917
▁jac	-10918
▁kar	-10919
▁map	-10920
▁कौर	-10921
▁लैब	-10922
▁लोह	-10923
annah	-10924
antly	-10925
erick	-10926
illed	-10927
फारिश	-10928
मार्ग	-10929
सूचित	-10930
ृत्ति	-10931
▁1932	-10932
▁1977	-10933
▁exit	-10934
▁greg	-10935
▁moon	-10936
▁push	-10937
▁wolf	-10938
▁अमृत	-10939
▁आपदा	-10940
▁इजाज	-10941
▁खोला	-10942
▁जनजा	-10943
▁दीपा	-10944
▁पूछे	-10945
▁बादल	-10946
▁महेश	-10947
ighter	-10948
issipp	-10949
स्पिटल	-10950
▁2,000	-10951
▁accur	-10952
▁displ	-10953
▁haiti	-10954
▁marsh	-10955
▁moves	-10956
▁ninth	-10957
▁orche	-10958
▁raise	-10959
▁rules	-10960
▁shots	-10961
▁supre	-10962
▁कोर्स	-10963
▁चीजें	-10964
▁निर्द	-10965
▁पड़ने	-10966
▁पढ़ने	-10967
▁मित्र	-10968
▁मुफ्त	-10969
▁लिखित	-10970
▁साजिश	-10971
ignment	-10972
▁albert	-10973
▁bought	-10974
▁disapp	-10975
▁editor	-10976
▁filled	-10977
▁jersey	-10978
▁lennon	-10979
▁overse	-10980
▁satisf	-10981
▁अपराधी	-10982
▁कुलदीप	-10983
▁पासवान	-10984
▁विक्रम	-10985
▁स्तरीय	-10986
▁स्वरूप	-10987
▁assumed	-10988
▁climate	-10989
▁disturb	-10990
▁flights	-10991
▁macleod	-10992
▁proport	-10993
▁secured	-10994
▁stevens	-10995
▁turrets	-10996
▁कानूनों	-10997
▁नोटबंदी	-10998
▁महेंद्र	-10999
▁शुभारंभ	-11000
▁सिफारिश	-11001
▁सिलसिला	-11002
▁accounts	-11003
▁anything	-11004
▁circumst	-11005
▁citizens	-11006
▁civilian	-11007
▁colonial	-11008
▁depicted	-11009
▁exchange	-11010
▁favorite	-11011
▁markgraf	-11012
▁medieval	-11013
▁meetings	-11014
▁sessions	-11015
▁teaching	-11016
▁vehicles	-11017
▁आरोपितों	-11018
▁कंपनियां	-11019
▁कलाकारों	-11020
▁commanded	-11021
▁dangerous	-11022
▁immediate	-11023
▁portrayed	-11024
▁predecess	-11025
▁surviving	-11026
▁survivors	-11027
▁प्राधिकरण	-11028
▁completion	-11029
▁supporters	-11030
▁transition	-11031
▁पुलिसकर्मी	-11032
▁nightingale	-11033
▁publication	-11034
▁institutions	-11035
oe	-11036
oh	-11037
खल	-11038
ीट	-11039
alf	-11040
eds	-11041
gus	-11042
how	-11043
uit	-11044
केज	-11045
गित	-11046
घाट	-11047
जिए	-11048
टिल	-11049
ड्ढ	-11050
ढ़ा	-11051
धाम	-11052
याल	-11053
ेयर	-11054
ोसी	-11055
▁91	-11056
▁रथ	-11057
elve	-11058
heim	-11059
ider	-11060
rant	-11061
rier	-11062
suit	-11063
डियो	-11064
फ्तर	-11065
रियल	-11066
ेडकर	-11067
▁kid	-11068
▁kur	-11069
▁mog	-11070
▁अगु	-11071
▁खनन	-11072
▁डोज	-11073
▁रवी	-11074
▁शतक	-11075
allow	-11076
berts	-11077
eenth	-11078
erved	-11079
चारिक	-11080
चार्ज	-11081
वितीय	-11082
शिष्ट	-11083
ोग्रा	-11084
ोलॉजी	-11085
▁1962	-11086
▁1979	-11087
▁Also	-11088
▁corp	-11089
▁grey	-11090
▁leon	-11091
▁oslo	-11092
▁अथवा	-11093
▁आंगन	-11094
▁उज्ज	-11095
▁कच्च	-11096
▁गर्व	-11097
▁पाइप	-11098
▁फीचर	-11099
▁बतौर	-11100
▁भागी	-11101
▁भाषण	-11102
▁लिखे	-11103
▁समर्	-11104
▁सूरत	-11105
encies	-11106
friend	-11107
▁maria	-11108
▁midge	-11109
▁psych	-11110
▁recur	-11111
▁shear	-11112
▁wants	-11113
▁ईश्वर	-11114
▁एक्शन	-11115
▁कैलाश	-11116
▁गिरने	-11117
▁दफ्तर	-11118
▁देशभर	-11119
▁पत्थर	-11120
▁रणवीर	-11121
▁वृद्ध	-11122
▁सर्वा	-11123
▁हाईवे	-11124
issippi	-11125
न्द्रीय	-11126
▁50,000	-11127
▁carter	-11128
▁eleven	-11129
▁fields	-11130
▁inland	-11131
▁landed	-11132
▁occurs	-11133
▁sevent	-11134
▁strand	-11135
▁triple	-11136
▁twelve	-11137
▁viewed	-11138
▁wooden	-11139
▁इस्लाम	-11140
▁निर्भर	-11141
▁बालिका	-11142
▁भाइयों	-11143
▁मूर्ति	-11144
▁admiral	-11145
▁exhaust	-11146
▁existed	-11147
▁formula	-11148
▁masters	-11149
▁offices	-11150
▁proceed	-11151
▁session	-11152
▁strateg	-11153
▁त्योहार	-11154
▁शुरुआती	-11155
▁counties	-11156
▁learning	-11157
▁phillies	-11158
▁strongly	-11159
▁जागरूकता	-11160
▁स्वच्छता	-11161
▁argentina	-11162
▁battlecru	-11163
▁francisco	-11164
▁operating	-11165
▁standards	-11166
▁suffering	-11167
▁अल्पसंख्य	-11168
▁मंत्रियों	-11169
▁democratic	-11170
▁composition	-11171
▁territories	-11172
▁intersection	-11173
▁पुलिसकर्मियों	-11174
ti	-11175
एँ	-11176
यु	-11177
़ा	-11178
-16	-11179
eme	-11180
gas	-11181
ंकज	-11182
दूस	-11183
माइ	-11184
िडी	-11185
▁88	-11186
▁झग	-11187
▁टो	-11188
▁तथ	-11189
▁हृ	-11190
amic	-11191
burn	-11192
laim	-11193
oles	-11194
opes	-11195
कांग	-11196
काया	-11197
ब्दी	-11198
रानी	-11199
ियंस	-11200
्रीट	-11201
▁cob	-11202
▁cos	-11203
▁lap	-11204
▁nad	-11205
▁nas	-11206
▁pav	-11207
▁wim	-11208
▁अपे	-11209
▁अमे	-11210
▁एडम	-11211
▁एडी	-11212
▁द्र	-11213
▁बाई	-11214
iable	-11215
idden	-11216
inder	-11217
itled	-11218
स्पति	-11219
▁1909	-11220
▁1912	-11221
▁acts	-11222
▁alle	-11223
▁bono	-11224
▁clay	-11225
▁hull	-11226
▁isab	-11227
▁shut	-11228
▁अत्य	-11229
▁आर्य	-11230
▁एनएच	-11231
▁ग्रे	-11232
▁जबरद	-11233
▁नौकर	-11234
▁पाते	-11235
▁भेंट	-11236
▁सांप	-11237
tering	-11238
स्टेबल	-11239
▁bulls	-11240
▁campb	-11241
▁divor	-11242
▁expos	-11243
▁heads	-11244
▁jesus	-11245
▁rifle	-11246
▁roxas	-11247
▁ruled	-11248
▁slide	-11249
▁worth	-11250
▁अपहरण	-11251
▁अफवाह	-11252
▁इच्छा	-11253
▁ड्रेस	-11254
▁दिलीप	-11255
▁निकाय	-11256
▁नेहरू	-11257
▁पारित	-11258
▁फ्रंट	-11259
▁मानते	-11260
▁सर्वो	-11261
▁cancer	-11262
▁howard	-11263
▁labour	-11264
▁novels	-11265
▁resear	-11266
▁आपत्ति	-11267
▁उत्तरी	-11268
▁एक्टिव	-11269
▁खतरनाक	-11270
▁गरीबों	-11271
▁ग्राहक	-11272
▁प्रिंस	-11273
▁प्रेमी	-11274
▁ब्यूरो	-11275
▁सेवाओं	-11276
american	-11277
▁confron	-11278
▁destiny	-11279
▁drawing	-11280
▁fashion	-11281
▁roberts	-11282
▁worship	-11283
▁आदिवासी	-11284
▁नेटवर्क	-11285
▁सांसदों	-11286
▁cambodia	-11287
▁credited	-11288
▁protagon	-11289
▁songwrit	-11290
▁तत्कालीन	-11291
▁सुविधाएं	-11292
▁सेल्सियस	-11293
▁attacking	-11294
▁elsewhere	-11295
▁hollywood	-11296
▁implement	-11297
▁indicated	-11298
▁interests	-11299
▁personnel	-11300
▁similarly	-11301
▁statement	-11302
▁प्रयागराज	-11303
▁वैज्ञानिक	-11304
▁व्यक्तिगत	-11305
▁संस्थानों	-11306
▁afterwards	-11307
▁attempting	-11308
▁consisting	-11309
▁enterprise	-11310
▁netherlands	-11311
▁prerogative	-11312
▁recognition	-11313
▁महाविद्यालय	-11314
▁considerable	-11315
▁representing	-11316
▁organizations	-11317
.7	-11318
ym	-11319
जग	-11320
थन	-11321
ूस	-11322
ati	-11323
ato	-11324
col	-11325
ena	-11326
isy	-11327
itt	-11328
mat	-11329
rum	-11330
vis	-11331
दिक	-11332
▁81	-11333
▁PM	-11334
▁जज	-11335
▁लल	-11336
ador	-11337
adow	-11338
itan	-11339
वायर	-11340
विंग	-11341
शासन	-11342
▁alf	-11343
▁cav	-11344
▁dru	-11345
▁hok	-11346
▁hou	-11347
▁ing	-11348
▁joe	-11349
▁nbc	-11350
▁अटल	-11351
▁अश्	-11352
▁चाय	-11353
▁चोप	-11354
▁पाक	-11355
▁फंस	-11356
▁बला	-11357
▁भूप	-11358
▁माँ	-11359
▁सुष	-11360
atech	-11361
inger	-11362
itors	-11363
pping	-11364
रिएंट	-11365
्यवाद	-11366
▁1931	-11367
▁2022	-11368
▁dipl	-11369
▁legs	-11370
▁libr	-11371
▁tick	-11372
▁util	-11373
▁आरंभ	-11374
▁उमेश	-11375
▁कहती	-11376
▁काबू	-11377
▁काला	-11378
▁जुटी	-11379
▁बंदी	-11380
▁बॉडी	-11381
▁भट्ट	-11382
▁लेवल	-11383
▁व्रत	-11384
▁सबके	-11385
▁सब्ज	-11386
▁हर्ष	-11387
inking	-11388
usalem	-11389
सीसीआई	-11390
स्वामी	-11391
▁advis	-11392
▁autom	-11393
▁cabin	-11394
▁faces	-11395
▁georg	-11396
▁holds	-11397
▁inaug	-11398
▁plain	-11399
▁treas	-11400
▁उत्पी	-11401
▁कराना	-11402
▁खिताब	-11403
▁चेहरा	-11404
▁निराश	-11405
▁पृष्ठ	-11406
▁प्रको	-11407
▁बच्चा	-11408
▁मासूम	-11409
▁साहिब	-11410
▁सुनने	-11411
ivalent	-11412
respond	-11413
▁blocks	-11414
▁convin	-11415
▁crisis	-11416
▁eighth	-11417
▁maggie	-11418
▁memory	-11419
▁seemed	-11420
▁जोड़ने	-11421
▁परिचाल	-11422
▁बढ़ाया	-11423
▁समझौता	-11424
▁समझौते	-11425
▁साइकिल	-11426
▁सियासी	-11427
iversary	-11428
ologists	-11429
▁diamond	-11430
▁imagine	-11431
▁paralle	-11432
▁patrick	-11433
▁settled	-11434
▁stefani	-11435
▁कॉलेजों	-11436
▁ट्रेनों	-11437
▁डाउनलोड	-11438
▁पुरुषों	-11439
▁संबंधों	-11440
▁सिलेंडर	-11441
▁astronom	-11442
▁consists	-11443
▁descript	-11444
▁lawrence	-11445
▁purchase	-11446
▁sections	-11447
▁supposed	-11448
▁watching	-11449
▁alexander	-11450
▁defeating	-11451
▁discussed	-11452
▁divisions	-11453
▁emotional	-11454
▁jerusalem	-11455
▁महामंत्री	-11456
▁सिद्धार्थ	-11457
▁biographer	-11458
▁describing	-11459
▁hurricanes	-11460
▁चिकित्सकों	-11461
▁contestants	-11462
▁mississippi	-11463
▁responsibility	-11464
ét	-11465
बै	-11466
यक	-11467
ौज	-11468
amy	-11469
bie	-11470
hou	-11471
tar	-11472
uma	-11473
कूल	-11474
ग्न	-11475
टाम	-11476
न्‍	-11477
वों	-11478
ाइज	-11479
▁09	-11480
▁छत	-11481
▁वस	-11482
avia	-11483
rell	-11484
umps	-11485
ंडीज	-11486
करार	-11487
क्रो	-11488
चर्स	-11489
तिथि	-11490
धाना	-11491
रेली	-11492
ार्क	-11493
ार्ट	-11494
ृत्य	-11495
ॉर्ट	-11496
▁350	-11497
▁cul	-11498
▁web	-11499
▁अंस	-11500
▁उदय	-11501
▁औसत	-11502
▁घेर	-11503
▁डें	-11504
▁नाल	-11505
▁पलट	-11506
▁फॉर	-11507
▁बरत	-11508
▁बाज	-11509
▁मजा	-11510
▁मुठ	-11511
▁वाज	-11512
▁हुस	-11513
aware	-11514
icial	-11515
ंकिंग	-11516
▁1983	-11517
▁bure	-11518
▁eliz	-11519
▁lane	-11520
▁laws	-11521
▁marc	-11522
▁आरटी	-11523
▁कमाई	-11524
▁कारा	-11525
▁चावल	-11526
▁डाली	-11527
▁पंकज	-11528
▁बाला	-11529
▁बोला	-11530
▁ब्रह	-11531
▁मोड़	-11532
▁शब्द	-11533
▁सराह	-11534
▁सिक्	-11535
▁सेल्	-11536
bledon	-11537
ussion	-11538
▁cloud	-11539
▁doubt	-11540
▁inner	-11541
▁meets	-11542
▁plane	-11543
▁races	-11544
▁remar	-11545
▁shiva	-11546
▁verse	-11547
▁अपलोड	-11548
▁उड़ान	-11549
▁गिरोह	-11550
▁तालाब	-11551
▁पूंजी	-11552
▁ब्लैक	-11553
▁योग्य	-11554
▁रूपये	-11555
▁संदीप	-11556
▁सतर्क	-11557
▁सुनकर	-11558
lection	-11559
▁compon	-11560
▁legend	-11561
▁manner	-11562
▁online	-11563
▁reduce	-11564
▁shells	-11565
▁spaces	-11566
▁stayed	-11567
▁stones	-11568
▁storms	-11569
▁winner	-11570
▁मीटिंग	-11571
▁यूनियन	-11572
▁शासकीय	-11573
▁स्थगित	-11574
▁closely	-11575
▁extreme	-11576
▁kilomet	-11577
▁करोड़ों	-11578
▁ठेकेदार	-11579
▁निलंबित	-11580
▁approved	-11581
▁province	-11582
▁recalled	-11583
▁superior	-11584
▁visitors	-11585
▁अंग्रेजी	-11586
▁अनुसूचित	-11587
▁अहमदाबाद	-11588
▁एंबुलेंस	-11589
▁प्रकाशित	-11590
▁प्रतिष्ठ	-11591
▁practices	-11592
▁recovered	-11593
▁separated	-11594
▁wimbledon	-11595
▁किलोग्राम	-11596
▁केन्द्रीय	-11597
▁substitute	-11598
▁surrounded	-11599
▁anniversary	-11600
▁constantine	-11601
▁effectively	-11602
▁recommended	-11603
▁रजिस्ट्रेशन	-11604
▁temperatures	-11605
▁unsuccessful	-11606
▁representative	-11607
13	-11608
da	-11609
ट्	-11610
फो	-11611
वो	-11612
any	-11613
now	-11614
put	-11615
run	-11616
ंधे	-11617
कलन	-11618
डीओ	-11619
बीन	-11620
शान	-11621
ौरा	-11622
▁lu	-11623
▁तट	-11624
▁मय	-11625
onic	-11626
thes	-11627
ंगों	-11628
काने	-11629
क्के	-11630
देवी	-11631
नेशन	-11632
पीसी	-11633
र्मी	-11634
ूर्त	-11635
▁1,5	-11636
▁177	-11637
▁bou	-11638
▁gib	-11639
▁gri	-11640
▁pup	-11641
▁rio	-11642
▁असल	-11643
▁आह्	-11644
▁एसी	-11645
▁किट	-11646
▁छवि	-11647
▁पीट	-11648
▁बंट	-11649
▁मनु	-11650
▁रूट	-11651
▁साउ	-11652
▁सिम	-11653
▁हेम	-11654
hetic	-11655
lying	-11656
opher	-11657
yline	-11658
तावरण	-11659
▁1900	-11660
▁1921	-11661
▁crop	-11662
▁earl	-11663
▁juan	-11664
▁proh	-11665
▁ryan	-11666
▁seas	-11667
▁talk	-11668
▁आराम	-11669
▁गूगल	-11670
▁मलिक	-11671
▁मुठभ	-11672
▁सामु	-11673
▁साहब	-11674
illing	-11675
स्टेंट	-11676
▁baker	-11677
▁banks	-11678
▁costs	-11679
▁crash	-11680
▁deleg	-11681
▁micro	-11682
▁print	-11683
▁ready	-11684
▁renew	-11685
▁uncle	-11686
▁warri	-11687
▁क्लास	-11688
▁चलेगा	-11689
▁तलाशी	-11690
▁तीसरा	-11691
▁बुखार	-11692
▁मनोहर	-11693
selling	-11694
डब्ल्यू	-11695
▁bureau	-11696
▁duties	-11697
▁extrem	-11698
▁facing	-11699
▁hockey	-11700
▁hosted	-11701
▁metall	-11702
▁palace	-11703
▁posted	-11704
▁scully	-11705
▁tunnel	-11706
▁डिप्टी	-11707
▁पुस्तक	-11708
▁मस्जिद	-11709
▁मास्टर	-11710
▁मुद्रा	-11711
▁adapted	-11712
▁authors	-11713
▁bridges	-11714
▁charity	-11715
▁designs	-11716
▁falling	-11717
▁goffman	-11718
▁orchest	-11719
▁reveals	-11720
▁theater	-11721
▁willing	-11722
▁प्रधाना	-11723
▁प्रवासी	-11724
▁मनोरंजन	-11725
▁रिकार्ड	-11726
▁वातावरण	-11727
▁breaking	-11728
▁equipped	-11729
▁johnston	-11730
▁partners	-11731
▁provides	-11732
▁regional	-11733
▁restrict	-11734
▁reviewer	-11735
▁traveled	-11736
▁westward	-11737
▁कंप्यूटर	-11738
▁ट्रेनिंग	-11739
▁प्रोफेसर	-11740
▁माध्यमिक	-11741
▁attracted	-11742
▁publisher	-11743
▁waterfall	-11744
▁प्राकृतिक	-11745
▁बीमारियों	-11746
▁correspond	-11747
▁references	-11748
▁distributed	-11749
▁institution	-11750
▁incorporated	-11751
▁presidential	-11752
.”	-11753
झी	-11754
डू	-11755
शर	-11756
iar	-11757
ipe	-11758
oli	-11759
uda	-11760
wen	-11761
yon	-11762
ंसक	-11763
क्क	-11764
बॉल	-11765
भाल	-11766
ालन	-11767
▁cd	-11768
▁mv	-11769
▁जख	-11770
▁बघ	-11771
▁वर	-11772
iest	-11773
ilty	-11774
life	-11775
ogen	-11776
text	-11777
आरसी	-11778
करों	-11779
ज़ार	-11780
द्दा	-11781
प्रत	-11782
र्जर	-11783
ूहिक	-11784
▁179	-11785
▁abc	-11786
▁din	-11787
▁dod	-11788
▁ere	-11789
▁ern	-11790
▁flo	-11791
▁moz	-11792
▁sag	-11793
▁shr	-11794
▁voy	-11795
▁कुर	-11796
▁खिल	-11797
▁ज़र	-11798
▁जेट	-11799
▁टोल	-11800
▁ढाई	-11801
▁पौध	-11802
▁फोर	-11803
anger	-11804
ombat	-11805
onica	-11806
othes	-11807
▁1935	-11808
▁bron	-11809
▁cake	-11810
▁eric	-11811
▁inhg	-11812
▁kore	-11813
▁none	-11814
▁pool	-11815
▁pull	-11816
▁sell	-11817
▁sunk	-11818
▁turb	-11819
▁ward	-11820
▁जर्म	-11821
▁जुड़	-11822
▁झटका	-11823
▁भीषण	-11824
▁राखी	-11825
क्षणिक	-11826
▁agree	-11827
▁calls	-11828
▁camer	-11829
▁cells	-11830
▁craft	-11831
▁knock	-11832
▁mogad	-11833
▁perry	-11834
▁saved	-11835
▁sight	-11836
▁simon	-11837
▁views	-11838
▁ग्रीन	-11839
▁जिनका	-11840
▁पायलट	-11841
▁बाहरी	-11842
▁मैनेज	-11843
▁सरपंच	-11844
▁सीमित	-11845
▁हिंदु	-11846
▁हैरान	-11847
entions	-11848
vements	-11849
▁agency	-11850
▁catech	-11851
▁diplom	-11852
▁easily	-11853
▁firing	-11854
▁flower	-11855
▁hokies	-11856
▁kombat	-11857
▁morgan	-11858
▁mulder	-11859
▁rhodes	-11860
▁sudden	-11861
▁vessel	-11862
▁videos	-11863
▁wealth	-11864
▁आह्वान	-11865
▁इंतजाम	-11866
▁गोविंद	-11867
▁घोटाले	-11868
▁जानकार	-11869
▁जूनियर	-11870
▁दिखाने	-11871
▁पहाड़ी	-11872
▁ब्रांच	-11873
▁मुक्ति	-11874
▁लिहाजा	-11875
▁विष्णु	-11876
▁acclaim	-11877
▁chamber	-11878
▁commons	-11879
▁congreg	-11880
▁gilbert	-11881
▁message	-11882
▁sisters	-11883
▁someone	-11884
▁studied	-11885
▁supreme	-11886
▁whereas	-11887
▁कार्यरत	-11888
▁धन्यवाद	-11889
▁प्रशांत	-11890
▁साथियों	-11891
▁सामूहिक	-11892
▁injuries	-11893
▁obtained	-11894
▁painting	-11895
▁purposes	-11896
▁romantic	-11897
▁तहसीलदार	-11898
▁परिस्थित	-11899
▁वास्तविक	-11900
▁biography	-11901
▁committed	-11902
▁depending	-11903
▁frederick	-11904
▁installed	-11905
▁continuing	-11906
▁underground	-11907
▁representatives	-11908
bu	-11909
tz	-11910
अर	-11911
थल	-11912
ऊदी	-11913
खिम	-11914
नीश	-11915
माग	-11916
रित	-11917
▁ré	-11918
▁ta	-11919
▁आब	-11920
▁उज	-11921
▁ढा	-11922
eman	-11923
gers	-11924
ishu	-11925
lete	-11926
mate	-11927
otes	-11928
कांड	-11929
जीवन	-11930
दर्भ	-11931
भूषण	-11932
सरों	-11933
सेंस	-11934
ायती	-11935
ार्स	-11936
्रीम	-11937
▁175	-11938
▁370	-11939
▁clo	-11940
▁hem	-11941
▁hin	-11942
▁lad	-11943
▁osc	-11944
▁sie	-11945
▁अल्	-11946
▁आला	-11947
▁कहर	-11948
▁गली	-11949
▁गेम	-11950
▁डूब	-11951
▁ढेर	-11952
▁मिठ	-11953
▁रिम	-11954
▁हूँ	-11955
abled	-11956
acent	-11957
acked	-11958
agues	-11959
apped	-11960
organ	-11961
नमेंट	-11962
▁1933	-11963
▁1938	-11964
▁1957	-11965
▁bear	-11966
▁beau	-11967
▁holy	-11968
▁kilm	-11969
▁loan	-11970
▁niel	-11971
▁plun	-11972
▁soil	-11973
▁swit	-11974
▁wond	-11975
▁अंडर	-11976
▁एनसी	-11977
▁किस्	-11978
▁जुटे	-11979
▁ट्रॉ	-11980
▁डीजी	-11981
▁ताजा	-11982
▁बदला	-11983
▁बोली	-11984
▁राजद	-11985
▁लौटे	-11986
▁सऊदी	-11987
ameter	-11988
▁5,000	-11989
▁catch	-11990
▁chess	-11991
▁crest	-11992
▁grace	-11993
▁miner	-11994
▁multi	-11995
▁pione	-11996
▁roger	-11997
▁अंकित	-11998
▁अलर्ट	-11999
▁इजाजत	-12000
▁कविता	-12001
▁जोखिम	-12002
▁दुर्ग	-12003
▁भक्ति	-12004
▁यमुना	-12005
▁संजीव	-12006
related	-12007
▁arthur	-12008
▁barker	-12009
▁causes	-12010
▁fraser	-12011
▁grammy	-12012
▁guilty	-12013
▁hospit	-12014
▁imposs	-12015
▁listen	-12016
▁muslim	-12017
▁myster	-12018
▁noting	-12019
▁queens	-12020
▁resist	-12021
▁rhythm	-12022
▁ritual	-12023
▁sequel	-12024
▁trophy	-12025
▁अंबानी	-12026
▁अधिकतर	-12027
▁कलाकार	-12028
▁कारणों	-12029
▁क्रिया	-12030
▁फ़िल्म	-12031
▁भास्कर	-12032
▁मानसून	-12033
▁amateur	-12034
▁article	-12035
▁engines	-12036
▁factors	-12037
▁footage	-12038
▁forests	-12039
▁hornung	-12040
▁mediter	-12041
▁spacing	-12042
▁visible	-12043
▁पश्चिमी	-12044
▁प्राचीन	-12045
▁मुठभेड़	-12046
▁विभागीय	-12047
▁सरकारों	-12048
▁सेंट्रल	-12049
▁arrested	-12050
▁challeng	-12051
▁colorado	-12052
▁crossing	-12053
▁detailed	-12054
▁protests	-12055
▁remnants	-12056
▁बलात्कार	-12057
▁राजमार्ग	-12058
▁लोकतंत्र	-12059
▁शैक्षणिक	-12060
▁adventure	-12061
▁expansion	-12062
▁extension	-12063
▁extremely	-12064
▁mogadishu	-12065
▁संक्रमितों	-12066
▁battleships	-12067
▁intensified	-12068
▁specifically	-12069
▁distinguished	-12070
▁mediterranean	-12071
12	-12072
ua	-12073
षक	-12074
ूद	-12075
-21	-12076
agn	-12077
efa	-12078
emb	-12079
ola	-12080
uan	-12081
ंकन	-12082
ंदे	-12083
्वे	-12084
▁4.	-12085
▁82	-12086
▁dc	-12087
▁jr	-12088
▁जद	-12089
▁यो	-12090
elle	-12091
rang	-12092
term	-12093
umin	-12094
ंचित	-12095
त्तर	-12096
धारा	-12097
नपुर	-12098
न्या	-12099
माणु	-12100
ष्णा	-12101
स्वी	-12102
्याल	-12103
▁105	-12104
▁ace	-12105
▁bah	-12106
▁cbs	-12107
▁hay	-12108
▁lob	-12109
▁mud	-12110
▁nap	-12111
▁yan	-12112
▁कैद	-12113
▁चतु	-12114
▁ठंड	-12115
▁तड़	-12116
▁फार	-12117
▁बैल	-12118
▁मेल	-12119
▁मोड	-12120
▁राठ	-12121
▁विस	-12122
chang	-12123
going	-12124
named	-12125
place	-12126
rator	-12127
ropol	-12128
चुनाव	-12129
टामिन	-12130
▁1959	-12131
▁boss	-12132
▁cong	-12133
▁dean	-12134
▁eggs	-12135
▁sons	-12136
▁tomb	-12137
▁uefa	-12138
▁अर्ध	-12139
▁आमिर	-12140
▁आशीष	-12141
▁उपरा	-12142
▁काशी	-12143
▁गुरू	-12144
▁टीके	-12145
▁त्या	-12146
▁दिखे	-12147
▁नीरज	-12148
▁मरने	-12149
▁यानि	-12150
▁यूजर	-12151
▁लोगो	-12152
▁विस्	-12153
▁सबको	-12154
▁साझे	-12155
▁सीईओ	-12156
▁सूरज	-12157
पचारिक	-12158
▁elder	-12159
▁merch	-12160
▁needs	-12161
▁satur	-12162
▁weeke	-12163
▁इंद्र	-12164
▁एजेंस	-12165
▁गंदगी	-12166
▁जोड़ा	-12167
▁प्रजा	-12168
▁लगेगा	-12169
▁लापता	-12170
▁लिहाज	-12171
▁संदेह	-12172
▁सीएमओ	-12173
▁स्टोर	-12174
▁हेल्थ	-12175
क्षेत्र	-12176
▁blacks	-12177
▁covers	-12178
▁income	-12179
▁indeed	-12180
▁kansas	-12181
▁launch	-12182
▁looked	-12183
▁mobile	-12184
▁precip	-12185
▁rarely	-12186
▁select	-12187
▁करेंगी	-12188
▁चोपड़ा	-12189
▁दृष्टि	-12190
▁परमाणु	-12191
▁पवित्र	-12192
▁मजबूती	-12193
▁संसाधन	-12194
▁स्थलों	-12195
▁collaps	-12196
▁conduct	-12197
▁freedom	-12198
▁habitat	-12199
▁intense	-12200
▁pointed	-12201
▁trading	-12202
▁दीपावली	-12203
▁appropri	-12204
▁changing	-12205
▁generals	-12206
▁internal	-12207
▁normally	-12208
▁severely	-12209
▁विज्ञापन	-12210
▁समर्थकों	-12211
▁हॉस्पिटल	-12212
▁communist	-12213
▁concerned	-12214
▁technique	-12215
▁kilometres	-12216
▁possession	-12217
▁अभ्यर्थियों	-12218
▁circumstances	-12219
▁relationships	-12220
▁characteristics	-12221
--	-12222
dy	-12223
डो	-12224
थे	-12225
हे	-12226
ैम	-12227
boy	-12228
ias	-12229
mus	-12230
nic	-12231
var	-12232
ंवर	-12233
दाई	-12234
लोत	-12235
वीय	-12236
संध	-12237
ूनी	-12238
▁83	-12239
▁92	-12240
▁da	-12241
▁लह	-12242
yles	-12243
विटी	-12244
वेंट	-12245
ेंसी	-12246
्तिक	-12247
्मान	-12248
▁125	-12249
▁dor	-12250
▁fee	-12251
▁gle	-12252
▁tig	-12253
▁इजा	-12254
▁गंग	-12255
▁जोध	-12256
▁ठगी	-12257
▁नमक	-12258
▁मरम	-12259
▁मिड	-12260
▁मौल	-12261
▁रसो	-12262
abeth	-12263
ables	-12264
eline	-12265
imate	-12266
ingly	-12267
ketts	-12268
night	-12269
uable	-12270
ट्सएप	-12271
दूसरे	-12272
▁1929	-12273
▁boom	-12274
▁cull	-12275
▁furt	-12276
▁gust	-12277
▁kenn	-12278
▁lose	-12279
▁shop	-12280
▁अगला	-12281
▁आयकर	-12282
▁आलोक	-12283
▁कपिल	-12284
▁किशन	-12285
▁कोटा	-12286
▁नरेश	-12287
▁नवरा	-12288
▁पाली	-12289
▁प्रौ	-12290
▁बचपन	-12291
▁बनकर	-12292
▁भेजी	-12293
▁मानी	-12294
▁लांच	-12295
▁लेता	-12296
▁शर्त	-12297
▁सब्स	-12298
▁हृदय	-12299
gregor	-12300
weight	-12301
छात्रा	-12302
ड़ियां	-12303
ियाबाद	-12304
▁cater	-12305
▁flash	-12306
▁genre	-12307
▁moore	-12308
▁panel	-12309
▁semif	-12310
▁upset	-12311
▁अकेले	-12312
▁कमिश्	-12313
▁खेलों	-12314
▁जायजा	-12315
▁जीतकर	-12316
▁डेंगू	-12317
▁बोलने	-12318
▁संचार	-12319
▁हवाला	-12320
▁हुसैन	-12321
▁aftern	-12322
▁canyon	-12323
▁elabor	-12324
▁garden	-12325
▁gerard	-12326
▁mozamb	-12327
▁parish	-12328
▁poland	-12329
▁अभ्यास	-12330
▁गेंदों	-12331
▁जोरदार	-12332
▁पुराना	-12333
▁पैमाने	-12334
▁मुलायम	-12335
▁राजकीय	-12336
▁संपन्न	-12337
▁हिन्दू	-12338
▁classes	-12339
▁creator	-12340
▁emerged	-12341
▁pitcher	-12342
▁returns	-12343
▁stanley	-12344
▁victims	-12345
▁प्रार्थ	-12346
▁फिल्में	-12347
▁बाजारों	-12348
▁विस्फोट	-12349
▁हिस्सों	-12350
▁armament	-12351
▁covering	-12352
▁cruisers	-12353
▁europium	-12354
▁feelings	-12355
▁mcgregor	-12356
▁overseas	-12357
▁parallel	-12358
▁resigned	-12359
▁supplies	-12360
▁देवेंद्र	-12361
▁नरेन्द्र	-12362
▁हरिद्वार	-12363
▁athletics	-12364
▁expensive	-12365
▁involving	-12366
▁stationed	-12367
▁सामुदायिक	-12368
▁laboratory	-12369
▁understand	-12370
▁मंत्रिमंडल	-12371
▁marlborough	-12372
▁substantial	-12373
▁आतंकवादियों	-12374
▁प्रत्याशियों	-12375
▁environmental	-12376
▁reconstruction	-12377
ठे	-12378
नई	-12379
पि	-12380
ala	-12381
fit	-12382
ili	-12383
law	-12384
sta	-12385
uns	-12386
कीन	-12387
बिन	-12388
सीम	-12389
िसो	-12390
ुली	-12391
▁इक	-12392
▁ओड	-12393
▁पत	-12394
▁बख	-12395
char	-12396
chen	-12397
rast	-12398
reen	-12399
rele	-12400
आईसी	-12401
टिया	-12402
त्ते	-12403
पाही	-12404
पेयी	-12405
मंडल	-12406
म्बे	-12407
रेगा	-12408
वाहा	-12409
स्‍त	-12410
ियाँ	-12411
▁108	-12412
▁ack	-12413
▁hib	-12414
▁ump	-12415
▁wel	-12416
▁आलम	-12417
▁काब	-12418
▁चरम	-12419
▁धूप	-12420
▁फते	-12421
▁फुल	-12422
▁मदन	-12423
▁सीए	-12424
▁हॉट	-12425
chell	-12426
final	-12427
gency	-12428
produ	-12429
धानिक	-12430
▁fifa	-12431
▁ille	-12432
▁jobs	-12433
▁stem	-12434
▁subt	-12435
▁tide	-12436
▁weir	-12437
▁अबतक	-12438
▁केके	-12439
▁क्यू	-12440
▁डिस्	-12441
▁पीछा	-12442
▁फाइल	-12443
finals	-12444
▁amend	-12445
▁audio	-12446
▁caves	-12447
▁conqu	-12448
▁leads	-12449
▁sharp	-12450
▁spend	-12451
▁sugar	-12452
▁surpr	-12453
▁turks	-12454
▁अपमान	-12455
▁एरिया	-12456
▁खेतों	-12457
▁गहलोत	-12458
▁छोड़ा	-12459
▁निकली	-12460
▁पहनने	-12461
▁वस्तु	-12462
▁शुद्ध	-12463
▁साइबर	-12464
iveness	-12465
वेदनशील	-12466
▁adults	-12467
▁canter	-12468
▁depict	-12469
▁ensure	-12470
▁extent	-12471
▁helmet	-12472
▁kilmer	-12473
▁अंसारी	-12474
▁अनुरूप	-12475
▁उच्चतम	-12476
▁कामकाज	-12477
▁जोधपुर	-12478
▁दूसरों	-12479
▁पड़ोसी	-12480
▁बॉर्डर	-12481
▁रात्रि	-12482
▁सालाना	-12483
▁स्टाइल	-12484
द्योगिकी	-12485
▁100,000	-12486
▁affairs	-12487
▁bombard	-12488
▁decides	-12489
▁forcing	-12490
▁germans	-12491
▁grounds	-12492
▁moments	-12493
▁parties	-12494
▁russian	-12495
▁segment	-12496
▁trouble	-12497
▁wearing	-12498
▁द्वितीय	-12499
▁परिचालन	-12500
▁प्रणाली	-12501
▁ब्रिटिश	-12502
▁attached	-12503
▁attained	-12504
▁aviation	-12505
▁designer	-12506
▁guardian	-12507
▁hundreds	-12508
▁informed	-12509
▁situated	-12510
▁thousand	-12511
▁veronica	-12512
▁नारेबाजी	-12513
▁बीसीसीआई	-12514
▁occasions	-12515
▁otherwise	-12516
▁paintings	-12517
▁reservoir	-12518
▁selection	-12519
▁transform	-12520
▁सकारात्मक	-12521
▁impossible	-12522
▁initiative	-12523
▁arrangement	-12524
▁documentary	-12525
▁inspiration	-12526
▁quarterback	-12527
▁collaboration	-12528
gé	-12529
nc	-12530
sm	-12531
नै	-12532
asc	-12533
och	-12534
omy	-12535
rif	-12536
ses	-12537
काय	-12538
ड्र	-12539
दरी	-12540
बन्	-12541
साम	-12542
िएट	-12543
िणी	-12544
्लू	-12545
▁bc	-12546
▁ib	-12547
ager	-12548
inum	-12549
mile	-12550
pret	-12551
raph	-12552
ryce	-12553
warf	-12554
क्चर	-12555
टकों	-12556
ड़की	-12557
श्रे	-12558
स्टल	-12559
▁800	-12560
▁gam	-12561
▁nic	-12562
▁von	-12563
▁आईए	-12564
▁गुट	-12565
▁जाट	-12566
▁टुक	-12567
▁ठोस	-12568
▁धवन	-12569
▁पिक	-12570
▁फूड	-12571
▁बचे	-12572
▁विज	-12573
▁सनी	-12574
after	-12575
icate	-12576
संधान	-12577
ांतरण	-12578
▁1908	-12579
▁benn	-12580
▁ceme	-12581
▁emmy	-12582
▁forb	-12583
▁garc	-12584
▁lanc	-12585
▁mbar	-12586
▁scat	-12587
▁vote	-12588
▁wasn	-12589
▁अनाज	-12590
▁इमार	-12591
▁कुर्	-12592
▁खेली	-12593
▁ग्रा	-12594
▁टकरा	-12595
▁डिली	-12596
▁ड्रग	-12597
▁नाइट	-12598
▁पुणे	-12599
▁बघेल	-12600
▁बैठा	-12601
▁ब्लड	-12602
▁मकसद	-12603
▁साउथ	-12604
▁सीधा	-12605
▁हुये	-12606
engers	-12607
shaped	-12608
ultane	-12609
▁3,000	-12610
▁ammun	-12611
▁check	-12612
▁chron	-12613
▁frust	-12614
▁obama	-12615
▁oscar	-12616
▁overw	-12617
▁sword	-12618
▁tanks	-12619
▁wings	-12620
▁एंड्र	-12621
▁ओडिशा	-12622
▁जितना	-12623
▁जिसमे	-12624
▁जोड़े	-12625
▁टेक्न	-12626
▁द्वार	-12627
▁नाकाम	-12628
▁नितिन	-12629
▁बस्ती	-12630
▁बिगड़	-12631
▁भंडार	-12632
▁मारकर	-12633
▁सत्या	-12634
▁समन्व	-12635
▁सुषमा	-12636
agement	-12637
▁crusad	-12638
▁debate	-12639
▁desert	-12640
▁medium	-12641
▁nichol	-12642
▁oldest	-12643
▁shakes	-12644
▁sounds	-12645
▁tribes	-12646
▁wander	-12647
▁कामयाब	-12648
▁किशोरी	-12649
▁मुआवजा	-12650
▁मैनेजर	-12651
▁समुद्र	-12652
▁सिपाही	-12653
cription	-12654
▁aggress	-12655
▁burning	-12656
▁calvert	-12657
▁deities	-12658
▁dynasty	-12659
▁furtado	-12660
▁georgia	-12661
▁joining	-12662
▁library	-12663
▁minimum	-12664
▁plateau	-12665
▁reality	-12666
▁vehicle	-12667
▁इंस्टीट	-12668
▁उपचुनाव	-12669
▁कमिश्नर	-12670
▁दुकानें	-12671
▁विशिष्ट	-12672
▁cemetery	-12673
▁concerts	-12674
▁confeder	-12675
▁defences	-12676
▁defended	-12677
▁diameter	-12678
▁happened	-12679
▁opposite	-12680
▁proposal	-12681
▁retained	-12682
▁richmond	-12683
▁saturday	-12684
▁valuable	-12685
▁अनुसंधान	-12686
▁उत्पीड़न	-12687
▁तस्वीरों	-12688
▁निर्देशक	-12689
ifications	-12690
▁classical	-12691
▁regularly	-12692
▁simultane	-12693
▁अपराधियों	-12694
▁ammunition	-12695
▁attributed	-12696
▁canterbury	-12697
▁expedition	-12698
▁scientific	-12699
▁कॉन्फ्रेंस	-12700
▁advertising	-12701
▁application	-12702
▁corporation	-12703
▁interaction	-12704
▁northeastern	-12705
▁strengthened	-12706
▁controversial	-12707
.2	-12708
38	-12709
ba	-12710
कप	-12711
ग़	-12712
चौ	-12713
णे	-12714
arm	-12715
box	-12716
esh	-12717
आउट	-12718
कुछ	-12719
डोर	-12720
तिर	-12721
लेस	-12722
िपल	-12723
्डी	-12724
▁04	-12725
▁pa	-12726
▁pf	-12727
▁ww	-12728
▁ओब	-12729
▁छू	-12730
▁नल	-12731
achu	-12732
akum	-12733
atus	-12734
inje	-12735
nels	-12736
onto	-12737
what	-12738
पानी	-12739
मिशन	-12740
स्पी	-12741
▁gor	-12742
▁mvp	-12743
▁ori	-12744
▁orn	-12745
▁sad	-12746
▁vac	-12747
▁नहर	-12748
▁बृह	-12749
▁बेन	-12750
▁भरत	-12751
▁मंग	-12752
▁मुझ	-12753
▁रोह	-12754
▁लीड	-12755
▁शरद	-12756
▁शेट	-12757
▁सील	-12758
▁हेल	-12759
essee	-12760
iston	-12761
itzer	-12762
setts	-12763
इंडीज	-12764
गेटिव	-12765
ल्पना	-12766
▁1922	-12767
▁1928	-12768
▁News	-12769
▁abby	-12770
▁aged	-12771
▁barr	-12772
▁blow	-12773
▁bulk	-12774
▁deem	-12775
▁dota	-12776
▁gwen	-12777
▁iraq	-12778
▁pink	-12779
▁usta	-12780
▁अस्त	-12781
▁आजाद	-12782
▁आयात	-12783
▁एकड़	-12784
▁गाँव	-12785
▁गुणव	-12786
▁जहाज	-12787
▁तर्क	-12788
▁दत्त	-12789
▁नकली	-12790
▁नाले	-12791
▁निधि	-12792
▁नेहा	-12793
▁फंसे	-12794
▁भव्य	-12795
▁मुरा	-12796
▁शोषण	-12797
teries	-12798
wealth	-12799
पूर्वक	-12800
साइकिल	-12801
स्थापक	-12802
▁basic	-12803
▁drain	-12804
▁drums	-12805
▁dwarf	-12806
▁equal	-12807
▁fatal	-12808
▁fixed	-12809
▁forty	-12810
▁gates	-12811
▁geoff	-12812
▁kevin	-12813
▁marks	-12814
▁noisy	-12815
▁persu	-12816
▁phone	-12817
▁saves	-12818
▁stead	-12819
▁wilde	-12820
▁आमतौर	-12821
▁आयुर्	-12822
▁उतारा	-12823
▁करीना	-12824
▁काटने	-12825
▁क्रमश	-12826
▁प्रोफ	-12827
▁फैक्ट	-12828
▁भरपूर	-12829
▁मांगे	-12830
▁लौटने	-12831
▁वर्षा	-12832
▁citing	-12833
▁davies	-12834
▁discip	-12835
▁expand	-12836
▁formal	-12837
▁helium	-12838
▁partly	-12839
▁poorly	-12840
▁puppet	-12841
▁pushed	-12842
▁runway	-12843
▁satell	-12844
▁streak	-12845
▁tribut	-12846
▁wright	-12847
▁आचार्य	-12848
▁कृष्णा	-12849
▁निरंतर	-12850
▁बुनिया	-12851
▁मरम्मत	-12852
▁राजनाथ	-12853
▁वितरित	-12854
▁विश्ले	-12855
▁biggest	-12856
▁deliber	-12857
▁fifteen	-12858
▁gallery	-12859
▁holiday	-12860
▁housing	-12861
▁inhabit	-12862
▁janeiro	-12863
▁nielsen	-12864
▁resumed	-12865
▁retreat	-12866
▁simpson	-12867
▁toronto	-12868
▁treated	-12869
▁unusual	-12870
▁अपेक्षा	-12871
▁कार्तिक	-12872
▁गड़बड़ी	-12873
▁प्रेरणा	-12874
▁विटामिन	-12875
▁सलाहकार	-12876
achusetts	-12877
▁claiming	-12878
▁disaster	-12879
▁downtown	-12880
▁dramatic	-12881
▁formally	-12882
▁highways	-12883
▁networks	-12884
▁spending	-12885
▁starling	-12886
▁striking	-12887
▁withdrew	-12888
▁वीरेंद्र	-12889
▁साझेदारी	-12890
▁followers	-12891
▁musicians	-12892
▁tennessee	-12893
▁गृहमंत्री	-12894
▁नक्सलियों	-12895
▁निर्देशित	-12896
▁पार्टियों	-12897
▁मैनेजमेंट	-12898
▁equivalent	-12899
▁थानाध्यक्ष	-12900
▁स्टूडेंट्स	-12901
▁communities	-12902
▁इंजीनियरिंग	-12903
▁commonwealth	-12904
▁conservative	-12905
▁difficulties	-12906
▁massachusetts	-12907
.9	-12908
dr	-12909
चय	-12910
ेस	-12911
ava	-12912
awa	-12913
ban	-12914
equ	-12915
het	-12916
kes	-12917
ंचा	-12918
एगा	-12919
थाम	-12920
फाई	-12921
बंद	-12922
िसू	-12923
ुलर	-12924
▁ax	-12925
▁kw	-12926
▁औष	-12927
▁ख्	-12928
▁जस	-12929
born	-12930
cope	-12931
crib	-12932
illy	-12933
kees	-12934
mill	-12935
oral	-12936
vard	-12937
went	-12938
क्‍स	-12939
छाड़	-12940
डीसी	-12941
द्री	-12942
फ्टी	-12943
मानी	-12944
राहा	-12945
शिंग	-12946
श्चा	-12947
▁101	-12948
▁mrs	-12949
▁nel	-12950
▁nhl	-12951
▁raf	-12952
▁yue	-12953
▁आधे	-12954
▁आयी	-12955
▁खां	-12956
▁चाइ	-12957
▁जॉन	-12958
▁टैग	-12959
▁दाल	-12960
▁नंद	-12961
▁नाक	-12962
▁रघु	-12963
▁सक्	-12964
anasi	-12965
eless	-12966
ellar	-12967
icide	-12968
inson	-12969
iques	-12970
istol	-12971
peare	-12972
ships	-12973
क्रेट	-12974
क्ष्य	-12975
फार्म	-12976
स्करण	-12977
▁adam	-12978
▁amid	-12979
▁bore	-12980
▁cant	-12981
▁carp	-12982
▁cars	-12983
▁draf	-12984
▁fled	-12985
▁fold	-12986
▁rect	-12987
▁sees	-12988
▁toll	-12989
▁अकबर	-12990
▁आकलन	-12991
▁आपात	-12992
▁कम्प	-12993
▁कांड	-12994
▁जियो	-12995
▁जीते	-12996
▁डाटा	-12997
▁पवार	-12998
▁पीजी	-12999
▁प्लस	-13000
▁रखता	-13001
▁रसोई	-13002
▁राजू	-13003
▁रावण	-13004
▁सौरभ	-13005
ection	-13006
teenth	-13007
▁absor	-13008
▁consc	-13009
▁depos	-13010
▁ghost	-13011
▁horiz	-13012
▁insur	-13013
▁moral	-13014
▁owner	-13015
▁rated	-13016
▁surve	-13017
▁अत्या	-13018
▁आस्था	-13019
▁टिप्प	-13020
▁टीमें	-13021
▁ट्रैक	-13022
▁नतीजे	-13023
▁परंतु	-13024
▁पीडि़	-13025
▁पुण्य	-13026
▁पुनर्	-13027
▁बरसात	-13028
▁बैठकर	-13029
▁बैठने	-13030
▁लिखकर	-13031
▁वंचित	-13032
▁सख्ती	-13033
▁समस्त	-13034
▁स्थिर	-13035
▁agents	-13036
▁commem	-13037
▁condem	-13038
▁corner	-13039
▁divine	-13040
▁engage	-13041
▁heaven	-13042
▁lawton	-13043
▁lowest	-13044
▁norway	-13045
▁plants	-13046
▁praise	-13047
▁taught	-13048
▁walker	-13049
▁अमरीका	-13050
▁एग्जाम	-13051
▁कैप्टन	-13052
▁देखभाल	-13053
▁परीक्ष	-13054
▁पॉलिसी	-13055
▁मजदूरी	-13056
▁मिलियन	-13057
▁मेहमान	-13058
▁शिल्पा	-13059
▁शेट्टी	-13060
▁सावधान	-13061
▁absence	-13062
▁atlanta	-13063
▁baldwin	-13064
▁cleared	-13065
▁compete	-13066
▁infrast	-13067
▁install	-13068
▁notably	-13069
▁streets	-13070
▁talking	-13071
▁उत्पन्न	-13072
▁जायसवाल	-13073
▁निर्मित	-13074
▁graphics	-13075
▁isabella	-13076
▁isolated	-13077
▁opponent	-13078
▁predomin	-13079
▁shipping	-13080
▁subjects	-13081
▁क्रिकेटर	-13082
▁जितेंद्र	-13083
▁प्रयासों	-13084
▁बिल्डिंग	-13085
▁शास्त्री	-13086
ratropical	-13087
्राष्ट्रीय	-13088
▁afternoon	-13089
▁catechism	-13090
▁essential	-13091
▁narrative	-13092
▁plunketts	-13093
▁programme	-13094
▁radiation	-13095
▁victories	-13096
▁कार्यकारी	-13097
▁influences	-13098
▁recordings	-13099
▁thereafter	-13100
▁विशेषज्ञों	-13101
▁destruction	-13102
▁restoration	-13103
▁shakespeare	-13104
▁वैज्ञानिकों	-13105
टू	-13106
बन	-13107
alu	-13108
ini	-13109
nda	-13110
ndh	-13111
oom	-13112
इंग	-13113
जिक	-13114
णिज	-13115
द्घ	-13116
नीत	-13117
पीओ	-13118
वेल	-13119
ेंच	-13120
्तर	-13121
्रु	-13122
▁खर	-13123
▁ग़	-13124
▁धा	-13125
▁भौ	-13126
aver	-13127
dles	-13128
home	-13129
inge	-13130
iped	-13131
lock	-13132
ooth	-13133
tegr	-13134
ules	-13135
पीएस	-13136
वर्ड	-13137
विजय	-13138
ूकंप	-13139
्यूब	-13140
▁cot	-13141
▁mam	-13142
▁tip	-13143
▁छान	-13144
▁जवा	-13145
▁डिट	-13146
▁नाय	-13147
▁निम	-13148
▁फेल	-13149
▁वेल	-13150
▁सली	-13151
▁सूद	-13152
burgh	-13153
claim	-13154
ients	-13155
inton	-13156
power	-13157
style	-13158
च्छेद	-13159
जीपुर	-13160
णिज्य	-13161
भाग्य	-13162
राज्य	-13163
स्करी	-13164
▁1924	-13165
▁acid	-13166
▁braz	-13167
▁cash	-13168
▁cave	-13169
▁kits	-13170
▁owen	-13171
▁plus	-13172
▁sale	-13173
▁scar	-13174
▁spur	-13175
▁summ	-13176
▁teen	-13177
▁thro	-13178
▁असली	-13179
▁आईसी	-13180
▁आसार	-13181
▁एसटी	-13182
▁गिरी	-13183
▁जश्न	-13184
▁तोमर	-13185
▁बोतल	-13186
▁रंजन	-13187
▁लंबा	-13188
▁हुईं	-13189
▁हेली	-13190
ricted	-13191
स्तरीय	-13192
▁badly	-13193
▁evans	-13194
▁humor	-13195
▁loose	-13196
▁orbit	-13197
▁sheff	-13198
▁veter	-13199
▁अंकों	-13200
▁आवंटन	-13201
▁आसमान	-13202
▁एनडीए	-13203
▁गुप्त	-13204
▁गुहार	-13205
▁चालान	-13206
▁तंत्र	-13207
▁तुलसी	-13208
▁दिमाग	-13209
▁नजदीक	-13210
▁नृत्य	-13211
▁भूकंप	-13212
▁लगाना	-13213
▁सलामी	-13214
▁सैनिट	-13215
▁सौंपी	-13216
▁स्पिन	-13217
प्रतिनि	-13218
▁acknow	-13219
▁ambass	-13220
▁answer	-13221
▁anyone	-13222
▁dating	-13223
▁expert	-13224
▁herald	-13225
▁honour	-13226
▁murray	-13227
▁presby	-13228
▁prohib	-13229
▁rebels	-13230
▁toured	-13231
▁कमलनाथ	-13232
▁गुस्सा	-13233
▁छोड़ने	-13234
▁ट्रस्ट	-13235
▁तस्करी	-13236
▁पृथ्वी	-13237
▁सेकेंड	-13238
atically	-13239
▁amongst	-13240
▁artific	-13241
▁benefit	-13242
▁centers	-13243
▁consult	-13244
▁credits	-13245
▁defined	-13246
▁delayed	-13247
▁periods	-13248
▁platoon	-13249
▁selling	-13250
▁underst	-13251
▁vessels	-13252
▁warning	-13253
▁टिप्पणी	-13254
▁लक्ष्मण	-13255
▁साहित्य	-13256
▁adjacent	-13257
▁behavior	-13258
▁controls	-13259
▁platinum	-13260
▁premiere	-13261
▁princess	-13262
▁products	-13263
▁remember	-13264
▁restored	-13265
▁varanasi	-13266
▁गुणवत्ता	-13267
▁बृहस्पति	-13268
▁सर्वाधिक	-13269
▁convinced	-13270
▁interpret	-13271
▁materials	-13272
▁monuments	-13273
▁northward	-13274
▁objective	-13275
▁successor	-13276
▁universal	-13277
▁victorian	-13278
▁wanderers	-13279
▁कांस्टेबल	-13280
▁प्राथमिकी	-13281
▁प्रार्थना	-13282
▁संवेदनशील	-13283
▁excavation	-13284
▁historians	-13285
▁publishing	-13286
▁recognised	-13287
▁वैक्सीनेशन	-13288
▁continental	-13289
▁influential	-13290
▁communication	-13291
▁extratropical	-13292
▁precipitation	-13293
37	-13294
65	-13295
थी	-13296
दक	-13297
बस	-13298
हो	-13299
ुश	-13300
ॉग	-13301
cal	-13302
lie	-13303
osa	-13304
owa	-13305
कीम	-13306
त्न	-13307
निस	-13308
सोल	-13309
▁ts	-13310
▁चर	-13311
▁झु	-13312
▁मध	-13313
apse	-13314
hour	-13315
iful	-13316
kson	-13317
lets	-13318
orth	-13319
roit	-13320
आईएम	-13321
टरों	-13322
धीरे	-13323
मुझे	-13324
्यूल	-13325
▁115	-13326
▁155	-13327
▁dna	-13328
▁las	-13329
▁mcl	-13330
▁mys	-13331
▁wet	-13332
▁अजी	-13333
▁एबी	-13334
▁कोड	-13335
▁छीन	-13336
▁झां	-13337
▁पशु	-13338
▁शिश	-13339
ategy	-13340
jillo	-13341
oster	-13342
union	-13343
vious	-13344
zegov	-13345
क्षेप	-13346
बाड़ी	-13347
वाड़ी	-13348
ानिया	-13349
▁duty	-13350
▁easy	-13351
▁fate	-13352
▁obst	-13353
▁raaf	-13354
▁salv	-13355
▁tone	-13356
▁zomb	-13357
▁कक्ष	-13358
▁चलाई	-13359
▁जीबी	-13360
▁नष्ट	-13361
▁पहना	-13362
▁बगैर	-13363
▁रिहा	-13364
▁लड़ा	-13365
▁लाठी	-13366
▁लैंड	-13367
▁साधा	-13368
▁सीता	-13369
▁स्क्	-13370
itated	-13371
malley	-13372
orship	-13373
िवारिक	-13374
्यांकन	-13375
▁alleg	-13376
▁chanc	-13377
▁cress	-13378
▁crews	-13379
▁decor	-13380
▁diego	-13381
▁greek	-13382
▁incom	-13383
▁judge	-13384
▁lists	-13385
▁pryce	-13386
▁rates	-13387
▁tight	-13388
▁अभिनय	-13389
▁इंकार	-13390
▁ओबामा	-13391
▁कमेंट	-13392
▁चौराह	-13393
▁धमाके	-13394
▁बुलंद	-13395
▁बेस्ट	-13396
▁मल्टी	-13397
▁शिफ्ट	-13398
▁सरदार	-13399
▁हितों	-13400
▁brooks	-13401
▁camera	-13402
▁census	-13403
▁closer	-13404
▁driver	-13405
▁fallen	-13406
▁fisher	-13407
▁giants	-13408
▁headed	-13409
▁horror	-13410
▁instru	-13411
▁models	-13412
▁offers	-13413
▁patron	-13414
▁peters	-13415
▁pursue	-13416
▁wilson	-13417
▁अलीगढ़	-13418
▁उन्हीं	-13419
▁चालकों	-13420
▁जेएनएन	-13421
▁तिरंगा	-13422
▁प्रतीक	-13423
▁प्रांत	-13424
▁बिहारी	-13425
▁मतगणना	-13426
▁रोकथाम	-13427
▁charted	-13428
▁context	-13429
▁crosses	-13430
▁detroit	-13431
▁disagre	-13432
▁earning	-13433
▁forming	-13434
▁handled	-13435
▁houston	-13436
▁hunting	-13437
▁peaking	-13438
▁promote	-13439
▁readers	-13440
▁suspend	-13441
▁walking	-13442
▁इकाइयों	-13443
▁उन्होने	-13444
▁जबरदस्त	-13445
▁दीक्षित	-13446
▁वाणिज्य	-13447
▁carrying	-13448
▁displays	-13449
▁honorary	-13450
▁measured	-13451
▁outbreak	-13452
▁relative	-13453
▁somewhat	-13454
▁strategy	-13455
▁throwing	-13456
▁trujillo	-13457
▁ट्रांसफर	-13458
▁सर्वश्रे	-13459
▁सर्वोच्च	-13460
▁सुरेंद्र	-13461
▁departure	-13462
▁elizabeth	-13463
▁favorable	-13464
▁municipal	-13465
▁requested	-13466
▁satellite	-13467
▁specimens	-13468
▁spiritual	-13469
▁submarine	-13470
▁wrestling	-13471
▁प्रदर्शनी	-13472
▁सुपरस्टार	-13473
▁techniques	-13474
▁मोटरसाइकिल	-13475
▁predecessor	-13476
▁protagonist	-13477
▁प्रौद्योगिकी	-13478
▁archaeologist	-13479
▁architectural	-13480
▁communications	-13481
BI	-13482
’’	-13483
-47	-13484
ora	-13485
oul	-13486
pes	-13487
utz	-13488
एगी	-13489
न्ट	-13490
बरी	-13491
रिय	-13492
सनी	-13493
▁cu	-13494
▁आड	-13495
▁डु	-13496
▁डू	-13497
▁पच	-13498
▁लक	-13499
dale	-13500
ifna	-13501
imet	-13502
isms	-13503
olen	-13504
oven	-13505
quez	-13506
reet	-13507
खाने	-13508
चुअल	-13509
नामा	-13510
पंथी	-13511
वाकर	-13512
ानंद	-13513
ीकरण	-13514
▁lia	-13515
▁nur	-13516
▁orb	-13517
▁rig	-13518
▁sid	-13519
▁tag	-13520
▁wag	-13521
▁आदत	-13522
▁कोट	-13523
▁दोग	-13524
▁पंत	-13525
▁बैक	-13526
▁लाई	-13527
▁लीक	-13528
apers	-13529
iform	-13530
ट्रिक	-13531
वालों	-13532
▁1870	-13533
▁1934	-13534
▁cape	-13535
▁coup	-13536
▁dens	-13537
▁evil	-13538
▁faul	-13539
▁frig	-13540
▁fulf	-13541
▁gill	-13542
▁impl	-13543
▁jard	-13544
▁nazi	-13545
▁omar	-13546
▁pure	-13547
▁sure	-13548
▁wine	-13549
▁आकार	-13550
▁कठिन	-13551
▁क्वि	-13552
▁गड्ढ	-13553
▁चिंत	-13554
▁पोषण	-13555
▁बाबू	-13556
▁बारह	-13557
▁रेंज	-13558
▁रोशन	-13559
▁लगती	-13560
▁सतीश	-13561
▁स्ना	-13562
▁हड़क	-13563
▁हॉकी	-13564
braska	-13565
estone	-13566
rating	-13567
ंत्रिक	-13568
द्वारा	-13569
ेंसिंग	-13570
▁andre	-13571
▁charm	-13572
▁choir	-13573
▁coinc	-13574
▁cryst	-13575
▁doesn	-13576
▁innov	-13577
▁jifna	-13578
▁kelly	-13579
▁leigh	-13580
▁siege	-13581
▁sleep	-13582
▁spoke	-13583
▁spons	-13584
▁stood	-13585
▁tracy	-13586
▁veget	-13587
▁waves	-13588
▁wider	-13589
▁witch	-13590
▁आंध्र	-13591
▁केदार	-13592
▁खेलते	-13593
▁जख्मी	-13594
▁तकनीक	-13595
▁दवाओं	-13596
▁प्रोट	-13597
▁फुटेज	-13598
▁बनाते	-13599
▁बनाये	-13600
▁बैटरी	-13601
▁मानने	-13602
▁राउंड	-13603
▁श्रेय	-13604
▁सुशील	-13605
▁सेक्स	-13606
▁सॉफ्ट	-13607
▁स्किन	-13608
▁हेक्ट	-13609
ilation	-13610
ulating	-13611
स्ट्रेट	-13612
▁burned	-13613
▁disney	-13614
▁fitted	-13615
▁prompt	-13616
▁propag	-13617
▁pupils	-13618
▁revers	-13619
▁rising	-13620
▁rounds	-13621
▁russia	-13622
▁savage	-13623
▁signal	-13624
▁अर्पित	-13625
▁आईसीसी	-13626
▁एशियाई	-13627
▁डेब्यू	-13628
▁दिवाली	-13629
▁निशाने	-13630
▁पड़ताल	-13631
▁बरकरार	-13632
▁ब्रह्म	-13633
▁व्यस्त	-13634
▁शब्दों	-13635
▁संयोजक	-13636
▁सराहना	-13637
▁सर्जरी	-13638
▁सवालों	-13639
aircraft	-13640
zegovina	-13641
▁armored	-13642
▁jardine	-13643
▁liberal	-13644
▁mexican	-13645
▁millenn	-13646
▁nucleus	-13647
▁preston	-13648
▁showing	-13649
▁मंदिरों	-13650
▁योग्यता	-13651
▁लाइसेंस	-13652
▁विस्तृत	-13653
▁शास्त्र	-13654
▁animated	-13655
▁dialogue	-13656
▁overwhel	-13657
▁playoffs	-13658
▁portrait	-13659
▁prompted	-13660
▁अंतरिक्ष	-13661
▁अभियुक्त	-13662
▁आमंत्रित	-13663
▁गाइडलाइन	-13664
▁दुकानदार	-13665
▁नागरिकता	-13666
▁प्राप्ति	-13667
▁compounds	-13668
▁cresswell	-13669
▁determine	-13670
▁impressed	-13671
▁movements	-13672
▁premiered	-13673
▁regiments	-13674
▁sculpture	-13675
▁sentiment	-13676
▁sheffield	-13677
▁प्रदर्शित	-13678
▁रिपोर्ट्स	-13679
▁हत्याकांड	-13680
▁artificial	-13681
▁compliment	-13682
▁criticised	-13683
▁passengers	-13684
▁resolution	-13685
▁structural	-13686
▁syndicated	-13687
▁अल्पसंख्यक	-13688
▁प्लेटफॉर्म	-13689
▁वेस्टइंडीज	-13690
▁nominations	-13691
▁observatory	-13692
▁potentially	-13693
▁सर्वश्रेष्ठ	-13694
▁establishing	-13695
▁historically	-13696
▁observations	-13697
▁presentation	-13698
▁परिस्थितियों	-13699
▁opportunities	-13700
▁प्रतिनिधिमंडल	-13701
wa	-13702
ंठ	-13703
कश	-13704
बई	-13705
बि	-13706
,99	-13707
lik	-13708
osl	-13709
tex	-13710
uct	-13711
zen	-13712
किट	-13713
टके	-13714
पत्	-13715
परा	-13716
बैक	-13717
रीत	-13718
रुण	-13719
वाए	-13720
वाज	-13721
शनी	-13722
▁dw	-13723
▁hi	-13724
▁si	-13725
▁भय	-13726
cour	-13727
icit	-13728
ilst	-13729
oard	-13730
oken	-13731
olid	-13732
rees	-13733
आईपी	-13734
एसआई	-13735
न्नी	-13736
र्की	-13737
लीला	-13738
ाराम	-13739
ित्त	-13740
▁118	-13741
▁168	-13742
▁178	-13743
▁err	-13744
▁ker	-13745
▁mol	-13746
▁obl	-13747
▁sar	-13748
▁spr	-13749
▁stu	-13750
▁असि	-13751
▁टाइ	-13752
▁टेक	-13753
▁डिफ	-13754
▁ढूं	-13755
▁ताज	-13756
▁त्व	-13757
▁पेज	-13758
▁फीट	-13759
▁मात	-13760
▁मेक	-13761
▁शोक	-13762
bound	-13763
emies	-13764
eries	-13765
ontal	-13766
regon	-13767
ugosl	-13768
न्वयन	-13769
मात्र	-13770
वार्ड	-13771
▁1926	-13772
▁chen	-13773
▁curt	-13774
▁dams	-13775
▁dawn	-13776
▁huge	-13777
▁hung	-13778
▁iowa	-13779
▁matt	-13780
▁pace	-13781
▁symp	-13782
▁आपसी	-13783
▁उग्र	-13784
▁उद्ध	-13785
▁उसको	-13786
▁कर्फ	-13787
▁खुली	-13788
▁चर्च	-13789
▁जरुर	-13790
▁देखे	-13791
▁पेशे	-13792
▁फैशन	-13793
▁मांस	-13794
▁मुना	-13795
▁लेखक	-13796
▁सबूत	-13797
▁सर्च	-13798
▁सेमी	-13799
यात्रा	-13800
▁absol	-13801
▁alter	-13802
▁archb	-13803
▁barry	-13804
▁cyrus	-13805
▁davis	-13806
▁extin	-13807
▁fifty	-13808
▁giant	-13809
▁indig	-13810
▁keamy	-13811
▁param	-13812
▁patty	-13813
▁peach	-13814
▁इजाफा	-13815
▁खरीदी	-13816
▁निदेश	-13817
▁निस्त	-13818
▁पैकेज	-13819
▁फैलने	-13820
▁बनाता	-13821
▁बेरोज	-13822
▁ब्लाक	-13823
▁मिलना	-13824
▁रिक्त	-13825
amental	-13826
ishment	-13827
्योरिटी	-13828
▁arrive	-13829
▁asking	-13830
▁chrono	-13831
▁comics	-13832
▁doctor	-13833
▁driven	-13834
▁hudson	-13835
▁mental	-13836
▁oregon	-13837
▁priest	-13838
▁retrie	-13839
▁samuel	-13840
▁scheme	-13841
▁skills	-13842
▁whilst	-13843
▁घटनाएं	-13844
▁जर्मनी	-13845
▁बर्बाद	-13846
▁संदर्भ	-13847
▁ससुराल	-13848
▁सेल्फी	-13849
▁स्वराज	-13850
entional	-13851
▁cabinet	-13852
▁collect	-13853
▁injured	-13854
▁madison	-13855
▁mariana	-13856
▁politic	-13857
▁ranging	-13858
▁stewart	-13859
▁tactics	-13860
▁waiting	-13861
▁weekend	-13862
▁कर्फ्यू	-13863
▁दक्षिणी	-13864
▁दिलचस्प	-13865
▁मोहल्ला	-13866
▁मौजूदगी	-13867
▁श्रीराम	-13868
▁सदस्यीय	-13869
▁announce	-13870
▁bodyline	-13871
▁boundary	-13872
▁clarkson	-13873
▁criminal	-13874
▁deployed	-13875
▁explains	-13876
▁exposure	-13877
▁imprison	-13878
▁landings	-13879
▁ministry	-13880
▁moderate	-13881
▁nebraska	-13882
▁promised	-13883
▁treasury	-13884
▁upgraded	-13885
▁उपभोक्ता	-13886
▁संस्थाओं	-13887
▁हेक्टेयर	-13888
▁discovery	-13889
▁emergency	-13890
▁employees	-13891
▁preferred	-13892
▁struggled	-13893
▁गाजियाबाद	-13894
▁जनप्रतिनि	-13895
▁पारिवारिक	-13896
▁प्रोग्राम	-13897
▁authorized	-13898
▁discussion	-13899
▁objectives	-13900
▁percentage	-13901
▁suggesting	-13902
▁चैंपियनशिप	-13903
▁प्रतिबंधित	-13904
▁preparation	-13905
▁productions	-13906
no	-13907
vn	-13908
मह	-13909
-17	-13910
-18	-13911
aws	-13912
low	-13913
rig	-13914
एचओ	-13915
धीर	-13916
प्‍	-13917
म्भ	-13918
▁ba	-13919
▁ot	-13920
▁tu	-13921
▁इर	-13922
▁पठ	-13923
▁फट	-13924
▁शक	-13925
▁सृ	-13926
acre	-13927
amps	-13928
ders	-13929
hung	-13930
isle	-13931
onia	-13932
soft	-13933
ucky	-13934
vere	-13935
ware	-13936
ग्रा	-13937
ड्डू	-13938
ड्डे	-13939
धारण	-13940
भद्र	-13941
वाइस	-13942
विन्	-13943
वीएम	-13944
सागर	-13945
सिया	-13946
▁165	-13947
▁170	-13948
▁buy	-13949
▁lud	-13950
▁ndh	-13951
▁sab	-13952
▁zoo	-13953
▁अफ़	-13954
▁कूद	-13955
▁कॉम	-13956
▁गले	-13957
▁चिट	-13958
▁जुल	-13959
▁राघ	-13960
▁रिव	-13961
▁लाश	-13962
▁वास	-13963
▁सिख	-13964
▁सैल	-13965
▁हंस	-13966
acles	-13967
akers	-13968
borne	-13969
eland	-13970
inery	-13971
month	-13972
र्में	-13973
वाइंट	-13974
वायरस	-13975
िकाओं	-13976
िक्सल	-13977
▁1925	-13978
▁1927	-13979
▁abol	-13980
▁alph	-13981
▁bapt	-13982
▁caes	-13983
▁cous	-13984
▁dave	-13985
▁dict	-13986
▁gary	-13987
▁hamp	-13988
▁harm	-13989
▁howe	-13990
▁jean	-13991
▁mega	-13992
▁pale	-13993
▁pohl	-13994
▁ruth	-13995
▁surf	-13996
▁vast	-13997
▁आकाश	-13998
▁इमाम	-13999
▁गहरी	-14000
▁चलती	-14001
▁जगदी	-14002
▁जनसं	-14003
▁बालक	-14004
▁लौटा	-14005
▁वसूल	-14006
▁श्रम	-14007
▁सैनी	-14008
▁स्वि	-14009
पालिका	-14010
▁globe	-14011
▁grown	-14012
▁hergé	-14013
▁nadal	-14014
▁overl	-14015
▁solar	-14016
▁surge	-14017
▁votes	-14018
▁इवेंट	-14019
▁कन्या	-14020
▁त्वचा	-14021
▁रणबीर	-14022
▁वार्ष	-14023
▁विवरण	-14024
▁विहार	-14025
▁वोटों	-14026
▁व्याव	-14027
▁सहारा	-14028
▁हार्ट	-14029
minster	-14030
▁actual	-14031
▁brazil	-14032
▁consum	-14033
▁divers	-14034
▁poison	-14035
▁pounds	-14036
▁reader	-14037
▁resign	-14038
▁stream	-14039
▁talent	-14040
▁topped	-14041
▁useful	-14042
▁yugosl	-14043
▁अगुवाई	-14044
▁अश्विन	-14045
▁इन्हीं	-14046
▁उज्जैन	-14047
▁प्रकोप	-14048
▁फैलाने	-14049
▁रोमांच	-14050
▁विषयों	-14051
▁सहकारी	-14052
▁सीरियल	-14053
issioned	-14054
▁carries	-14055
▁charged	-14056
▁degrees	-14057
▁marines	-14058
▁objects	-14059
▁obvious	-14060
▁painted	-14061
▁ranking	-14062
▁synthes	-14063
▁testing	-14064
▁yankees	-14065
▁न्यायिक	-14066
▁पंजीकृत	-14067
▁प्रसन्न	-14068
▁स्वीकृत	-14069
▁arriving	-14070
▁audition	-14071
▁composer	-14072
▁creative	-14073
▁duration	-14074
▁georgian	-14075
▁musician	-14076
▁releases	-14077
▁schedule	-14078
▁speaking	-14079
▁struggle	-14080
▁universe	-14081
▁अनुच्छेद	-14082
▁इमरजेंसी	-14083
▁उत्पादों	-14084
▁शिकायतें	-14085
▁batteries	-14086
▁defenders	-14087
▁elevation	-14088
▁generated	-14089
▁residence	-14090
▁sequences	-14091
▁woodhouse	-14092
▁एजेंसियों	-14093
▁completing	-14094
▁profession	-14095
▁respective	-14096
▁restricted	-14097
▁theatrical	-14098
▁wellington	-14099
▁herzegovina	-14100
▁immigration	-14101
▁interesting	-14102
▁researchers	-14103
▁tournaments	-14104
▁इंस्टीट्यूट	-14105
▁रिश्तेदारों	-14106
▁revolutionary	-14107
▁understanding	-14108
▁infrastructure	-14109
▁reinforcements	-14110
▁simultaneously	-14111
34	-14112
ंश	-14113
णु	-14114
तः	-14115
kef	-14116
rab	-14117
rad	-14118
ube	-14119
wat	-14120
ंगत	-14121
एसी	-14122
कता	-14123
दगी	-14124
पुल	-14125
सें	-14126
स्य	-14127
ोंक	-14128
ोगी	-14129
ौदा	-14130
▁ia	-14131
▁एव	-14132
anny	-14133
fare	-14134
icia	-14135
iney	-14136
ophy	-14137
orse	-14138
otic	-14139
ygen	-14140
धड़ी	-14141
रियर	-14142
ायंस	-14143
िलाई	-14144
▁117	-14145
▁176	-14146
▁ark	-14147
▁ech	-14148
▁hnc	-14149
▁jen	-14150
▁lam	-14151
▁rus	-14152
▁wwf	-14153
▁कना	-14154
▁घात	-14155
▁बचत	-14156
▁बहू	-14157
▁मजि	-14158
▁मदर	-14159
▁रिप	-14160
▁वेद	-14161
▁सैफ	-14162
ifies	-14163
odies	-14164
ंगुली	-14165
द्रोह	-14166
ियाना	-14167
▁1860	-14168
▁1895	-14169
▁ages	-14170
▁coff	-14171
▁dies	-14172
▁guar	-14173
▁hast	-14174
▁keys	-14175
▁ride	-14176
▁roth	-14177
▁sulf	-14178
▁tack	-14179
▁thor	-14180
▁tool	-14181
▁vand	-14182
▁अजीत	-14183
▁आईडी	-14184
▁इसने	-14185
▁उद्य	-14186
▁कड़े	-14187
▁कॉपी	-14188
▁जहरी	-14189
▁डाले	-14190
▁ताला	-14191
▁पढ़ा	-14192
▁पशुप	-14193
▁बंदर	-14194
▁बसें	-14195
▁बिता	-14196
▁महंत	-14197
▁मेडल	-14198
▁रोहत	-14199
▁लेती	-14200
▁वरुण	-14201
▁श्रा	-14202
▁सपने	-14203
▁सोचा	-14204
▁स्रो	-14205
artney	-14206
encing	-14207
forced	-14208
▁analy	-14209
▁brain	-14210
▁brill	-14211
▁caval	-14212
▁dover	-14213
▁explo	-14214
▁jacob	-14215
▁lucas	-14216
▁noble	-14217
▁price	-14218
▁recru	-14219
▁relie	-14220
▁scand	-14221
▁steep	-14222
▁teach	-14223
▁usher	-14224
▁आश्रम	-14225
▁क्वाल	-14226
▁डिस्प	-14227
▁तुम्ह	-14228
▁प्रकट	-14229
▁फील्ड	-14230
▁बहनों	-14231
▁बुलाई	-14232
▁लड़के	-14233
▁साइंस	-14234
eratops	-14235
▁aggreg	-14236
▁cancel	-14237
▁choose	-14238
▁compre	-14239
▁excess	-14240
▁hamlet	-14241
▁hawaii	-14242
▁hoover	-14243
▁margin	-14244
▁melody	-14245
▁norman	-14246
▁parade	-14247
▁remove	-14248
▁rockef	-14249
▁stable	-14250
▁warren	-14251
▁wonder	-14252
▁एडमिशन	-14253
▁जायेगी	-14254
▁ट्रायल	-14255
▁डिवाइस	-14256
▁तोड़ने	-14257
▁पंजीयन	-14258
▁फिटनेस	-14259
▁शेयरों	-14260
▁सिंचाई	-14261
▁स्कूटी	-14262
▁स्मृति	-14263
▁acceler	-14264
▁accused	-14265
▁achieve	-14266
▁airline	-14267
▁assists	-14268
▁bennett	-14269
▁bowling	-14270
▁clinton	-14271
▁mixture	-14272
▁reprodu	-14273
▁seeking	-14274
▁sixteen	-14275
▁stellar	-14276
▁survive	-14277
▁आखिरकार	-14278
▁माइक्रो	-14279
▁मिलेंगे	-14280
▁मुहूर्त	-14281
▁विवादित	-14282
▁श्रद्धा	-14283
▁श्रीमती	-14284
▁संज्ञान	-14285
▁सब्सिडी	-14286
▁assisted	-14287
▁commemor	-14288
▁embarked	-14289
▁entitled	-14290
▁indicate	-14291
▁internet	-14292
▁mitchell	-14293
▁realized	-14294
▁receives	-14295
▁recovery	-14296
▁villages	-14297
▁अधिकारों	-14298
▁एक्सपर्ट	-14299
▁बुनियादी	-14300
▁शिकायतों	-14301
▁श्रमिकों	-14302
▁संस्थापक	-14303
▁सब्जियों	-14304
▁challinor	-14305
▁defending	-14306
▁directors	-14307
▁mccartney	-14308
▁organised	-14309
▁partially	-14310
▁temporary	-14311
▁terrorist	-14312
▁travelled	-14313
▁प्रस्तुति	-14314
▁adaptation	-14315
▁difference	-14316
▁eliminated	-14317
▁indicating	-14318
▁mozambique	-14319
▁proportion	-14320
▁scientists	-14321
▁withdrawal	-14322
▁प्रोत्साहित	-14323
▁बृहस्पतिवार	-14324
▁architecture	-14325
▁characterized	-14326
▁अंतर्राष्ट्रीय	-14327
36	-14328
48	-14329
आप	-14330
ॉड	-14331
dal	-14332
oba	-14333
चरण	-14334
जगह	-14335
ड़प	-14336
तीन	-14337
बास	-14338
यना	-14339
शहर	-14340
ुरू	-14341
ौरी	-14342
▁IP	-14343
▁hu	-14344
▁mg	-14345
▁ss	-14346
▁घी	-14347
▁हत	-14348
ante	-14349
wall	-14350
एमएस	-14351
खण्ड	-14352
तिया	-14353
प्पी	-14354
भवती	-14355
लाइट	-14356
ष्ठी	-14357
ारों	-14358
▁230	-14359
▁aml	-14360
▁dud	-14361
▁han	-14362
▁hpa	-14363
▁kim	-14364
▁lon	-14365
▁oak	-14366
▁ske	-14367
▁vel	-14368
▁आरा	-14369
▁एडि	-14370
▁कलर	-14371
▁काग	-14372
▁केश	-14373
▁खाम	-14374
▁जेब	-14375
▁टाल	-14376
▁दां	-14377
▁फीड	-14378
▁बहर	-14379
▁बीस	-14380
▁राइ	-14381
▁वाइ	-14382
▁वाई	-14383
▁शिल	-14384
▁शेड	-14385
▁हिट	-14386
gener	-14387
rquez	-14388
वेस्ट	-14389
स्वती	-14390
ारायण	-14391
▁1905	-14392
▁bert	-14393
▁boot	-14394
▁cubs	-14395
▁denn	-14396
▁djok	-14397
▁dust	-14398
▁enth	-14399
▁feud	-14400
▁gift	-14401
▁gosp	-14402
▁guer	-14403
▁liqu	-14404
▁mack	-14405
▁ohio	-14406
▁stal	-14407
▁twin	-14408
▁अन्न	-14409
▁आरती	-14410
▁ईमान	-14411
▁कवाय	-14412
▁किरण	-14413
▁जबरन	-14414
▁पाती	-14415
▁मारी	-14416
▁साइड	-14417
▁सुने	-14418
ivated	-14419
olence	-14420
ंगाबाद	-14421
▁bills	-14422
▁brick	-14423
▁chain	-14424
▁clark	-14425
▁crake	-14426
▁drove	-14427
▁exter	-14428
▁lanes	-14429
▁leeds	-14430
▁manip	-14431
▁manus	-14432
▁redes	-14433
▁revol	-14434
▁serbs	-14435
▁shock	-14436
▁tales	-14437
▁अधिसू	-14438
▁अवतार	-14439
▁आलिया	-14440
▁इमारत	-14441
▁कमीशन	-14442
▁गन्ना	-14443
▁चरणों	-14444
▁दामों	-14445
▁दायरे	-14446
▁पश्चा	-14447
▁बौद्ध	-14448
▁मंजूर	-14449
▁महिंद	-14450
▁शाहिद	-14451
▁साड़ी	-14452
▁स्टॉक	-14453
▁स्मार	-14454
▁हेल्प	-14455
ologies	-14456
क्ट्रेट	-14457
▁advice	-14458
▁alfred	-14459
▁argues	-14460
▁attrib	-14461
▁briggs	-14462
▁bypass	-14463
▁deemed	-14464
▁enters	-14465
▁ernest	-14466
▁factor	-14467
▁fungus	-14468
▁harmon	-14469
▁harold	-14470
▁leslie	-14471
▁miller	-14472
▁nelson	-14473
▁paraly	-14474
▁pitman	-14475
▁sailed	-14476
▁serial	-14477
▁stands	-14478
▁supern	-14479
▁tempor	-14480
▁trough	-14481
▁wagner	-14482
▁अनुकूल	-14483
▁अनुबंध	-14484
▁कनेक्ट	-14485
▁किराया	-14486
▁कीमतें	-14487
▁निरस्त	-14488
▁पकड़ने	-14489
▁माफिया	-14490
▁मुकदमे	-14491
▁समूहों	-14492
▁स्थायी	-14493
▁हिन्दु	-14494
▁amounts	-14495
▁backing	-14496
▁circuit	-14497
▁coordin	-14498
▁disband	-14499
▁exposed	-14500
▁founder	-14501
▁keeping	-14502
▁targets	-14503
▁tribute	-14504
▁uniform	-14505
▁wickets	-14506
▁आकर्षित	-14507
▁एकत्रित	-14508
▁एकमात्र	-14509
▁औपचारिक	-14510
▁ट्रेनें	-14511
▁दर्जनों	-14512
▁मुखर्जी	-14513
▁रिलायंस	-14514
▁सिलसिले	-14515
▁स्वयंसे	-14516
▁approval	-14517
▁artistic	-14518
▁broadway	-14519
▁collapse	-14520
▁commands	-14521
▁djokovic	-14522
▁emphasis	-14523
▁eventual	-14524
▁fourteen	-14525
▁frequent	-14526
▁friendly	-14527
▁harrison	-14528
▁modified	-14529
▁thinking	-14530
▁vertical	-14531
▁visiting	-14532
▁छेड़छाड़	-14533
▁दिव्यांग	-14534
▁धोखाधड़ी	-14535
▁निर्दलीय	-14536
▁पर्यटकों	-14537
▁फायदेमंद	-14538
▁alignment	-14539
▁displaced	-14540
▁magazines	-14541
▁magnitude	-14542
▁prevented	-14543
▁reflected	-14544
▁seriously	-14545
▁variation	-14546
▁प्रत्यक्ष	-14547
▁प्राचार्य	-14548
▁मुसलमानों	-14549
▁रिश्तेदार	-14550
▁ambassador	-14551
▁interstate	-14552
▁manuscript	-14553
▁millennium	-14554
▁photograph	-14555
▁queensland	-14556
▁retirement	-14557
▁considering	-14558
▁distinctive	-14559
▁perspective	-14560
▁rockefeller	-14561
▁territorial	-14562
▁universities	-14563
▁investigation	-14564
-7	-14565
anz	-14566
caa	-14567
def	-14568
eor	-14569
gam	-14570
wan	-14571
ंसी	-14572
ज़ी	-14573
डीह	-14574
दित	-14575
बाग	-14576
माज	-14577
वीण	-14578
शतक	-14579
सला	-14580
िमी	-14581
्नि	-14582
▁3-	-14583
▁sq	-14584
▁गज	-14585
▁जौ	-14586
acle	-14587
bing	-14588
boat	-14589
enos	-14590
gars	-14591
gery	-14592
hand	-14593
rose	-14594
rous	-14595
stic	-14596
जारी	-14597
टीसी	-14598
डीएस	-14599
नामी	-14600
प्पा	-14601
बड़े	-14602
वर्ष	-14603
स्को	-14604
ूंकि	-14605
▁dad	-14606
▁fab	-14607
▁jar	-14608
▁jet	-14609
▁pad	-14610
▁ric	-14611
▁sap	-14612
▁uss	-14613
▁vig	-14614
▁अखा	-14615
▁अमल	-14616
▁एक्	-14617
▁कोष	-14618
▁क्‍	-14619
▁जहर	-14620
▁ठिक	-14621
▁पाउ	-14622
▁फरी	-14623
▁बीत	-14624
▁बोर	-14625
▁भड़	-14626
▁मजे	-14627
▁वैध	-14628
▁सुस	-14629
▁हसन	-14630
brace	-14631
enden	-14632
enter	-14633
shore	-14634
ंद्रा	-14635
र्वाद	-14636
वानिव	-14637
ष्कार	-14638
सेक्स	-14639
्यूशन	-14640
▁amaz	-14641
▁bang	-14642
▁diet	-14643
▁dual	-14644
▁gene	-14645
▁gent	-14646
▁guid	-14647
▁hans	-14648
▁hars	-14649
▁josh	-14650
▁jury	-14651
▁kirk	-14652
▁lamb	-14653
▁ncaa	-14654
▁nurs	-14655
▁pant	-14656
▁seek	-14657
▁send	-14658
▁soci	-14659
▁sony	-14660
▁stap	-14661
▁tast	-14662
▁अनदे	-14663
▁एनएस	-14664
▁एमपी	-14665
▁ख़बर	-14666
▁गर्ल	-14667
▁गौरी	-14668
▁घटकर	-14669
▁चाकू	-14670
▁देहा	-14671
▁दोगु	-14672
▁धरती	-14673
▁धीमी	-14674
▁नाटक	-14675
▁पाना	-14676
▁पीटा	-14677
▁बीएच	-14678
▁मजाक	-14679
▁यज्ञ	-14680
▁रजनी	-14681
▁रॉयल	-14682
▁लोकल	-14683
▁शोभा	-14684
▁सौदे	-14685
elaide	-14686
estyle	-14687
linger	-14688
rolled	-14689
rupted	-14690
आरपीएफ	-14691
क्तूबर	-14692
्‍यादा	-14693
▁aires	-14694
▁aside	-14695
▁brack	-14696
▁carre	-14697
▁chest	-14698
▁feels	-14699
▁grave	-14700
▁hobbs	-14701
▁mines	-14702
▁nurse	-14703
▁quant	-14704
▁shark	-14705
▁tubes	-14706
▁आर्मी	-14707
▁उठाकर	-14708
▁कवायद	-14709
▁किराए	-14710
▁क्रिस	-14711
▁जगदीश	-14712
▁जिंदा	-14713
▁डिस्ट	-14714
▁दिखने	-14715
▁दुश्म	-14716
▁दोहरा	-14717
▁पुष्प	-14718
▁बहुमत	-14719
▁बेसिक	-14720
▁भाग्य	-14721
▁मध्यम	-14722
▁मनाने	-14723
▁महानि	-14724
▁मेहता	-14725
▁मोर्च	-14726
▁रोशनी	-14727
▁शासित	-14728
▁सर्दी	-14729
▁हमलों	-14730
ighters	-14731
igrants	-14732
itarian	-14733
vereign	-14734
▁25,000	-14735
▁aboard	-14736
▁beauty	-14737
▁bedell	-14738
▁behavi	-14739
▁buenos	-14740
▁cotton	-14741
▁cullen	-14742
▁danger	-14743
▁device	-14744
▁trails	-14745
▁venues	-14746
▁अश्लील	-14747
▁आबकारी	-14748
▁टीएमसी	-14749
▁ट्रेंड	-14750
▁डीएसपी	-14751
▁फुटबॉल	-14752
▁रखेंगे	-14753
▁संग्रह	-14754
▁सीरिया	-14755
▁हड़कंप	-14756
▁clothes	-14757
▁erected	-14758
▁helping	-14759
▁illegal	-14760
▁israeli	-14761
▁kitsune	-14762
▁neutral	-14763
▁passion	-14764
▁runners	-14765
▁tourist	-14766
▁trained	-14767
▁खरीदारी	-14768
▁गर्भवती	-14769
▁गांगुली	-14770
▁चिन्हित	-14771
▁ज्‍यादा	-14772
▁प्रशंसा	-14773
▁वेरिएंट	-14774
▁समर्पित	-14775
▁सरस्वती	-14776
▁adelaide	-14777
▁annually	-14778
▁believes	-14779
▁coaching	-14780
▁comments	-14781
▁constitu	-14782
▁croatian	-14783
▁identity	-14784
▁instance	-14785
▁jonathan	-14786
▁operates	-14787
▁youngest	-14788
▁आशीर्वाद	-14789
▁जनसंख्या	-14790
▁निर्देशन	-14791
▁निवेशकों	-14792
▁प्रीमियर	-14793
▁महिंद्रा	-14794
▁स्वीकृति	-14795
▁advancing	-14796
▁commandos	-14797
▁elections	-14798
▁increases	-14799
▁paramount	-14800
▁presbyter	-14801
▁qualified	-14802
▁relegated	-14803
▁sovereign	-14804
▁squadrons	-14805
▁नियंत्रित	-14806
▁परीक्षाओं	-14807
▁प्रारंभिक	-14808
▁प्लास्टिक	-14809
▁व्हाट्सएप	-14810
▁सुर्खियों	-14811
▁approaches	-14812
▁controller	-14813
▁developers	-14814
▁journalist	-14815
▁newspapers	-14816
▁resistance	-14817
▁परियोजनाओं	-14818
▁मुजफ्फरपुर	-14819
▁differences	-14820
▁instruments	-14821
▁westminster	-14822
▁क्षतिग्रस्त	-14823
49	-14824
eu	-14825
जद	-14826
नक	-14827
.30	-14828
igg	-14829
nen	-14830
oma	-14831
rog	-14832
ंधा	-14833
ड्स	-14834
द्व	-14835
नाश	-14836
न्त	-14837
पने	-14838
पीठ	-14839
फुल	-14840
भूत	-14841
मूल	-14842
र्प	-14843
िकर	-14844
ूली	-14845
ोटी	-14846
▁az	-14847
▁ds	-14848
▁nl	-14849
▁vs	-14850
▁चट	-14851
▁फु	-14852
agas	-14853
elin	-14854
olay	-14855
omic	-14856
otte	-14857
ract	-14858
unch	-14859
unes	-14860
ज्ञा	-14861
ट्टा	-14862
डेंट	-14863
दपुर	-14864
नाएं	-14865
प्पू	-14866
फाइन	-14867
रेशन	-14868
र्नर	-14869
वायु	-14870
हिया	-14871
ॉर्क	-14872
▁102	-14873
▁18-	-14874
▁aub	-14875
▁bac	-14876
▁dag	-14877
▁enh	-14878
▁hub	-14879
▁ian	-14880
▁liv	-14881
▁ped	-14882
▁tex	-14883
▁अधि	-14884
▁उर्	-14885
▁ऑफ़	-14886
▁डिम	-14887
▁पेर	-14888
▁पैन	-14889
▁फेड	-14890
▁बाइ	-14891
▁बिछ	-14892
▁भजन	-14893
▁भूख	-14894
▁राख	-14895
▁रेत	-14896
▁वां	-14897
▁सोल	-14898
▁हरे	-14899
▁हाज	-14900
adier	-14901
enses	-14902
incol	-14903
inian	-14904
ipped	-14905
mates	-14906
neath	-14907
odore	-14908
rates	-14909
yclic	-14910
नाल्ड	-14911
▁1850	-14912
▁bidd	-14913
▁code	-14914
▁grap	-14915
▁lect	-14916
▁mail	-14917
▁nave	-14918
▁pret	-14919
▁raff	-14920
▁rook	-14921
▁sket	-14922
▁spar	-14923
▁zinc	-14924
▁अभाव	-14925
▁आईजी	-14926
▁कुंभ	-14927
▁चढ़ा	-14928
▁जेपी	-14929
▁देनी	-14930
▁नकदी	-14931
▁निपट	-14932
▁पटरी	-14933
▁पहने	-14934
▁पैनल	-14935
▁बच्‍	-14936
▁बनती	-14937
▁बनना	-14938
▁मछली	-14939
▁महाप	-14940
▁लाइव	-14941
▁लिखी	-14942
▁विफल	-14943
▁सिंघ	-14944
cribed	-14945
ellect	-14946
eltown	-14947
ilding	-14948
riages	-14949
शिंगटन	-14950
▁humph	-14951
▁innoc	-14952
▁keith	-14953
▁lakes	-14954
▁marry	-14955
▁palmy	-14956
▁recip	-14957
▁resol	-14958
▁scout	-14959
▁smoke	-14960
▁tenth	-14961
▁venus	-14962
▁अवश्य	-14963
▁ऑर्डर	-14964
▁किडनी	-14965
▁कोयला	-14966
▁चयनित	-14967
▁चूंकि	-14968
▁दर्शक	-14969
▁धनबाद	-14970
▁निवास	-14971
▁पाठ्य	-14972
▁पौधों	-14973
▁बकाया	-14974
▁समापन	-14975
anville	-14976
uration	-14977
कारियों	-14978
▁allies	-14979
▁ashore	-14980
▁assess	-14981
▁dispat	-14982
▁easter	-14983
▁ethnic	-14984
▁hannah	-14985
▁integr	-14986
▁junior	-14987
▁limits	-14988
▁lincol	-14989
▁marble	-14990
▁meters	-14991
▁mounts	-14992
▁panzer	-14993
▁pulled	-14994
▁ranges	-14995
▁refuge	-14996
▁remark	-14997
▁repair	-14998
▁rivals	-14999
▁styles	-15000
▁subsid	-15001
▁values	-15002
▁voices	-15003
▁आडवाणी	-15004
▁आरएसएस	-15005
▁कमांडर	-15006
▁किंग्स	-15007
▁कुलपति	-15008
▁चौराहे	-15009
▁छानबीन	-15010
▁दलितों	-15011
▁धाराओं	-15012
▁मांगने	-15013
▁मिसाइल	-15014
▁मृतकों	-15015
▁विपरीत	-15016
▁विरासत	-15017
▁स्कूली	-15018
▁acyclic	-15019
▁beating	-15020
▁cougars	-15021
▁demands	-15022
▁depicts	-15023
▁everton	-15024
▁fastest	-15025
▁minimal	-15026
▁origins	-15027
▁powered	-15028
▁preserv	-15029
▁putting	-15030
▁rebuilt	-15031
▁removal	-15032
▁replied	-15033
▁revised	-15034
▁scholar	-15035
▁starred	-15036
▁suicide	-15037
▁violent	-15038
▁wyoming	-15039
▁उपलब्धि	-15040
▁क्रांति	-15041
▁क्वारंट	-15042
▁प्रकृति	-15043
▁बेटियों	-15044
▁मोहल्ले	-15045
▁वाजपेयी	-15046
▁सचिवालय	-15047
▁स्ट्राइ	-15048
▁birthday	-15049
▁delivery	-15050
▁dominant	-15051
▁garrison	-15052
▁lifetime	-15053
▁metropol	-15054
▁paralymp	-15055
▁rotation	-15056
▁आयुर्वेद	-15057
▁उद्योगों	-15058
▁बेंगलुरु	-15059
▁भारतीयों	-15060
▁abilities	-15061
▁acknowled	-15062
▁audiences	-15063
▁biddenden	-15064
▁collapsed	-15065
▁considers	-15066
▁decisions	-15067
▁documents	-15068
▁intercept	-15069
▁louisiana	-15070
▁recurring	-15071
▁scattered	-15072
▁submitted	-15073
▁suspended	-15074
▁अभिभावकों	-15075
▁परीक्षाएं	-15076
▁मुरादाबाद	-15077
▁सर्वेक्षण	-15078
▁हस्तक्षेप	-15079
▁boundaries	-15080
▁connecting	-15081
▁federation	-15082
▁industries	-15083
▁represents	-15084
▁underneath	-15085
▁गुरुद्वारा	-15086
▁मजिस्ट्रेट	-15087
▁हिस्सेदारी	-15088
▁agriculture	-15089
▁appointment	-15090
▁residential	-15091
▁accompanying	-15092
bi	-15093
oz	-15094
आज	-15095
जै	-15096
लक	-15097
ैत	-15098
.’’	-15099
bow	-15100
hol	-15101
iac	-15102
ogy	-15103
rul	-15104
ruz	-15105
tav	-15106
कट्	-15107
गमन	-15108
पाट	-15109
फरी	-15110
भवी	-15111
रेख	-15112
शोर	-15113
श्‍	-15114
ुरी	-15115
्शा	-15116
▁ri	-15117
▁sb	-15118
▁ईद	-15119
▁नॉ	-15120
▁बृ	-15121
▁हद	-15122
▁हौ	-15123
,600	-15124
ieth	-15125
kers	-15126
leys	-15127
ogle	-15128
utch	-15129
कीकत	-15130
प्रे	-15131
र्जन	-15132
वंशी	-15133
श्ती	-15134
ष्का	-15135
स्थी	-15136
स्‍थ	-15137
हिता	-15138
ुसार	-15139
▁114	-15140
▁12-	-15141
▁135	-15142
▁abd	-15143
▁duo	-15144
▁mes	-15145
▁pak	-15146
▁pin	-15147
▁sho	-15148
▁अवध	-15149
▁आंस	-15150
▁आपस	-15151
▁उठे	-15152
▁कहे	-15153
▁जमी	-15154
▁टूर	-15155
▁भेद	-15156
▁मज़	-15157
▁शॉट	-15158
arded	-15159
hered	-15160
music	-15161
vised	-15162
प्ताह	-15163
िकासी	-15164
▁asks	-15165
▁carn	-15166
▁drug	-15167
▁ferr	-15168
▁kong	-15169
▁load	-15170
▁prey	-15171
▁punt	-15172
▁rhys	-15173
▁suns	-15174
▁wish	-15175
▁अनंत	-15176
▁इकट्	-15177
▁कड़ा	-15178
▁कमाल	-15179
▁चुने	-15180
▁टैंक	-15181
▁देवर	-15182
▁देशभ	-15183
▁नायक	-15184
▁पाठक	-15185
▁पेंट	-15186
▁प्रॉ	-15187
▁फतेह	-15188
▁फॉलो	-15189
▁बनता	-15190
▁बर्थ	-15191
▁बैनर	-15192
▁भूषण	-15193
▁महाग	-15194
▁मेयर	-15195
▁संपा	-15196
▁सफेद	-15197
▁सभाग	-15198
▁सरोज	-15199
▁सलीम	-15200
imeter	-15201
निर्मा	-15202
पक्षीय	-15203
फ्रेंड	-15204
▁adopt	-15205
▁advoc	-15206
▁alive	-15207
▁asian	-15208
▁blues	-15209
▁cargo	-15210
▁crops	-15211
▁derff	-15212
▁devot	-15213
▁frost	-15214
▁guild	-15215
▁mason	-15216
▁memor	-15217
▁neves	-15218
▁parks	-15219
▁prove	-15220
▁roots	-15221
▁verac	-15222
▁उद्धव	-15223
▁खेलना	-15224
▁गुलाब	-15225
▁जानना	-15226
▁तूफान	-15227
▁नाबाद	-15228
▁पर्दा	-15229
▁पेशकश	-15230
▁फेस्ट	-15231
▁बनेगा	-15232
▁बरेली	-15233
▁मिठाई	-15234
▁राष्‍	-15235
▁रुपया	-15236
▁व्यास	-15237
▁संतुल	-15238
▁सनसनी	-15239
▁सबकुछ	-15240
▁सहारे	-15241
▁सिंगर	-15242
▁स्पीड	-15243
▁हराकर	-15244
itively	-15245
unction	-15246
किस्तान	-15247
त्तियों	-15248
वाधिकार	-15249
िफिकेशन	-15250
▁arcade	-15251
▁corpus	-15252
▁dissip	-15253
▁extens	-15254
▁finale	-15255
▁gospel	-15256
▁hidden	-15257
▁madrid	-15258
▁michel	-15259
▁pilots	-15260
▁resemb	-15261
▁stuart	-15262
▁अनुदान	-15263
▁अनुभवी	-15264
▁अवार्ड	-15265
▁आरपीएफ	-15266
▁इसीलिए	-15267
▁कल्पना	-15268
▁कालोनी	-15269
▁गतिविध	-15270
▁चेकिंग	-15271
▁नदियों	-15272
▁निकासी	-15273
▁प्रवाह	-15274
▁रामदेव	-15275
▁रिटर्न	-15276
▁रोडवेज	-15277
▁शिक्षण	-15278
▁हिन्दी	-15279
atherine	-15280
secution	-15281
कांग्रेस	-15282
ार्टमेंट	-15283
▁batsmen	-15284
▁bombing	-15285
▁colours	-15286
▁continu	-15287
▁dispute	-15288
▁enemies	-15289
▁enforce	-15290
▁failing	-15291
▁farmers	-15292
▁gaining	-15293
▁impress	-15294
▁kennedy	-15295
▁lincoln	-15296
▁ongoing	-15297
▁prepare	-15298
▁product	-15299
▁raffles	-15300
▁revival	-15301
▁skinner	-15302
▁starter	-15303
▁अक्तूबर	-15304
▁ग्राउंड	-15305
▁निराकरण	-15306
▁वार्षिक	-15307
▁संभावित	-15308
▁सक्सेना	-15309
▁समुद्री	-15310
umberland	-15311
▁interpre	-15312
▁remarked	-15313
▁उपस्थिति	-15314
▁निस्तारण	-15315
▁पूर्णिमा	-15316
▁संचालकों	-15317
▁animation	-15318
▁brilliant	-15319
▁charlotte	-15320
▁conflicts	-15321
▁daughters	-15322
▁displayed	-15323
▁elaborate	-15324
▁hampshire	-15325
▁intellect	-15326
▁nevesinje	-15327
▁starlings	-15328
▁accomplish	-15329
▁apparently	-15330
▁archbishop	-15331
▁comprehens	-15332
▁conclusion	-15333
▁mainstream	-15334
▁personally	-15335
▁qualifying	-15336
▁supplement	-15337
▁बल्लेबाजों	-15338
▁achievement	-15339
▁derfflinger	-15340
▁encountered	-15341
▁observation	-15342
▁subtropical	-15343
▁temporarily	-15344
▁कोरोनावायरस	-15345
▁consequently	-15346
▁southeastern	-15347
39	-15348
AN	-15349
ID	-15350
kh	-15351
ko	-15352
रन	-15353
वह	-15354
ुए	-15355
ुष	-15356
ैग	-15357
ोच	-15358
die	-15359
ira	-15360
mir	-15361
rep	-15362
टीन	-15363
बेट	-15364
ष्क	-15365
संघ	-15366
हाद	-15367
ामे	-15368
ैनी	-15369
्की	-15370
्ही	-15371
▁In	-15372
▁ig	-15373
▁ऑप	-15374
▁प्	-15375
▁लू	-15376
arts	-15377
fast	-15378
hews	-15379
icop	-15380
ilda	-15381
neth	-15382
oren	-15383
pled	-15384
raid	-15385
rene	-15386
wing	-15387
एनजी	-15388
जहां	-15389
जाने	-15390
दायत	-15391
नीता	-15392
र्टी	-15393
र्धा	-15394
लिटी	-15395
वर्स	-15396
विदा	-15397
ाइजर	-15398
िकोण	-15399
िल्‍	-15400
ॉनिक	-15401
▁106	-15402
▁107	-15403
▁360	-15404
▁ago	-15405
▁arn	-15406
▁cha	-15407
▁ecc	-15408
▁eve	-15409
▁gay	-15410
▁hyp	-15411
▁pam	-15412
▁pel	-15413
▁phr	-15414
▁pic	-15415
▁sic	-15416
▁toy	-15417
▁wic	-15418
▁आंव	-15419
▁आगा	-15420
▁उपज	-15421
▁एजु	-15422
▁गहन	-15423
▁टोक	-15424
▁नकद	-15425
▁नमू	-15426
▁बलि	-15427
▁मोर	-15428
▁वें	-15429
▁शैल	-15430
▁शॉप	-15431
ashed	-15432
dream	-15433
iders	-15434
itter	-15435
गारों	-15436
ियर्स	-15437
िविटी	-15438
▁1200	-15439
▁1889	-15440
▁1907	-15441
▁belg	-15442
▁buck	-15443
▁cory	-15444
▁etty	-15445
▁goat	-15446
▁halo	-15447
▁laud	-15448
▁lies	-15449
▁loud	-15450
▁soph	-15451
▁stav	-15452
▁suit	-15453
▁trek	-15454
▁zhou	-15455
▁इजरा	-15456
▁इनसे	-15457
▁उतरे	-15458
▁उधार	-15459
▁एचडी	-15460
▁कमान	-15461
▁केयर	-15462
▁केसर	-15463
▁छिपा	-15464
▁जदयू	-15465
▁झड़प	-15466
▁ढूंढ	-15467
▁धरने	-15468
▁नींद	-15469
▁नोडल	-15470
▁पाता	-15471
▁पूनम	-15472
▁बनार	-15473
▁बाधा	-15474
▁मयंक	-15475
▁रियल	-15476
▁लहरा	-15477
▁सहार	-15478
▁साहू	-15479
attack	-15480
isters	-15481
street	-15482
सोलेशन	-15483
▁1,500	-15484
▁abuse	-15485
▁accum	-15486
▁aster	-15487
▁boule	-15488
▁genus	-15489
▁hindu	-15490
▁liked	-15491
▁ruler	-15492
▁seats	-15493
▁steps	-15494
▁tours	-15495
▁wives	-15496
▁अड्डे	-15497
▁उठाते	-15498
▁एजेंट	-15499
▁एडमिट	-15500
▁एसडीओ	-15501
▁ऑडियो	-15502
▁ऑफिसर	-15503
▁कश्मी	-15504
▁कैंपस	-15505
▁खरीदा	-15506
▁खुलने	-15507
▁ख्याल	-15508
▁चौंका	-15509
▁जवाहर	-15510
▁झगड़ा	-15511
▁टेंडर	-15512
▁डेविड	-15513
▁तीर्थ	-15514
▁थानों	-15515
▁दसवीं	-15516
▁दिलाई	-15517
▁निचले	-15518
▁पट्टी	-15519
▁फटकार	-15520
▁फ्लैट	-15521
▁बर्खा	-15522
▁बाधित	-15523
▁रोहतक	-15524
▁शुक्ल	-15525
▁हकीकत	-15526
▁20,000	-15527
▁aerith	-15528
▁ancest	-15529
▁anthem	-15530
▁banned	-15531
▁barbar	-15532
▁bronze	-15533
▁canals	-15534
▁cinema	-15535
▁cruise	-15536
▁decomm	-15537
▁johnny	-15538
▁joyful	-15539
▁linked	-15540
▁lumber	-15541
▁matthe	-15542
▁obtain	-15543
▁philip	-15544
▁reagan	-15545
▁rebell	-15546
▁refere	-15547
▁reveal	-15548
▁soccer	-15549
▁throne	-15550
▁triang	-15551
▁अंतरिम	-15552
▁इच्छुक	-15553
▁जीआरपी	-15554
▁ट्रॉफी	-15555
▁दरवाजे	-15556
▁पुत्री	-15557
▁प्रवीण	-15558
▁बढ़ेगी	-15559
▁मुख्‍य	-15560
▁संहिता	-15561
▁सभागार	-15562
▁हिदायत	-15563
▁500,000	-15564
▁austria	-15565
▁coleman	-15566
▁descend	-15567
▁drivers	-15568
▁evident	-15569
▁explore	-15570
▁factory	-15571
▁feather	-15572
▁harbour	-15573
▁helicop	-15574
▁nettles	-15575
▁physics	-15576
▁possess	-15577
▁radical	-15578
▁reforms	-15579
▁restore	-15580
▁seattle	-15581
▁somalia	-15582
▁succeed	-15583
▁surgery	-15584
▁updated	-15585
▁गणतंत्र	-15586
▁नीतियों	-15587
▁प्रमोशन	-15588
▁प्रोटोक	-15589
▁सदस्यता	-15590
▁सिंधिया	-15591
▁सेवानिव	-15592
▁cardinal	-15593
▁departed	-15594
▁drainage	-15595
▁everyone	-15596
▁examples	-15597
▁humphrey	-15598
▁machines	-15599
▁offering	-15600
▁pictures	-15601
▁sciences	-15602
▁starring	-15603
▁veracruz	-15604
▁जरूरतमंद	-15605
▁beautiful	-15606
▁believing	-15607
▁dominican	-15608
▁measuring	-15609
▁pregnancy	-15610
▁underwent	-15611
▁withdrawn	-15612
▁कंटेनमेंट	-15613
▁गुरुग्राम	-15614
▁concession	-15615
▁consistent	-15616
▁definition	-15617
▁diplomatic	-15618
▁documented	-15619
▁properties	-15620
▁protestant	-15621
▁semifinals	-15622
▁statements	-15623
▁क्वारंटाइन	-15624
▁मानवाधिकार	-15625
▁शांतिपूर्ण	-15626
▁description	-15627
▁disappeared	-15628
▁exclusively	-15629
▁experiences	-15630
▁furthermore	-15631
▁internation	-15632
▁permanently	-15633
▁scholarship	-15634
▁concentrated	-15635
▁measurements	-15636
▁organisation	-15637
▁restrictions	-15638
▁administrative	-15639
32	-15640
ls	-15641
uv	-15642
कॉ	-15643
बॉ	-15644
agu	-15645
ahl	-15646
gud	-15647
ikk	-15648
olf	-15649
sex	-15650
इंट	-15651
ईडी	-15652
कूट	-15653
टेक	-15654
टेल	-15655
म्न	-15656
रोल	-15657
लेन	-15658
लोग	-15659
सीए	-15660
ॉयड	-15661
ोटा	-15662
[...]
